#version: 0.2
Ġ d
Ġ a
e s
Ġ p
o s
r a
e n
Ġ c
Ġd e
Ġ e
t a
a s
e r
Ġ s
i s
q u
o r
Ã £
i n
Ã£ o
Ġ n
i a
Ġ m
r e
Ġc o
Ġ o
t e
Ã §
Ġ qu
t o
d o
i c
d e
m a
Ġ f
Ġqu e
d a
Ã ©
a r
0 0
a l
Ã ¡
o n
Ġ v
Ġco m
Ġ u
r o
Ġd o
a n
t i
Ġ A
Ã§ Ã£o
Ã Ń
m en
Ġd a
a ra
r i
Ġ es
Ġ S
Ġe m
Ġ re
Ġ in
i l
Ġ t
e l
Ġ P
â Ģ
Ġn o
c i
e m
Ġco n
u l
Ġ C
Ã º
Ġ E
e i
Ġp ara
č Ġ
čĠ č
c ia
o l
ic a
Ã ³
Ġs e
u n
t os
s o
Ġ Ã©
d os
Ġ (
Ġ h
Ġ g
Ã ª
Ġ M
Ġ B
s a
i da
is t
Ġ b
r es
Ġ l
Ġu m
Ġ O
en t
Ġu ma
Ġp ro
r ia
u s
a m
Ġn a
men to
i z
a is
i r
ra s
Ġn Ã£o
Ġp or
Ġ N
t u
a Ãº
aÃº de
Ġ te
Ã µ
Ġ âĢ
Ġd es
Ãµ es
i m
Ġ D
Ġ R
Ġa s
o u
Ġ 2
h a
Ġa p
a Ã§Ã£o
l e
d i
Ġ 1
g u
a c
t er
i ta
d as
v a
Ġs u
o c
Ġ F
Ġa l
Ġs o
Ġ os
en te
Ġf o
Ġ Ã
t ra
ri o
s e
ĠâĢ ľ
âĢ Ŀ
e c
Ġo u
v i
Ġp el
o m
Ġs er
Ã§ Ãµes
Ġa n
t es
in a
men te
ra n
Ġ T
n cia
ĠS aÃºde
o a
Ġe x
Ġa c
Ġ j
Ġ I
Ã© m
p e
ida de
Ġp o
Ġd i
ras il
Ġcom o
or ma
Ġes t
l a
v e
Ã§ a
ra m
d es
Ġ en
v er
Ġm ais
Ġp a
Ġa t
es so
Ġd os
ĠE s
ic o
Ġa o
Ġf a
ci on
Ġ to
b re
an do
Ġf al
Ġ V
Ġc a
Ġ L
g o
Ġ ent
e d
Ġin f
Ãª ncia
Ġ G
b l
ta m
ta s
Ġ res
d u
or es
c o
ĠÃ ł
r os
i o
m o
g em
Ġm en
Ġ2 0
Ġes ta
g a
Ġfo i
Ġt er
Ġte m
Ġso bre
in ist
ĠB rasil
Ġc as
Ġp re
c e
Ġcom p
Ġ J
ta n
v o
Ġ H
s i
qu i
Ġh ist
ra l
Ġhist Ã³
Ġ im
a i
r u
Ġd as
Ġ U
p o
Ġs i
Ġv ÃŃ
Ġp r
p a
Ġv ac
Ġt ra
Ġp esso
Ġm il
c ul
Ġpel o
n a
is so
or g
Ġent re
iz a
h o
oa tos
g en
Ġp ar
Ġs aÃºde
c a
p l
Ġin ter
ta l
Ġp er
p os
a b
ta r
Ġ 3
Ġn os
) ,
Ġest Ã¡
ĠhistÃ³ ria
i d
ĠI n
t ic
f ic
c on
en do
m os
1 9
Ġj Ã¡
Ġm u
cia l
es t
ÃŃ s
oc Ãª
ei ro
i g
qu e
men tos
ei ra
Ġ -
p i
bl ica
cion al
p or
v el
) .
Ã ¢
ent es
i to
m e
Ġinf orma
Ġc ir
g un
Ġpesso as
ĠM inist
d er
f er
en ta
Ġm o
Ġp os
ĠS e
c u
ti l
Ġv ocÃª
Ġa r
Ġre al
Ã© rio
ĠN a
b Ã©m
is ta
n e
Ġ tam
da de
ĠvÃŃ de
n o
Ġv er
Ġ W
ĠP or
e b
s Ã£o
Ġ \
Ġm un
m as
Ġas s
h e
r us
de m
t ro
j e
ĠMinist Ã©rio
t en
Ġat en
2 0
u m
Ġre g
j a
Ã¡ rio
Ġ i
ĠB oatos
" :
c l
Ġn as
Ġp as
ri m
a v
Ġmen sa
vi d
p p
g ra
Ġcir cul
Â ł
Ġc or
Ġd ia
ida des
c er
ti v
ĠvÃŃde o
Ġcon ta
p ita
t or
Ġp res
Ġcon tra
f ica
Ġs Ã£o
Ġm es
Ġtam bÃ©m
is a
t s
s as
Ġm or
Ġdo en
is te
Ġsu g
Ġcas os
ra r
ĠA l
Ġa u
ma n
ic os
Ġcon f
ĠC o
Ġn e
ul a
ÃŃ ci
ĠD e
Ġpel a
Ġv i
ĠN o
p res
t ica
Ã³ s
ia l
o g
Ġd is
č Ċ
b i
ĠC on
ĠE m
ri os
Ã§ as
ĠâĢ ĵ
am os
os pita
Ãª s
ĠW ha
Ġp u
Ġe le
Ġcon s
b er
e z
Ġc l
, "
Ġse gu
Ġc ria
ĠC om
tu ra
Ġ isso
b a
Ġap on
Ġqu al
r g
n i
est Ã£o
Ġvac in
Ġl ei
Ġa m
ar o
Ġfa z
Ġou t
U S
ĠP a
cia is
p on
es s
s on
oa to
v en
Ġpa ÃŃs
Ġg ente
Ġfo ram
ĠA s
pe cial
Ġc u
Ġ Ã¡
Ġan os
in da
p an
Ġm as
ti va
Ġs em
Ã© d
ic as
Ġg ra
ti vo
âĢĿ .
Ġvac ina
Ġm e
A pp
Ġm a
ts App
Ġ20 2
ĠWha tsApp
t Ã©
e de
k e
": "
Ġo n
Ġpo de
ĠCo vid
c or
Ġf or
Ġ 4
Ġ r
in do
ei o
Ġat Ã©
Ġh Ã¡
o ver
ve is
Ġ 5
p ul
v ol
Ġter ia
f a
ĠP ara
Ġmil h
ti r
Ġc ar
ara m
Ġtra ta
Ġmensa gem
ne t
x to
g Ãªncia
ĠN Ã£o
gen s
ol ÃŃ
Ġa qui
Ġinter net
s os
ospita l
Ġin s
f is
a do
Ġh o
b u
âĢĿ ,
Ã§ o
Ġin d
ta do
ĠE n
O R
Ġd u
6 1
di o
w s
Ġsi te
to u
l o
p al
iz aÃ§Ã£o
ran s
Ġl e
on te
ri as
Ġmun ic
" ,"
Ġe l
qu er
Ã¡ s
d ores
d or
Ã¢ n
Ġ ti
Ġdes men
b al
si on
Ġac or
i as
Ġm an
t Ã³
b e
is tas
Ġa inda
Ġa b
v es
Ġo b
Ġpu blica
Ã ´
Ġso ciais
Ġc h
Ġf orma
Ġest Ã£o
Ġre des
ol son
t ores
Ġe qui
Ġacor do
b il
l ti
Ġpro du
i ra
di mento
Ġpo pul
ei to
Ġa os
Ġm Ã©d
Ġd isso
Ġcon te
Ã¡ ria
Ġne ws
Ġal gu
Ġp Ãº
ra Ã§Ã£o
as e
Ġp rim
Ġa f
Ġt rans
es ta
i t
Ġcon t
ÃŃ l
c re
ĠO s
Ġapon ta
Ġ 9
Ġm ed
Ġinforma Ã§Ã£o
olson aro
u sa
Ġte xto
ir ma
Ġmu ito
Ġar ti
Ġ 6
Ġmes mo
fis sion
ti tu
Ġdesmen ti
Ġ Ãº
id ente
i x
en h
ÃŃ rus
Ġf un
ĠA n
Ġsu a
Ġ or
f or
over no
p er
Ġd iz
in al
Ġmilh Ãµes
on av
Ġs endo
Ġdoen Ã§a
p es
Ġcas o
Ġm os
Ġap res
o k
Ġb rasil
o ra
ĠB olsonaro
ri bu
Ġpopul aÃ§Ã£o
Ġpr Ã³
Ġpos s
ta dos
c is
c om
Ġ Q
ar til
ĠEs se
Ġm ai
h ar
Ġfa ke
m er
Ġconta to
Ġp e
l is
en ti
Ġpro fission
Ġes pecial
Ġdi re
Ġc an
tic as
v em
Ġreg ist
ĠS Ã£o
ĠNa cional
ĠAl Ã©m
ul o
l in
Ġes sa
b r
Ġp es
ÃŃ vel
gra ma
ran te
onav ÃŃrus
gun do
en as
ÃŃ n
Ġte ma
in ha
Ġcom e
Ġv ai
Ġfal sa
Ġcomp artil
Ġsug er
Ġa tu
Ġser vi
i tos
cl us
Ġre ce
ĠR e
Ãª n
ede ral
Ġmunic ÃŃ
eb o
ac ebo
pos ta
Ġ 7
Ġv ez
el a
Ġto dos
Ã¡ rios
Ġi ma
Ġan o
b ro
c n
Ã§ os
acebo ok
i Ã§Ã£o
Ġc er
t ico
R A
Ġpa ci
Ġto do
iste ma
Ġarti go
ĠV er
i p
Ġcria n
00 0
u ma
Ġse ja
ei ros
Ġinforma Ã§Ãµes
ĠL e
Ġes c
Ġpr in
h er
Ġ20 1
Ġcor onavÃŃrus
ĠÃ ī
Ġs a
Ġim p
ĠA ten
in h
ol og
ci as
Ġpas sa
ĠR io
ĠS US
Ġre la
is er
ĠP s
e ral
ia r
Ġm inist
g ar
Ġmai or
Ġm ul
Ġqual quer
Ġt u
B oato
ĠC h
Ġout ros
Ġt r
pan ha
pi os
Ġqu iser
E S
Ġca usa
Ġe la
i ma
Ã¢ ncia
ĠP ro
Ġmos tra
Ġprofission ais
l an
tan te
un to
Ġim por
Ġse u
Ġver dade
re m
Ġtrata mento
Ġc ita
Ġl oc
Ġa v
Ġm eio
ĠP OR
Ġes se
Ġtra bal
Ġres pon
dem ia
ĠF acebook
in g
ĠO u
ĠU ni
Ġsuger ir
ĠVer sÃ£o
Ġen con
ÃŃl ia
Ġlei tores
iz ar
Ġl i
Ġsug estÃ£o
Ġc he
ĠQ u
Ãª m
p re
ÃŃci o
Ġt es
on e
c ar
z a
Ġdi as
men ta
Ġp an
ar es
Ġap Ã³s
Ġprin ci
Ġpes qu
Ġu til
Ġconte Ãº
ĠL ula
Ġo cor
Ġa d
Ã³ g
cion a
Ġex pl
Ġdes ta
f orma
Ġdi ver
ara n
v as
ĠÃº lti
ra do
Ġc am
an cia
ĠS an
Ġap enas
ci mento
fa de
ĠÃł s
el e
Ġaten dimento
a g
Ġ Ã³
ĠA gÃªncia
Ġn enh
Ġte le
Ġpar te
Ġs Ã³
Ġu so
Ġna da
T A
Ġno t
t re
ran de
Ġg overno
Ġser Ã¡
ĠmunicÃŃ pios
ĠPa ulo
Ġre p
go ra
ĠvÃŃ rus
Ġu n
Ġes tra
Ġpres idente
Ġm ar
Ãº mer
in u
Ġd ist
Ġp olÃŃ
Ã¡ veis
Ġesta dos
Ġv al
Ġal er
en a
20 1
f eira
Ġser ia
ÃŃ gen
ÃŃci as
b o
Ġin te
Ġapres enta
Ġre l
ĠÃ ļ
Ġ 8
t r
en sa
Ã¡ vel
Ġs us
Ġmed ica
Ġb us
Ġcom un
el h
Ġpan demia
i u
Ġesta do
Ġc ha
Ġs im
ves ti
Ġfaz er
Ġb oatos
Ġv ol
an eiro
Ġpor que
l ica
oc a
d ia
Ġqu ando
ec ess
ĠM as
en e
Ġa g
j u
ĠD i
s es
Ġdu rante
ĠA o
a d
E N
Ġout ras
ĠA m
Ġpaci entes
Ġmun do
ol a
Ġcome Ã§
Ġpo der
Ġda dos
Ġn Ãºmer
ĠH ospital
u r
Ġno vo
gu e
Ġ ra
Ġpar tic
Ġho je
Ġes tu
Ġt en
Ġ ,
ia n
Ġn ecess
p s
5 5
ĠC O
Ġvacin as
iza do
Ġmu ita
Ġtele f
9 1
ĠconteÃº do
a gem
ĠD E
Ġmo mento
Ġin vesti
Ġcu ida
i te
Ġinter na
Ã´ n
ĠLe ia
tan to
Ġal Ã©m
Ġmul her
Ġem pres
O S
v os
ĠF ederal
c h
olog ia
ĠpÃº bl
ta mente
ro u
ĠM ar
tan do
u man
M S
Ġcha ma
lin e
Ġ1 0
ra da
fic ial
Ġo fer
or n
Ġre cu
A S
g n
Ġam pl
Ġs ab
Ġin ic
ta ria
Ġn es
Ġr is
en vol
Ġf il
Ġtelef one
an to
Ġor i
Ġa Ã§Ãµes
ĠE S
Ġinf ec
Ġminist ro
tu gu
ĠprÃ³ p
Ġencon tra
ita r
i on
Ã¢n cer
in o
Ġsi do
Ġv is
Ġre for
a re
Ġque m
ma il
Ġc i
Ġservi Ã§os
Ġpro grama
Ġp ra
ent ro
Ġre c
Ġac om
Ġs in
5 8
Ġon line
l es
Ġcircul a
Ġpesqu isa
iza da
Ġsi tu
i Ã£o
us ti
Ġh ospital
i do
tugu Ãªs
Ġca da
Ġpro mo
le x
e ancia
Ġac onte
Ġac esso
tiv os
ĠAten Ã§Ã£o
Ġdes de
ai x
Ã¡ g
Ãªn cias
Ġe r
Ġg aran
Ġpo dem
Ġcrian Ã§as
ic ar
ĠE du
Ġpro te
âĢ ¦
c aÃ§Ã£o
m ou
Ġap o
Ġim un
Ġti po
Ġcomp ro
ci o
Ġb em
t ina
Ġtem po
ĠR es
tÃ© g
Ġpre cis
Ġb oato
Ġconf i
Ġl u
Ġvacin aÃ§Ã£o
Ġc r
Ġde ix
p en
Ġg ru
ĠM a
Ġcompartil ha
ri to
Ġno va
ter na
N A
Ġalgu mas
v ul
9 4
ĠP olÃŃ
Ġv e
Ġpublica Ã§Ã£o
v ar
Ġal i
Ġtu do
Ġe ra
Ġmensa gens
Ġv en
Ġpre ven
cl u
ĠI s
Ġre du
an te
ĠL u
Ġa ÃŃ
t t
ol Ã³g
T I
ĠS a
ĠCom o
da n
Ġpesso a
c esso
te m
gu a
bil idade
Ġfa to
Ġs ol
i os
Ġconf irma
ĠnÃºmer o
in as
ia is
Ġres ul
i or
Ġvi ral
Ġre de
ĠSe gundo
Ġl in
Ġc Ã¢ncer
ra is
Ġf im
Ġ- -
Ġ-- >
E R
l u
I D
Ġpar tir
gun s
ei ta
Ġ .
Ġs an
Ġf am
Ġto das
ĠS o
Ġex iste
Ġv ida
Ġ ta
em os
Ġfal sas
f r
s titu
ĠM un
ran Ã§a
ĠD es
Ġc ara
Ġap ro
em pl
Ġen vol
ĠÃ¡ u
om ia
I A
usti Ã§a
Ġ id
Ġmen os
) ;
ica Ã§Ã£o
Ġdes envol
uman os
ÃŃ cia
Ġes te
Ġpre v
bi ente
vi mento
tt ps
l i
Ġde f
Ã¡ lis
po is
ĠJ aneiro
Ġon de
Ġau tor
tÃ³ rio
Ġd en
p ec
Ġatu al
Ġu s
tic os
Ġfal a
S US
ma r
ec re
1 5
Ġ [
Ġsu b
\ /
ul ar
Ġrel aÃ§Ã£o
Ġse cre
t ru
Ġdi vul
clus i
ĠEs pecial
ĠpÃº blica
Ġp ri
Ġdia gn
Ġdist ribu
Ġtr Ãªs
Ġ1 5
Ġposs ÃŃvel
Ġpro je
Ġid enti
ec agem
Ġestra tÃ©g
tam os
Ġreal idade
ĠS istema
ul tura
a da
Ġass unto
Ġ ir
pe ra
Ġco l
Ġris co
ĠÃ¡u dio
ĠF o
s s
c as
Ġp lan
an tes
Ġn em
ran do
Ġaf irma
Ġdo cu
Ġv amos
Ġdes co
Ġass im
ta le
Ġex empl
el o
Ġal guns
Ġn esta
Ġloc al
Ġob je
Ġcon se
di do
Ġ tal
Ġe u
ÃŃ veis
Ġa ju
ĠCon f
ĠS ecre
2 7
Ġdo is
Ġins titu
Ġse us
Ġca pa
Ġde ve
Ġ1 9
tiv as
Ã ĥ
Ġg ol
m is
Ġaten Ã§Ã£o
Ġb eb
re u
ĠJ ustiÃ§a
Ġdis pon
ĠP rim
ĠF a
Ġto tal
or ia
Ã© cn
b ri
Ġap lica
n ico
Ġdoen Ã§as
Ġlin k
co men
Ġ1 2
ig il
I S
Ġes pal
an c
Ã¡lis e
Ġind ica
f e
ĠAs s
ĠEdu caÃ§Ã£o
ĠDi re
Ġ2 4
Ġpre c
Ġg an
con omia
Ġp Ã¡g
Ġu sa
Ãĥ O
Ġt Ãªm
6 4
Ġdi fer
Ġprinci pal
v ia
Ġno me
Ġun idades
Ġrecu r
v ent
ĠIn terna
Ġmor te
el ho
Ġ ro
Ġqu estÃ£o
N G
Ġs al
ci do
an d
ĠConf ira
ĠC ar
Ġesta ria
Ġf in
d ial
Ġre comen
Ġg e
Ġg rande
Ġ 0
ra dos
Ġap are
ic ou
ĠG eral
Ġp ol
g ou
ver s
Ġprim eira
Ġsitu aÃ§Ã£o
. :
is mo
iza dos
! !
m p
Ġpartic ip
da r
Ġmedica mentos
ta Ã§Ã£o
Ġmor tes
on tes
ĠU ma
Ġ20 20
Ġm elh
Ġima gens
ga do
org an
Ġposs u
g aÃ§Ã£o
Ġdes con
ĠInterna cional
v am
ci dade
ĠU m
ĠS ul
di das
Ġa gora
ec e
ar m
ia m
A R
Ġa qu
Ġp on
iz ou
er ra
h ou
Â º
ei tos
Ġj o
Ġprim eiro
Ġse gundo
clus Ã£o
p ar
Ġf eito
fica Ã§Ã£o
Ġb as
Ġfor tale
Ġa do
Ġequi pe
ĠIs so
Ġf inal
an a
in ho
Ġh om
Ġinic ia
im o
u al
Ġacom panha
cul os
Ġdis se
Ġnot ÃŃcia
Ġex am
d en
Ġf onte
Ġcomp le
ĠT ra
Ġimpor tante
Ġse gun
Ġb ase
u mo
ĠJ Ã¡
Ġexempl o
Ġ1 8
ĠmÃ©d ico
Ġind ÃŃgen
Ġin clu
Ġsin to
ĠJ a
Ġs istema
di mentos
r ensa
u blica
ru z
ĠPor Ã©m
l as
Ġcon si
Ġt Ã©cn
ĠmÃ©d icos
ĠPolÃŃ tica
ma na
c ri
Ġv a
Ġima gem
Ġc ri
ic e
ĠAm biente
Ġsu posta
Ġdu as
Ġm on
Ġf ontes
v aÃ§Ã£o
Ã© r
fic ar
E I
Ġac ab
ĠÃ¡ re
ab il
Ġconfi Ã¡veis
Ġte cn
Ġde tal
Ġcircul ando
fic i
Ġav al
Ġnenh uma
l og
Ġcont inu
ĠC a
Ġci ent
Ġv o
Ġan tes
Ġ is
or te
m i
Ġ organ
ist Ãªncia
tan tes
Ġobje tivo
Ġpro cu
ce u
ĠDire itos
c ara
ĠE conomia
Ġre pres
Ġval or
7 7
c al
t ÃŃcias
c os
Ġnos sa
Ġrecomen da
ĠE le
ci d
por tes
b le
ĠT am
Ġlei tos
ĠR o
Ġtrabal ho
Ġ3 3
Ġrecur sos
p t
Ġbrasil eiros
ĠH umanos
Ġmes es
ĠEn tre
Ġdiver sas
Ġin ÃŃcio
Ġres posta
im os
ĠC ultura
Ġempres a
in aÃ§Ã£o
Ġcon he
ĠES P
Ġf e
pi ra
bi tos
Ġcuida do
c ter
ĠPrim Ã¡ria
t Ã¡rio
Ġ K
Ġequi pes
Ġ1 4
ĠS u
ĠCh ina
ĠM eio
ba te
igil Ã¢ncia
t Ã£o
Ã ±
ti on
Ġel es
Ġ3 0
h os
ĠE x
Ġcara cter
ĠNo tÃŃcias
ĠpÃ¡g ina
Ġsegun da
Ġimp rensa
Ġf ez
ĠEn g
Ġtes tes
Ġ |
ĠEs pa
ĠR a
ĠÃļ lti
Ġl o
Ġnenh um
Ġen fr
ĠprÃ³ x
Ġou tro
Ġpas s
ĠC am
Ġna cional
Ġaler ta
Ġm al
so u
ĠPor tuguÃªs
Ġsu as
Ġfal ta
Ã£ os
Ġca us
um indo
ĠE NG
ĠEs portes
Ã ĩ
. \
ĠT o
Ġsinto mas
Ġh av
ĠÃļlti mas
Ġ {
T O
lis h
ĠEng lish
va do
Ã± ol
( '
ĠEspa Ã±ol
T E
v isa
Ġpa re
i f
orn al
Ġgra tu
p ais
Ġa Ã§Ã£o
Ġte ve
Ġredu z
Ġc us
tu al
Ġc idade
Ġcon tro
Ġrela ciona
D O
a f
Ġdesco bri
Ġcer ca
vi do
ĠIn stitu
Ġvez es
re di
ĠRes umindo
Ġhom em
Ġau mento
ta da
Ġo ficial
Ġconsi de
es se
Ġ1 3
pes ar
ĠÃºlti mos
/ /
Ġrece ber
Ġe v
v al
U A
Ġsu pos
: //
ĠpaÃŃs es
an o
Ã¡ rias
s em
t ri
Ġcas a
em b
R O
s al
ia Ã§Ã£o
p as
Ġfal ar
t in
e dade
Ġ /
ĠpÃºbl ico
c ou
Ġpro va
ĠÃļ nico
ĠTam bÃ©m
or o
Ġv ia
ig os
Ġ1 1
ĠÃ¡ gua
Ġso cial
Ġma ter
p ro
Ġ202 5
Ġprinci pais
2 5
Ġsegu in
Ġapo io
v endo
an Ã§a
ÃŃs ticas
is as
is Ã£o
u rg
Ġse x
Ġpro ce
Ġde vem
Ġproje to
ĠP o
Ġnot ÃŃcias
ÃŃ o
Ġpel os
Ġdiver sos
Ġl on
Ġqu er
el as
ar ra
m in
ĠC as
Ã¡s cara
n am
Ġsus p
E M
Ġe ven
V ID
ti ma
Ġori enta
Ġ201 8
Ġco le
men tar
Ġf ica
Ġse mana
Ġle v
p ara
Ġto da
ĠIn d
Ġin c
Ġdiagn Ã³s
ci da
Ġesta va
iza das
m on
Ġestu do
Ġper ÃŃo
Ġsegu ranÃ§a
Ġ1 6
ospita is
ĠA lex
Ġpro cesso
s t
Ġ20 19
ĠSecre taria
1 6
ta mento
inh eiro
f il
ta das
i Ã§Ãµes
ĠA pesar
ĠM ais
Ġser Ã£o
Ġcam panha
8 4
ei ras
r in
es a
Ġal arm
ĠcomeÃ§ ou
g ram
clusi ve
Ġh ttps
v ida
Ġesta r
g as
Ġb ene
ĠD a
ĠN e
Ġsem pre
ĠV al
ti do
Ġrespon s
Ġfo to
Ġa tiv
Ġp ou
Ġb al
i das
en o
Ġqu ar
ir mou
un cia
ĠhistÃ³ rias
pa mentos
Ġho ras
ente mente
Ġan ti
t un
Ġde cl
ar Ã¡
Ġab ri
Ġ2 3
Ġprodu tos
Ã³ r
Ġg est
and re
i k
Ġr Ã¡
so cia
du al
Ġnes te
Ġc el
abil ita
Ġde pois
Ġesc ol
I C
Ġm Ã¡scara
Ġsu r
er g
Ġo l
ĠB ras
ĠPro grama
e ja
Ġ â
ig inal
Ġc in
Ġ ru
Ã¡ tica
Ġregist ro
Ġexpl ica
ca do
Ġten ha
n do
es sa
ĠEs ta
Ġsu rg
Ġme didas
Ġhav ia
cion ais
ĠAlex andre
Ġre fer
i b
qu anto
v ista
p io
on a
Ġmulher es
ĠG overno
Ġcaracter ÃŃsticas
ab ora
Ġcir urg
ĠA r
Ġel ei
Ġf ederal
Ġpreven Ã§Ã£o
forma Ã§Ã£o
Ġconse gu
ĠA gora
es te
si te
Ġrece be
Ġd inheiro
Ġg over
Ġcons ul
s Ãµes
Ġ33 15
g e
ĠP A
Ġb an
ru tura
Ġtrans mis
Ġin ten
Ġmuita s
r ente
ĠP re
Ġmelh or
A M
ra p
Ġ6 0
ĠperÃŃo do
Ġmu itos
ĠJ o
ĠInstitu to
3 0
Ġe di
a tro
menta Ã§Ã£o
Ġgru pos
ĠindÃŃgen as
ĠprÃ³p rio
Ġen fer
ĠCO VID
h as
ti da
Ġpel as
er o
f ia
w a
Ġsi tes
Ġbrasil eira
Ġbus car
Ġrep as
e a
I V
Ã© s
Ġpar cer
Ġf ac
Ġ *
Ãº n
Ġ1 7
Ġapres en
Ġb om
Ġl ista
Ġ Y
Ġcircul ar
tÃ© ria
ta gem
ĠC or
Ġf ar
ĠI N
aix o
u d
ĠM en
Ġgratu ita
Ġg ri
Ġh ospitais
Ġimp ac
Ġencontra mos
Ġf u
61 0
A N
j am
Ġdesmenti u
ic ion
ga da
P I
il ha
Ġj ornal
ĠG rande
ĠBras ÃŃlia
por tun
ĠAn Ã¡lise
Ġ idade
ĠvÃŃde os
Ġloc ais
p u
Ġ1 00
Ġcu ra
Ġcient ÃŃ
ĠD ist
Ġl im
Ġbus ca
Ġ Z
Ġal ta
P S
em as
g an
Ġalarm ista
r on
Ġno vos
ĠCon clusÃ£o
ĠP er
Ġdes in
ĠAten dimento
Ġes sas
ĠEs tados
ĠInd ÃŃgen
Ġh ou
Ġpas ta
ĠCh ecagem
ĠdiagnÃ³s tico
Ġfal so
os se
ĠA g
ĠA ma
Ġexam es
Ġprincipal mente
Ġgaran tir
Ġd entro
ĠEs sa
Ġrefor Ã§
Ġsu per
C O
Ġcon tam
qu es
ĠG u
Ġdesta cou
Ġf ra
ĠÃ³ bitos
6 19
ec er
Ġl Ã¡
ĠJa ir
i Ãµes
iz ando
de u
Ġqual idade
Ġdos es
tÃ³ rios
Ġcol oc
d endo
ĠPa d
ĠMun dial
ĠE la
91 64
91 77
Ġcu r
1 0
i oc
Ġa le
lin k
g mail
Ġde z
ĠF am
ĠIn f
ĠH Ã¡
Ġgru po
Ġp la
Ġres ol
ĠRe p
55 610
55 619
27 55610
55619 2755610
Ġde cis
Ġ202 2
ita l
ĠN os
ĠU S
lu en
i ro
Ġdiz er
or me
Ġa ta
pres idente
Ġa tra
Ġcin co
âĢ Ļ
Ġou tra
Ġnos so
Ġqu atro
Ġcon di
Ġdes te
ĠU n
Ġper gun
Ġg en
Ġer ros
Ġb il
ra das
men t
a Ã§Ãµes
ĠV ocÃª
ĠFa ke
Ġc en
Ġcor po
Ġprec isa
Ġd ar
ri do
ter ior
en der
ber to
Ġpri or
Ġc al
Ġdes sa
Ġp ul
Ġsi g
Ġprodu Ã§Ã£o
Ġbrasil eiro
Ġreg iÃ£o
ĠA tÃ©
Ġenfr enta
ĠvocÃª s
Ġcan al
Ġv Ã£o
Ġinicia tiva
un da
Ġan al
l os
Ġes ses
Ġdi g
Ġequi pamentos
Ġinte gra
an Ã§
Ġgol pe
Ġtem os
r Ã¡
un ca
Ġaju da
b ora
Ġtam b
Ġ5 0
ĠSo bre
bl emas
Ġqu an
Ġres pira
ber tura
i gu
rg an
Ġde le
ist en
Ġac ess
Ġparcer ia
en Ã§a
ĠE u
ĠFam ÃŃlia
ĠV amos
k ing
Ġcont ribu
ĠUni dos
d ida
os a
ci dos
ĠD O
c ol
d r
Ġes pe
Ġi dos
Ġde las
Ġb a
in ar
Ġprodu to
ĠD o
ĠFo to
5 0
Ġman if
Ġfam ÃŃlia
Ġdecl ara
Ġres sal
p ula
Ġat ribu
ĠA p
Ġalgu m
Ġcapa cidade
ĠS il
Ġqual i
5 1
Ġve ÃŃ
h es
Ġes pec
va da
58 0
g re
Ġass istÃªncia
ĠO rgan
Ġes tamos
Ġ2 00
Ġres p
Ġpro blemas
Ġfun da
Ġc res
Ġmes ma
Ġgest ores
ĠprÃ³p ria
Ġeven to
p ida
ĠS er
Ġpu bl
aram po
Ġfor Ã§a
Ġc ent
Ġal go
i dos
Ġv ar
Ġt or
Ġau to
Ġre un
l ig
Ġpossu i
u Ã§Ã£o
Ġl abora
h ando
ĠCon s
Ġgra ves
d ica
Ġaf irmou
Ġus u
Ġev itar
ĠM an
b ito
Ġin clusive
Ġj un
m es
pe raÃ§Ã£o
D E
Ġcl ÃŃn
d Ã£o
Ġt Ã£o
el iz
ioc ruz
ĠAn visa
Ġo fic
em bro
Ġprodu z
Ġpla ta
h ia
in e
m inist
ĠD u
Ġampl iar
s er
Ġdes se
Ġesta b
Ġservi Ã§o
ti m
ĠF er
Ġf eita
Ġcircul am
Ã¡ cia
Ġrespon der
ag e
T F
t ros
Ġcontro le
a u
por te
oc u
ÃŃ do
qu ina
Ġf icar
ĠU TI
ĠC u
Ġp al
Ġh or
Ġpor tuguÃªs
la re
Ġf ec
I L
Ġqu ase
ĠT em
Ġden gue
vers idade
Ġb ol
f ico
Ġdesenvol vimento
os to
ĠM u
Ġre m
Ġpaci ente
ic ina
Ġter ri
Ġ202 1
Ġcont r
ĠPad ilha
il o
Ġcons tru
Ġ202 4
Ġdetal hes
per i
j o
en s
Ġno vas
Ġreal izar
ble ma
Ġ2 7
Ġe t
Ġin di
Ġto mar
z o
Ġreduz ir
c am
vi o
Ġresul tado
Ġno ta
ru mp
u cal
ĠVal e
Ġcon c
ed ia
6 0
Ŀ Į
Ġmedica mento
Ġchama do
ĠAss im
Ġpro blema
Ġtra z
Ġmon ito
Ġco isa
Ġn unca
Ġf re
ĠT ab
Ġs arampo
Ġin g
Ġ202 3
ĠLu iz
ĠS Ã³
Ġma tÃ©ria
Ġprocu rar
z es
Ġmed ida
com o
Ġâ ĿĮ
Ġhou ve
ma is
ĠB a
ti dade
Ġaten dimentos
pe a
Ġcl aro
Ġcita da
r er
t Ã¡
Ġu ni
Ġ #
Ġsupos to
Ġe vid
Ġcom bate
Ġso f
Ġen quanto
di os
Ġtecn ologia
ĠSan ta
Ġis ola
Ġdesin formaÃ§Ã£o
Ġn arra
Ã© dio
ĠT rump
Ġac redi
Ġdesmenti do
Ġespecial mente
pi dem
Ġelei Ã§Ãµes
Ġfin anc
ĠÃ¡re a
Ġqu anto
Ġtrabal ha
Ã ģ
Ġt orn
I N
e x
Ġm Ãªs
ĠS im
ci edade
Ġmar Ã§o
ĠE UA
co p
2 6
ĠF or
Ġresul tados
Ġdes ses
Ġdef in
Ġgover na
Ġcomp ra
Ġentre vista
Ġre f
ĠG o
Ġch ecagem
ĠDist rito
rap ia
ed s
A I
v il
Ġpe dido
di dos
ĠEs tado
ĠTra ta
Ġde ver
Ġco or
Ġ X
Ġsim pl
Ġ4 0
2 4
8 0
Ġem er
Ġgri pe
ĠS P
ĠD ia
Ġdesmenti mos
Ġad ul
ĠV igilÃ¢ncia
ĠG lo
Ġdis cu
i olÃ³g
Ġempres as
Ġm er
de qu
ĠIndÃŃgen a
B oatos
Ġdifer entes
R E
g os
l ia
ti fica
Ã´ m
Ġimpor t
Ġcom er
les c
Ġprote Ã§Ã£o
ĠRe g
Ġfun cion
Ġsig ni
ra mento
Ġf osse
Ġs Ã©
Ġm ÃŃ
tu bro
Ġconte xto
ĠmÃ¡scara s
Ġan ima
Ġper man
Ġv em
Ġesc lare
Ġun idade
Ġpo pula
Ġre vel
Ġac usa
tÃ³ ria
Ġt Ã¡
g al
p ri
Ġrepres en
du ais
Ġdescobri mos
Ġs enti
Ġpos si
ĠpolÃŃ tica
t ia
to ra
Ġto ma
te x
ĠA inda
Ġgra ve
ĠÃºlti ma
94 58
I O
Ġsab er
84 94
ta rias
sa pp
man do
ĠS i
vi das
v or
t sapp
E s
Ġau x
Ġam igos
Ġenvol vendo
n as
n ica
Ġpos sa
Ġbil h
Ġpro c
ĠR ec
Ġenfrenta mento
p ol
Ġn orma
Ġca pita
Ġex peri
Ġofer ta
ĠS TF
cri Ã§Ã£o
Ġdispon i
Ãĩ ÃĥO
Ġca das
ĠmunicÃŃ pio
M A
Ġco la
Ġlu gar
1 1
Ġan Ãºn
Ġocor reu
Ġsan gue
Ġpre ocu
m l
i mento
Ġd Ã¡
Ġas socia
Ãº blica
gen cia
Ġsegu e
Ġsecre tÃ¡rio
Ġab s
Ġnecess idade
oro quina
Ġcaus ar
ublica Ã§Ã£o
4 5
Ġ z
ĠC entro
= "
s en
de ia
Ġre con
ĠM Ã©d
ĠWha tsapp
Ġinc en
Ġv ag
oc o
os e
ĠC i
Ġe f
Ġg eral
Ġver i
c il
Ġp l
Ġ Â
Ġqu est
b ar
k en
Ġl a
Ã© l
ĠF e
d y
Ġconfirma dos
luen za
Ġfun ciona
Ġlon go
Ġ2 5
ĠBrasil eira
Ġme ta
Ġaponta va
tu ras
Ġfa tos
tan ol
Ġcrian Ã§a
Ġinstitu iÃ§Ãµes
p oca
Ġper ce
3 580
Ġn Ã³s
Ġcontr Ã¡rio
Ġsimpl es
Ġali mentos
x a
U E
m ina
Ġpro v
da des
Ġa ma
Ġo portun
to x
r is
ve u
4 0
Ġmu dan
en da
Ãª u
ĠC l
vem os
Ġviral izou
Ġidenti fica
ĠâĢ Ķ
Ġex tre
Ġmor reu
e ta
b rasil
Ġent Ã£o
Ġho men
Ġ tanto
in gu
Ġpro f
Ġabri l
D A
Ġre ti
Ã¡ ticas
Ġest rutura
Ġativ idades
ĠUni versidade
Ġconf orme
Ġpassa do
Ġ rou
S EI
u de
Ġdes sas
Ġj aneiro
ve ram
Ġcons umo
Ġel as
ĠP ar
O L
Ġrep ublicaÃ§Ã£o
Ġfal ando
eliz mente
Ġsigni fica
Ġd or
ĠP ublica
Ġdes af
Ġori gem
Ġpublica Ã§Ãµes
ĠhistÃ³ r
co ol
Ġh abilita
ĠOrgan izaÃ§Ã£o
ul as
ĠestratÃ©g ia
ti mas
Ġapon tam
Ġan uncia
P A
h ttps
Ġado lesc
Ġbal ela
Ã ī
Ġe fic
Ġt re
i pal
Ġsol ic
t ch
ĠE qui
Ġestu dos
oc e
Ġen via
ĠMun ic
C A
Ġde u
an os
Ġofic iais
Ġdistribu iÃ§Ã£o
Ġbas tante
Ġtransmis sÃ£o
b ase
e as
ra te
ĠÃ³ rg
ĠRa di
t ras
Ġfa br
Ġg u
Ġalgu ma
ĠveÃŃ culos
Ġde ter
ĠÃ© poca
ĠO MS
Ġp ed
ĠG e
a pp
is sÃ£o
Ġpro vas
Ġg estÃ£o
Ġ2 1
Ġma io
ur l
Ġent rar
Ġisola mento
ga dos
Ġpas sou
ĠDes de
Ġenfer m
Ġdes tina
Ġj unto
Ġpartic i
f ei
t ta
Ġa dequ
ĠB ar
ĠV ac
ĠpolÃŃ ticas
Ġfe bre
Ġdi to
ĠH IV
: \/
Ġ9 9458
:\/ \/
t ts
Ġ 00
Ġc idades
ip ais
il ia
Ġespecial istas
Ã¡ ter
Ġre ais
Ġsub st
log ia
Ġnos sos
ĠRadi oa
c tion
w it
Ġh uma
eb c
i que
Ġde les
ic ando
Ġj ul
Ġsurg iu
2 3
l cool
Ġcl as
Ġche gou
Ġimport Ã¢ncia
ita s
ĠL a
ĠFe ed
a dos
Ġper m
ĠmÃ©d ica
Ġdocu mento
Ġrespons Ã¡vel
ĠPublica do
ĠRadioa gÃªncia
ma le
ĠIn ÃŃcio
ĠDe pois
Ġinclu indo
Ġat ing
Ġdesmenti da
Ġli v
ad d
Ġdocu ment
Ġfa vor
Ġcar Ã¡ter
' ,
e vent
Ġaconte ce
tex t
or iginal
ei tas
gen der
nam e
ĠMen u
g ando
Ġche gar
bo dy
E vent
a gencia
Ġ }
gu age
co de
vo ice
ene t
Ġprecis o
ĠGlo bo
" }
' );
. ');
L isten
s pea
w av
{ "
} ,"
Ġ ","
to ken
ĠR ss
pi tch
": -
": {"
Ġins u
Ġfun ction
lan guage
Ġaler t
tem bro
ss ml
Ġ{ "
ĠrÃ¡ pi
ĠTab elas
cop y
add Event
agencia brasil
Ġ} );
Listen er
spea king
wav enet
addEvent Listener
t is
Ġe du
1 3
Ġpon to
2 8
Ġu r
Ġquest Ãµes
ĠÃ¡re as
ĠÂ ©
Ġt inha
Ġdisponi bil
Ġvag as
Ġpou co
ĠF ran
Ġper fis
Ġfaz endo
ver m
g res
ia do
du z
Ġmo de
ĠpÃºbl icas
ĠAma z
Ġt ro
ĠH o
ÃŃci os
enti la
c us
Ġab aixo
Ġbene f
en tar
vem bro
Ġpromo Ã§Ã£o
Ġle var
Ã į
Ġqu ad
Ġv ul
Ġse is
Ġou tubro
ĠI m
wit ter
is ar
Ġt enta
Ġg es
u ta
Ġg lo
Ġcor re
Ġmaior ia
Ġlev an
i bi
Ġab or
c em
ÃŃ da
Ġtes e
Ġ >
Ġf is
Ġfre qu
Ġseguin te
Ġpergun tas
ti u
Ġcompartil har
Ã³r ter
cul o
ĠÃ ģ
ĠSan it
Ġt ÃŃ
Ġb o
Ġv entila
Ġreg iÃµes
s u
Ġresp eito
n os
Ġqu in
ĠQu ando
ian te
Ġcen Ã¡rio
Ġo p
Ġfo ra
Ġautor idades
2 2
t ria
Ġch in
Ġs ele
Ġdeix ou
ĠM A
Ġal c
Ġcuida dos
b ol
h am
Ġcar re
Ġimun iz
Ġreal mente
Ġgra v
Ġse tembro
ingu Ã©m
Ġs ai
ĠmÃŃ dia
p el
Ġco bertura
Ġapare ce
ma c
Ġap os
Ġchama da
lig Ãªncia
ĠC ent
tal idade
E L
Ġe ta
Ġm Ã£
ci ou
ec u
Ġrepres enta
Ġ> >
Ġsex ta
Ġg ran
ĠM ed
Ġl emb
Ġpa ga
Ġregist ros
b ra
il iar
ĠN O
ĠT V
Ġres umo
Ġob ri
Ġsegu ir
ĠJo Ã£o
d ro
Ġpo vo
Ġfortale cer
Ġefic Ã¡cia
Ġsab e
ma gem
Ġh e
Ġmar ca
Ġocor re
Ġproce dimentos
Ġde m
Ġm Ã¡
ÃŃ dos
Ġb rin
ĠT O
pos tas
Ġmanif esta
Ġa ci
Ġ2 8
Ġpr on
aix a
Ġinterna cional
Ġcus te
en d
Ġ2 6
Ġl anÃ§a
Ġne ga
Ġse man
Ġver sÃ£o
Ġme tanol
Ġser em
ĠCO M
Ġf erra
Ġlink s
Ġver sÃµes
Ġnarra tiva
v ir
men tal
ĠF iocruz
Ġacom pan
Ġd Ãº
Ġprec oce
Ġpul mon
ĠSil va
Ġno vembro
Ġencon tro
Ġexiste m
iza Ã§Ãµes
ven Ã§Ã£o
Ġsenti do
in os
Ġcon j
ĠL ei
Ġim edia
Ġpoder ia
Ġredu Ã§Ã£o
Ġmostra m
Ġseguin tes
ĠAp Ã³s
t h
ĠS al
Ġmun dial
do n
Ġf iz
Ġ9 0
ix a
Ġaconte ceu
9 9177
Ġpe qu
Ġe pidem
Ġidos os
Ġampl iaÃ§Ã£o
li que
Ġdecis Ã£o
x tos
do ra
1 2
Ġc ida
verm ec
Ġc rim
ĠA tual
ĠM ora
Ġdire tor
on al
te c
vermec tina
Ġd ando
Ġf ÃŃs
ic ial
Ġcom um
ĠN orte
er ic
gen da
Ġreal izado
Ġestab ele
ĠM o
ar do
Ġaqu is
Ġquar ta
Ġacess ar
Ġv igilÃ¢ncia
Ġin tox
Ġav an
A B
U N
ĠR E
Ġ2 2
Ġg er
Ġdire ito
Ġinvesti mento
1 7
Ġf rente
on as
ĠP R
ĠC lique
Ġex clusi
S E
Ġf ase
Ġfaz em
Ġprofission al
Ġplata forma
l y
Ġteria m
Ġf Ã¡
to n
ri e
ci os
Ġimp le
Ġestra n
Ġpa dr
ed rus
U L
Ġin o
ĠâĢ ĺ
Ġh a
ul aÃ§Ã£o
Ġpublica da
Ġacompanha mento
Ġpass ar
i ram
Ġmo tivo
ĠSi ga
Ġparticip aÃ§Ã£o
im inu
Ġpo is
ĠFer n
f o
ti z
Ġcompartilha mento
Ġdez embro
Ġ ri
Ġ[ /
or ro
Ġes cre
di u
ver eiro
cion ado
ta ram
inh os
Ġre cor
Ġaju dar
u ro
A L
Ġb ucal
ĠR ede
Ġimpac to
Ġn Âº
ĠDe us
ĠQu al
Ġespal hou
cid ente
ĠP res
9 0
Ġse jam
Ġinf or
ba do
Ġcondi Ã§Ãµes
on o
ĠEn tÃ£o
Ġespec ÃŃ
ĠM S
Ġfe vereiro
Ġemer gÃªncia
en de
Ġen tanto
Ġele tr
Ġrecebe u
Ġan Ã¡lise
Ġd iminu
ĠM es
Ġinte g
Ġag osto
Ġ tan
ĠB u
ĠÃº nica
c el
an ce
Ġdos e
ĠcomeÃ§ ar
ĠDu rante
Ġextre ma
ĠBa hia
Ġli be
ian do
Ġc e
Ġverdade ira
a das
ĠN as
ros so
id Ãªncia
Ġcirurg ias
Ġs en
Ġes pa
ĠT u
RA S
Ġtes te
Ġpesqu isas
Ã´n ia
Ġprecis am
Ġinfec Ã§Ã£o
Ġman ter
Ġnorma l
to col
ĠE l
Ġaten der
un ciou
ic l
Ġem o
Ġfil ho
Ġdiz ia
TA L
Ġfin ancia
pos iÃ§Ã£o
Ġforma Ã§Ã£o
Ġgan har
Ġm elho
Ġalgu Ã©m
Ġcomun icaÃ§Ã£o
f al
v is
Ġcompartilha da
Ġus ar
Ġper fil
9 3
i ras
es us
Ġrece b
Ġcel ular
Ġadolesc entes
il l
ĠC e
Ġcomp lex
Ġa gra
Ġpr Ã©
ĠIn s
Ġ202 6
ĠMar ia
tu ral
Ġgran des
% )
ci mentos
Ġu rg
Ġde man
fer Ãªncia
Ġnecess Ã¡rio
ion al
Ġquan tidade
Ġcan dida
n Ã£o
Ġpublica do
Ġsus t
Ġo cas
ĠNo va
Ġel im
Ġc um
to do
ĠT witter
ez u
Ġob ser
Ġpesquisa dores
Ġcons um
Ġpode mos
enh am
ĠPolÃŃ cia
Ġrefer Ãªncia
ĠhistÃ³r ico
Ġde pen
Ġn inguÃ©m
pl an
ĠMora es
ac h
Ġpare ce
Ġter c
m ic
ĠA u
em o
20 25
ĠEspecial istas
Ġb ac
Ġpa pel
Ġmai ores
ĠUni Ã£o
Ġal te
ĠanÃºn cio
Ġ "
Ġes sen
be tes
Ġrepas sa
I M
te rapia
Ġinfor mou
S P
c endo
Ġso b
me a
d ena
Ġconfi Ã¡vel
Ġdi fic
Ġventila dores
ĠD A
Ġmen or
ra Ã§Ãµes
Ġde vido
Ġpos i
ĠÃ¡ lcool
Ġquin ta
Ġsus pen
en cia
Ġ2 9
Ġreal izada
Ġcontinu a
Ġco isas
ina do
1 8
ĠV i
ĠJ os
ĠMa to
Ġrelaciona das
i go
Ã© re
ĠRep Ã³rter
ĠG rosso
ĠnÃºmer os
ĠEntre tanto
Ġs inal
Ġm inha
ĠN este
tas se
Ġacab ou
Ġmilh Ã£o
b un
Ġv ir
Ġdi f
Ġtra tar
Ġaf e
Ġinsu mos
g er
va dos
Ġmunic ipais
fici Ãªncia
as s
ha do
Ġqu ais
ĠM inas
gram as
ĠMan de
x ima
Ġh ab
ĠF unda
Ġde mais
el es
Ġdire tamente
Ġplan o
fic as
Ġfortale cimento
ilia res
" ,
Ġfo tos
ĠtÃ©cn ica
Ġ w
Ġfal ou
Ġclas si
m isso
u tas
Ġam b
Ġregist rados
Ġrefor Ã§a
Ġcr ÃŃ
Ġde r
Ġo f
ĠA d
Ġ201 7
Ġaci ma
e an
is e
Ġi vermectina
Ġdig ital
i el
Ġs iste
O MS
Ġf oco
ĠD SEI
ĠV en
Ġca be
Ġsa ud
ĠC al
Ġge rar
Ġdific ul
Ġgoverna dor
Ġhomen s
es qu
Ġsan it
Ġpr isÃ£o
ĠUS F
Ġa mea
Ġm inu
Ġdis sem
Ġpon tos
Ġperm ite
Ġ tiv
Ġm ic
Ġre por
Ġte xtos
Ġreal izaÃ§Ã£o
gra fia
Ġrel ig
Ġaval ia
ĠT e
Ġgan hou
do u
Ġes for
Ġinf luenza
Ġes pera
ĠQ UE
ĠQu em
Ġglo bal
ĠEs te
ven s
cor po
inh as
Ġan terior
Ġar ma
Ġcria r
Ġaplica tivo
Ġlo go
Ġpulmon ares
ĠMande tta
Ġe fica
Ġesta vam
Ġme u
Ġcapita l
ci das
es ar
ĠP ol
ĠPara n
ĠÃºlti mo
fici ente
Ġ ÃŃn
Ġcomun ica
Ġris cos
ĠC ruz
Ġmo ra
Ġexpl icaÃ§Ã£o
ĠAtual mente
pa ti
Ġcircul ou
ĠCons elho
ac a
gres so
Ġf ede
an til
Ġg as
de ira
ĠG a
olog ias
Ã´n icas
n er
Ġl ado
iz am
ĠcomeÃ§ aram
Ġsusp eitos
Ġjun ho
Ġusu Ã¡rios
ĠM ul
ĠP esso
Ãº ncia
ÃŃl io
Ġnes se
Ġidenti ficar
Ġbeb idas
Ġparticip ar
Ġse quer
Ġh umanos
Ġorienta Ã§Ãµes
Ġpubl icou
ĠmÃ£ e
Ġf ic
Ġb ar
n cer
t ulo
Ġarti ficial
Ġconsul tas
Ġa des
Ġc ul
ĠS E
ĠM e
ĠO l
gu es
Ġen gan
Ġcirurg ia
A C
Ġdo aÃ§Ã£o
Ġb oa
ĠD r
vi dos
ĠJ esus
Ġexam e
2 1
Ġde tec
id ro
mac Ãªu
ĠC E
Ġal to
t le
w er
Ġent ender
Ġf icou
Ġcam inh
d ra
se gu
Ġvi ol
Ġexpl icou
ri que
Ġt enham
Ġso ciedade
Ġim pe
n te
Ġtu r
B S
ac o
ĠT ec
ĠvÃŃ timas
Ġdia betes
ĠpÃºbl icos
7 0
d ir
Ġfal amos
EN TO
Ġestaria m
ĠGe rais
p ou
ĠV eja
a mento
vi dual
Ġpar c
!! !
Ġc os
ĠP e
Ġap esar
Ġor iginal
Ġpossu em
Ġef eitos
dro me
ĠB an
ĠB Ã¡s
des te
Ġrece bi
Ġmater ial
Ġm ist
Ġcom b
Ġpro ibi
pida mente
Ġte or
ĠA L
t Ã¡ria
Ġn u
Ġes p
Ġcompro misso
ĠMes mo
Ġf igu
Ġl ÃŃ
Ġmo bil
Ġdeix ar
ĠestratÃ©g ias
Ġcria Ã§Ã£o
Ġsiste mas
9 5
C R
S S
l Ã³g
r Ãªncia
ĠP E
Ġfunda mental
Ġconc ent
y a
de ias
con Ã´m
Ġad minist
Ġra pidamente
Ġpromo Ã§Ãµes
Ġproje tos
Ġfunciona mento
Ġpr Ã¡tica
Ġ il
Ġmen tal
Ġcuste io
Ġm ÃŃn
Ġ23 51
Ġno tifica
Ġvacin al
Ġnes sa
Ġqu es
Ġutil iza
ta is
p la
Ġex ig
Ġrelaciona dos
ĠsÃ© rie
Ġmen ti
Ġesta duais
Ġespal har
Ġatu aÃ§Ã£o
Ġ7 0
Ġsem elh
Ġapro v
Ġhuma no
il a
Ġb Ã¡s
ĠH en
Ġti pos
Ġche g
Ã³ l
Ġvacin ar
v Ã©s
Ġde pu
te g
de z
Ġinvesti gaÃ§Ã£o
Ġta xa
Ġrec ente
Ġusa do
Ġanal isar
i ou
ĠF l
ĠT rans
Ġ8 0
Ġjo vens
u be
Ġl ig
ga Ã§Ãµes
Ġcar ro
Ġse Ã§Ã£o
Ġfac il
al do
ĠP lan
Ġreg ula
Ġinte ligÃªncia
ma ra
Ġmonito ramento
Ġa gu
Ġc re
Ġpro tocol
Ġj og
olÃ³g ico
ĠCas a
ĠMÃ©d icos
Ġsolic ita
Ġaquis iÃ§Ã£o
ĠJos Ã©
R J
in s
Ġmen ores
Ġsuposta mente
ĠUn idades
ri bun
Ġcomp lica
Ġvi vo
ĠpolÃŃ tico
Ġprev is
Ġf er
ĠS em
ver si
Ġocor rido
Ġval e
n tes
ĠconteÃº dos
Ġva ga
tu do
Ġva go
ĠA le
Ġan unciou
si to
ber ta
ĠCom p
Ġti veram
Ġpra zo
ĠHen rique
4 4
r so
Ġde cre
ĠÃ ¢
Ġle g
ĠreforÃ§ ar
Ġbilh Ãµes
Ġca u
Ġdeclara Ã§Ã£o
Ġjul ho
Ġar ro
Ġim pos
S A
p aÃ§Ã£o
ti dos
Ġcomp ara
B A
ta gram
ĠP esqu
ĠC ol
Ġaval iaÃ§Ã£o
Ġpre para
nam bu
Ġp s
Ġf ru
Ġda ta
ĠC N
Ġpres ente
ĠtÃ©cn icos
ĠP T
Ġpro gramas
os ta
or ou
Ġsu cesso
Ġper mi
Ġutil izado
ĠTec n
ĠP an
ran tes
Ġtrata mentos
ĠCO N
Ġbas tasse
Â ª
Ġm Ãº
Ġin de
Ġb i
va das
ĠFo i
i ores
ĠmÃ©d ia
par tamento
ĠFran cis
6 8
Ġpres enÃ§a
ra el
ĠSan tos
onal d
ĠcientÃŃ fica
Ġepidem iolÃ³g
ĠB o
me ras
Ġvis ita
Ġrem Ã©dio
Ġto m
Ġterri tÃ³rio
e ram
2 9
Ġa genda
Ġe p
Ġes quer
ĠT er
Ġmen ina
ĠPA RA
Ġjornal ista
C o
ĠE M
Ġcria do
Ġdispon ÃŃveis
Ġsur to
Ġcoloc ar
Ġar t
x o
Ġmor re
dan do
ĠHo je
cus sÃ£o
Ġm Ã£os
Ġpro posta
Ġges tantes
j as
Ġplan eja
Ġques tion
Ġmater iais
) :
Ġa vi
Ġv Ã¡rios
Ġim pres
Ġfor te
Ġcoor den
vel mente
Ġsim il
ru p
ĠU F
Ġhospital ar
b io
ð Ł
es idade
ta gens
Ġes tima
Ġen cam
Ġanima is
EN TE
ĠFrancis co
Ġde la
ti ficaÃ§Ã£o
Ġcomple tamente
ĠÃ³rg Ã£os
b as
Ġo cu
tan tan
Ġtotal mente
t Ã¡rios
Ġco vid
fic os
ĠprÃ³x imo
n s
ent ina
Ġpesso al
% .
3 3
t indo
Ġde cor
re la
Ġi ria
Ġ k
ÃŃ de
ĠL i
ito u
Ġdescon fia
Ġcontam ina
ĠC an
Ġentre ga
Ġel eito
ti das
ol h
ess or
Ġconhe cido
Ġmer cado
fei tura
r ic
Ġd ro
Ġe qu
Ġf amos
Ġin Ãº
Ã³ ria
Ġdivul gado
Ġgol pes
1 4
h Ã£
Ġa us
om e
Ġmul ti
Ġmos qui
Ġpal av
9 8
Ġu l
ÃŃs tica
Ġmor talidade
Ġrespon sa
ĠTra bal
f f
ĠA PS
ul os
Ġpreven ir
6 6
ĠAm Ã©r
Ġdispon ÃŃvel
ĠindÃŃgen a
ĠIns tagram
id en
Ġmode lo
ar ia
Ġprim eiros
Ġoportun idade
ta ble
Ġi deia
ed n
ĠSan to
âĢ¦ ]
ĠprÃ³x ima
Ġseman as
. âĢĿ
Ġcita r
ĠCar los
Ġpadr Ã£o
ĠmÃŃn imo
pos i
Ġbrasil eiras
ĠY ou
Ġm Ã©
Ġpel e
Ġvol tou
Ġde mon
Ġvi das
Ã¢n ico
Ġrefor Ã§o
Ġt ran
0 5
te za
ÃŃ m
Ġes to
ĠpolÃŃ cia
ĠPer nambu
Ġse tor
Ġen s
Ġmil itar
ten s
Ã¢n cias
ĠParan Ã¡
u ra
pa re
ĠpolÃŃ ticos
Ġproc ess
Ã³ p
ba ter
Ġcres cimento
Ġtrabalha dores
Ġfal sos
Ġam biente
ES AI
Ġpaga mento
ribun al
i Ã¡s
Ġdifer ente
e t
f eito
Ġque da
iz er
cul ar
Ġno ite
Ġfa ixa
ezu ela
A n
e g
ra ram
ti tle
Ġpre ju
tiva mente
dra wer
Ġe fe
ic on
ĠA ra
ĠCon gresso
ber culos
r Ã£o
Ġt esta
ĠDe f
f am
Ġter Ã¡
Ġcl ose
Ġpromo ver
en deu
Ġdesta ca
Ġfis cal
ĠPernambu co
4 8
Ġcel eb
ĠBu tantan
Ġc Ã©l
Ġcomer cial
Ġter Ã§a
Ġinterna cionais
Ġinstitu iÃ§Ã£o
m bito
el ha
ĠO ficial
ĠF re
Ġfa tores
ĠN ÃĥO
ec em
est rutura
Ġp ais
Ġdes car
Ġtrans mi
Ġ[ âĢ¦]
Ġades Ã£o
0 3
te l
Ġf ras
ri l
Ġte oria
Ġreal izados
ĠTo dos
Ġevid Ãªncias
Ġl anÃ§
Ġ\ "
Ġ9 9177
Ġcompartilha do
Ġbene fic
ĠAmaz onas
ĠVen ezuela
E C
ĠP al
ent ena
ig i
Ġpossa m
i pe
pi raÃ§Ã£o
ĠCom un
Ġocor rer
Ġcompro vaÃ§Ã£o
F acebook
Ġpro tes
bl ico
tÃ³ rias
Ġima g
ĠEdu ardo
ĠRo berto
Ġex pan
Ġabs ur
ia na
Ġes ti
Ġ3 1
ĠIn ter
Ġcircul aÃ§Ã£o
si va
Ġpos tos
Ġins ta
ĠDes envol
Ġeta pa
Ġampl ia
Ġprote ger
ĠDa dos
Ġfra ude
Ġpartici pan
Ġdif ÃŃ
u ais
ĠP arÃ¡
Ġpro pa
ĠDe partamento
Ġcer teza
f izer
Ġpro me
Ġam bi
Ġcur so
Ġdemon s
d icion
Ġprior it
Ġcon h
ĠL o
Ġv in
ten Ã§Ã£o
Ġem pre
us Ã£o
Ġau mentar
Ġcomun idades
tin s
Ġedu caÃ§Ã£o
berculos e
Ġre per
ĠD oria
du Ã§Ã£o
id s
Ġquad ro
Ġmic ro
ĠinÃº meras
Ġpr Ãªm
ent re
Ġdesmen tir
ĠMunic ipal
Ġminu tos
Ġa cidente
Ġfam iliares
Ġden Ãºncia
Ġadul tos
ia no
Ġg rÃ¡
Ġesc rito
Ġextrema mente
e tim
Ġn ÃŃvel
ci to
Ġconse qu
Ġquar entena
e am
ic iais
Ġatra vÃ©s
Ġreun iÃ£o
P V
Ġh i
Ġse te
ĠH or
Ġcome Ã§a
Ġli ber
don to
Ġdo min
Ġh uman
Ġon c
Ġob esidade
Ġad qui
Ġcomun s
ic h
bi t
Ġlei te
Ġinterna utas
Ġhab ita
Ġs ensa
ter o
ga das
Ġmo vi
Ġrecomenda Ã§Ã£o
A gÃªncia
c he
x e
Ġb lo
Ġb anc
Ġper igos
Ġman eira
H A
R I
c k
Ġd Ã£o
ra cidade
Ġda do
ĠP fizer
ĠNa tal
Ġsa ir
Ġaconte cer
Ġconstru Ã§Ã£o
9 7
Ġde bate
ĠS ai
ĠAn tes
Ġativ idade
Ġin corpo
Ġh idro
Ġapresen tar
Ġcadas tra
p ÃŃ
Ġ ras
Ġs ho
Ġcon ver
Ġcon tar
ĠE les
Ġvol ta
Ġimun izaÃ§Ã£o
Ġve racidade
Ġapro xima
b el
d ri
Ġ ig
ÃŃn drome
6 7
ĠC r
Ġdia nte
Ġinfec Ã§Ãµes
S O
Ġal deias
Ġex a
Ġatu am
Ġdist or
3 5
h amos
Ã© di
Ġen vi
Ġseria m
c ha
ece u
Ġfec ha
Ġpossi bilidade
ĠtÃŃ tulo
I n
Ġes que
Ġinf antil
ĠG O
Ġpr Ã¡ticas
ĠDi Ã¡rio
Ġorgan ismo
Ġcole tiva
en Ã§as
ca dos
Ġar qui
Ġho ra
Ġsex ual
ĠRep Ãºblica
ĠDesenvol vimento
ĠAs socia
Ġdesaf ios
i de
Ã¡ cio
Ġcum pri
Ġefica z
T ube
Ġdesmenti dos
Ġrespons Ã¡veis
Ġsubst Ã¢ncia
Ġn orte
Ġf lu
Ġre mo
tiv idade
Ã¡s s
en se
Ġcomun idade
Ġfinancia mento
c ho
ÃŃ das
ac k
Ġmo vimento
Ġcoor dena
Ġimuniz ante
x imo
res pon
Ġgra vado
Ġme do
Ġor dem
mer ic
Ã´n ica
ĠMed icina
Ġn Ã©
Ġpa gar
Ġar tic
Ġne g
3 7
Ġim plan
Ġcan ais
Ġindica va
Ġcom ent
ĠM il
ĠD onald
tr ica
ĠrÃ¡ pida
ĠrÃ¡pi do
Ġrelig ios
D OS
ĠM G
em bre
oc al
ec a
tica mente
rg entina
Ġir re
Ġdescon tos
Ġtecn ologias
Ġorgan izaÃ§Ã£o
Ġabor da
Ġconj unto
Ġcon clu
Ġrecon he
Ġpro por
Ġinic ial
ĠdÃº vidas
ĠFunda Ã§Ã£o
ĠEs tra
Ġpres o
Ġvis to
v isÃ£o
Ġem erg
Ġfar macÃªu
Ġliv re
ĠÃ¢ mbito
Ġmil ag
Ã¢ mara
Ġcri me
Ã©r cito
Ġdesconfia dos
Ġc entro
re ve
ĠP Ãºblica
ram os
Ġ4 5
Ġw eb
Ã ĵ
Ã¡ bado
Ġin cid
Ġma ma
Ġcabe Ã§a
ĠB RAS
Ġreal izadas
Ġsin ais
ĠRo dri
men tas
Ġb aixa
Ġj us
ĠPor to
Ġcan tor
Ġpass ando
Ġhe pati
ĠB A
Ġcl icando
Ã´n ico
Ġsitu aÃ§Ãµes
Ġdeter mina
ĠTu do
Ġcau sou
ul ares
la ma
Ġag entes
ĠprÃ³x imos
Ġpreocu pa
Ġco o
Ġcon fer
Ġj u
ne ra
ĠQu e
ĠD an
Ġ3 7
CO N
Ġdes a
Ġex er
tor ial
ĠPro te
Ġjo ga
D F
d ÃŃ
Ġe ram
Ġco raÃ§Ã£o
ca da
Ġregist rou
Ġutil izada
% ,
h Ã£o
p le
Ġ tar
ĠIn te
Ġapon tar
Ġtransmis s
ĠV ÃŃde
Ġprev isÃ£o
tri zes
Ġlabora tÃ³rio
? ?
ĠM er
Ġen ga
tro u
Ġval ores
Ġven da
Ġcapa ci
ĠEqui pes
ĠYou Tube
f ar
Ġm ac
ado ra
olÃ³g ica
Ġcomunica do
ed vel
Ġcons ta
RA G
Ġhor Ã¡rio
ĠcÃ©l ulas
C E
Ġf r
ica mente
Ġh igi
Ġcausa da
Ġenvol ve
Ġsal var
da mente
ĠP RO
ĠT ribunal
Ġcl oroquina
Ġpoder Ã£o
ĠIs rael
Ġet c
Ġveri ficar
Ġdistribu ÃŃdos
Ġespa Ã§o
Ġocas iÃ£o
R IA
Ġl inha
fa blica
Ġvis ual
pec ta
Ġobri ga
I NA
x icl
Ãº st
Ġcr ise
ĠPo is
v idade
Ġass ina
ÃŃl ias
Ġv isa
Ġali mentaÃ§Ã£o
Ġinteg ral
Ġfede rais
Ġparticipan tes
Ġper da
Ġmas sa
Ġma tar
Ġdeman da
xicl oroquina
3 1
9 9
v ac
ia da
Ġv Ã¡rias
ĠN or
Ġex tra
Ġjo go
ĠSer vi
Ġpossi bil
An visa
ri g
Ġap re
Ġpopul ar
Ġinvesti mentos
Ġenferm eiros
5 00
Ġdo aÃ§Ãµes
ĠR S
Ġcar ta
ĠP S
ĠF Ã¡
Ġj a
Ġtrans criÃ§Ã£o
Ġ201 4
re ira
ÃŃ na
Ġes pan
Ġ201 5
Ġvul nera
ĠdifÃŃ cil
Ġs il
Ġo pera
ĠS A
Ġsub stitu
Ġdiagn os
Ġale gaÃ§Ã£o
Ġpo ten
ce p
Ġcomp or
Ġesclare cer
Ġprocess os
Ġp ne
Ġdes em
ĠI ta
Ġtem pera
Ġpes o
ik a
Ġfinanc eiro
Ġlemb rar
ĠS C
Ġreg ular
Ġle va
ĠOu tro
ĠCa tar
ik un
ĠSai ba
C on
d ico
v iar
Ã¡ tico
ĠP elo
Ġso mente
Ġr en
Ġapo iar
Ġama rela
ĠPesqu isa
Q U
v eira
ĠA rgentina
Ġsu ficiente
Ġsegu em
Ġtrans forma
Ġrepor tagem
Ġaus Ãªncia
Ġresponsa bilidade
C om
Ġm am
Ġcon tas
ĠC ria
Ġche ga
Ġeste ja
Ġincen tivo
Ġferra mentas
ĠÃ į
gun ya
Ġ201 6
Ġenfer magem
ikun gunya
k es
Ġc Ã¡
as te
ĠP r
Ġeven tos
Ġep is
Ã§ am
ol ida
Ġsu porte
ĠmÃº s
Ġe vol
da l
ĠO li
Ġcircul ado
Ġcons ci
Ã¢n ia
qu is
ĠT a
fic ou
Ġc ic
Ã Ĭ
ria mente
Ġpor ta
ĠR u
Ġapon tou
Ġressal tou
Ġrepresen tantes
ĠDef esa
ĠO b
Ġna tural
ĠN esta
Ġressal tar
Ġperce ber
r Ã¡s
ja mento
Ġfam ÃŃlias
Ġmudan Ã§as
pou co
Ġinter pre
Ġper son
Ġpos tagem
Ġreal izou
Ġne uro
Ġbrin des
Ġexclusi va
Ġcaminh on
Ġcon v
iz aram
ix o
Ġi tens
3 8
w n
Ġcom bater
Ġch ance
Ġbeb Ãª
Ġro tina
Ġintox ica
d is
h an
Ġm in
ĠC ha
Ġnos sas
olson ar
Ġencam inha
ĠP I
Ġvacina dos
Ġconhe cimento
ĠIm un
ĠA na
na val
Ġcria da
Ġcer to
Ġedi tal
Ġplaneja mento
Ġv imos
ĠG ra
menta res
tida des
re mos
Ġf eitas
Ġen erg
Ġfar sa
d re
ia dos
inh am
ĠpÃ¡g inas
Ġpol Ãªm
Ġdiscu rso
ĠF un
Ġter mos
Ġtem pos
ĠBrasil eiro
Ġau menta
Ġvacina das
Ġrela to
Ġnecess idades
Ġgaran te
Ġus ando
Ġedi Ã§Ã£o
O N
P R
Ġb on
Ġex ecu
Ġex pecta
ĠCo pa
tÃ© rios
pol is
P AS
Ġre vol
Ġse qu
Ġins tru
Ġespecial izada
Ġofer e
Ġproce de
Ġesquer da
Ġinsta la
Ġa tiva
Ġp ede
Ġm ol
ĠA V
ĠC A
Ġpassa m
Ġgu erra
us t
Ġvol un
Ġsol u
Ġhi per
ĠB ra
Ġch am
Ġten tar
Ġprev Ãª
den cia
Ġescol as
Ġapresen tam
Ġhabita ntes
ĠBRAS IL
Ġde ci
Ġmed icina
Ġgol p
Ġmo to
Ġmunic ipal
Ġtrans porte
Ġli de
ĠM aran
Ġinf elizmente
20 26
Ġfiz eram
ĠCe arÃ¡
Ġessen cial
Ġpoten cial
C I
h ei
ĠSe gu
Ġcar ne
Ġfil hos
ĠCatar ina
0 4
us tria
tu ro
im as
Ġan da
va dor
Ġ3 5
je to
Ġaplica Ã§Ã£o
ĠtÃ©cn ico
portun idades
Ġdemons tra
P E
e des
al a
Ġre tor
ĠI I
ĠEs ses
fica do
Ġinterna do
Ġbenef ÃŃcios
Ġdomin go
Ġhidro xicloroquina
ĠÃį n
ĠP ed
ĠN esse
ĠÃº nico
Ġdeix a
Ġdem orou
ĠfÃŃs ica
ĠR ib
Ġpa pa
Ġ3 4
Ġfor n
Ġtu berculose
Ġtrabal har
Ã´n io
Ġrec entemente
Ġinicia tivas
O portunidades
Ġno mes
ter iores
Ġautor ia
Ġva z
Ġcomplex idade
ĠC er
Ġacab a
Ġmorre ram
b Ã©
b oato
c es
m Ã£o
s ar
ĠA M
Ġpres entes
for mas
Ġrep ro
Ġpoder Ã¡
Ġinten si
Ġha ver
olh imento
0 8
Ġnova mente
Ġsecre tarias
Ġnega cion
M G
c ando
ic idade
Ġh um
Ġca teg
Ġcita do
ĠAmÃ©r ica
2 00
Ġes con
ĠM ac
cion ar
Ġcl im
Ġquali ficaÃ§Ã£o
Ġat or
Ġreal iza
Ġreg i
Ġ7 5
Ġcri tÃ©rios
Ġinter venÃ§Ã£o
20 20
Ġins cri
Ġman t
ĠUni versi
pen d
Ġteor ias
f as
Ġmo tivos
tÃ© rias
ĠÃºlti mas
ĠSecre tarias
3 4
da p
Ãº rg
Ġpr orro
Ġrecebe ram
ĠBÃ¡s ica
to logia
Ġam pla
ess es
Ġcer ve
ĠES TA
Ġapare l
ĠVac inaÃ§Ã£o
Ġ3 8
Ġaval iar
Ġfabr ica
Ġcida dÃ£o
Ġenga jamento
Ġv ou
Ġentre gues
Ġmilh ares
essa dos
Ġem i
Ġb olsonar
enta is
Ġconte mp
Ġutil izados
Ġir Ã¡
Ġjo vem
Ġgen eral
Ġmenti ra
h aram
Ġinfec tados
ĠSu per
Ġcos tu
Ġass in
Ġcons piraÃ§Ã£o
Ġaqu eles
Ã ļ
Ġcl i
Ġsegu ra
Ġvar iante
Ġcontemp la
A s
ri da
ber t
ĠVÃŃde o
Ġepis Ã³
ĠS en
Ġent rada
ĠPor taria
Ġmor rido
Ġol hos
Ġdestina dos
Ġul tra
i e
Ġn ar
ma das
Ġcu rar
Ġon da
OR A
ĠSo ciedade
Ġev ita
p Ã£o
ĠB el
Ġpor taria
ÃŃs s
ĠOu tra
Ġusa da
Ġata que
Ġplata formas
Ġamea Ã§a
Ġen cer
ĠEsta dual
qu em
Ã¡ ticos
un tos
ĠO n
Ġca p
lo go
Ġconsul ta
Ġmanif es
Ġl Ã³g
ĠEn quanto
Ġaux iliar
Ġger ou
Ġcomplica Ã§Ãµes
ĠEstra tÃ©g
Ġexpecta tiva
ĠP u
ĠB ol
Ġap ar
Ġter r
RA N
ĠMar c
Ġcompro me
Ġalc anÃ§
b an
t ino
os o
Ġe conÃ´m
ĠvÃŃ tima
pl ica
ĠEu ro
Ġsust enta
0 6
Ġda qu
Ġcadas tro
du ra
Ġapresenta Ã§Ã£o
Ġcol oca
Ġuni vers
ĠlÃŃ der
Ġd ores
Ġdire itos
Ġvo z
r entes
Ġp en
am eric
Ġcomp rar
ĠH PV
Ġpesso ais
tal m
Ġmor tos
Ġapresen tou
ĠMul her
Ġavi Ã£o
Ġens ino
T ES
Ġin v
Ġtam pouco
Ġras tre
d icos
er va
Ġat rÃ¡s
Ãªn io
menta is
Ġimple mentaÃ§Ã£o
w aldo
Ġlu c
Ġtor na
Ġcre dencia
Ġtem as
ĠÃ³ bito
Ġl es
ĠEx Ã©rcito
8 8
Ġd Ã©
ist entes
Ġent ra
Ġrec entes
Ġusu Ã¡rio
Ġestab el
ĠBan co
C IA
ĠSo cial
Ġdesenvol ver
ĠProte Ã§Ã£o
Ġv eio
Ġcom pe
ĠOs waldo
Ġatual mente
Ġidenti ficaÃ§Ã£o
Ġorienta Ã§Ã£o
Ġru a
Ġconsegu ir
ĠReg ional
Ġmudan Ã§a
Ġpartici pa
Ġbenef ÃŃcio
Ġacompan har
T OS
Ġa mos
Ġc ho
Ġco lo
Ġo peraÃ§Ã£o
Ġex is
Ġam eric
ĠG ab
Ġau t
Ġapo ia
Ġfala va
Ġol har
Ġurg Ãªncia
ĠA T
ĠO r
ĠEm bora
ĠfÃ¡ cil
Ġmelho rar
Ġsaud Ã¡vel
ĠOli veira
c an
ĠP as
Ãº ss
ĠJ u
pul aÃ§Ã£o
Ġch ec
Ġci Ãªncia
Ġdocu mentos
Ġterc eira
Ġsimil ares
ĠG estÃ£o
Ġreg ras
Ġpres en
Ġdivul gaÃ§Ã£o
Ġcapa z
Ġcontinu ar
Ġcus to
b ia
n idade
s tico
Ġfor mas
Ġcontam inaÃ§Ã£o
Ġcent ros
Ġferra menta
Ãºss ia
e jo
on ia
ri z
Ġre pe
ĠPor tanto
Ġcl ara
Ġimpor tantes
Ġpoder iam
Ġata ques
Ãºst ria
Ġb oca
Ġca iu
Ġinf ra
Ġcor respon
Ġman u
Ġcompartil he
Ġsusp eita
Ġterri tÃ³rios
Ġmanifesta Ã§Ãµes
donto lÃ³g
0 7
ĠB r
Ġesta dual
tor iais
Ġcar dÃŃ
ID A
Ġatual izaÃ§Ã£o
Ġaqu ele
Ġaux ÃŃlio
6 5
o grafia
Ġm emb
ĠA N
ir mando
ĠN u
Ġpa i
ĠIn forma
Ġpas so
Ġti ver
Ġcan tora
Ġcic lo
Ġ5 00
ĠCl ÃŃn
Ġque ima
ĠA cre
ri mo
Ġt inham
Ġpar to
end Ã¡rio
Ã£ s
Ġg esta
id ores
Ġcircul aram
ĠPa pa
Ġgra vi
Ġeste jam
ĠCi vil
Ġder ru
Ġdiagnos tica
% ),
g on
u p
u me
Ġdo mic
ĠG il
Ġau di
olÃ³g icos
Ġacusa Ã§Ã£o
Ġvulnera bilidade
" ]
e do
Ġin au
ĠR J
ita is
Ġrecon h
ĠrÃ¡pi dos
ĠCent ros
Ġimedia tamente
ĠGa tes
ĠA P
Ġin tu
Ġpara r
Ġg a
ĠâĢ ¦
Ġdes en
ora ima
Ġregist rado
Ġofer ecer
Ġproce dimento
ĠÃ³rg Ã£o
R G
il ma
ul ista
ĠC Ã¢ncer
Ġh ip
Ġal vo
Ġan tic
Ġter Ã£o
ĠH e
Ġi gu
Ġr eno
ian Ã§a
Ġprecis amos
Ġdetal he
Ġrepas se
Ġexperi Ãªncias
ĠmÃ¡ ximo
Ġinau gu
F iocruz
g ia
ic ol
Ġl er
Ġcons olida
Ġposi tivo
ĠcrÃŃ ticas
Ġdepu tado
V A
ï ¸
le o
pos to
Ġpas sos
Ġusa dos
ĠFern ando
Co V
n aÃ§Ã£o
r endo
ĠA b
ĠP ron
Ġdes tru
ĠD ig
tes e
Ġhabilita Ã§Ã£o
ï¸ ı
c ed
g am
Ġa bertura
Ġp ior
an da
Ġar re
ĠR oraima
Ġmor rer
Ġencontra r
ual mente
ĠInf elizmente
meric ana
Ġcaminhon eiros
do ras
pos a
ĠFo ram
ĠreforÃ§ ou
Ġing l
Ġcham ou
Ġm Ã£o
ĠC oca
Ġanti ga
rup Ã§Ã£o
Ġsensa cional
T ER
ĠR Ãºssia
Ġap rimo
Ġsegu ida
Ġdesmenti das
Ġinclu i
Ġmon tagem
7 5
l ar
ro m
ed veis
ĠG ol
man ha
pres sÃ£o
Ġatu ar
Ġci vil
dan ico
Ġsecre tÃ¡ria
Ġpol i
Ġrecomenda Ã§Ãµes
tÃ¡ lia
Ġcoo peraÃ§Ã£o
Ġtar de
Ġa der
ĠA qui
ĠM or
Ġsu j
Ġ5 9
Ġlim Ã£o
ĠUn idade
ĠCu ida
Ġmosqui to
P F
en tou
Ġs Ã¡bado
Ġf en
Ġmelh ores
ĠCent ral
ean cias
le v
go v
Ġ3 00
Ġcaus as
Ġbom b
Ġcal or
Ġavan Ã§o
c ente
t Ã¡vel
ĠA C
un o
ĠN A
Ġal ar
Ġprim Ã¡ria
Ġsab emos
Ġconfirma Ã§Ã£o
Ġsuper ior
Ġapos enta
Ġintox icaÃ§Ã£o
g eral
w w
Ġe ma
Ġf l
est re
ĠCom issÃ£o
Ġra dio
ĠCam panha
Ġexperi Ãªncia
ĠS ESAI
ĠB ucal
tu re
Ġal co
Ġter em
tiv ac
Ġdef esa
Ġindica dores
ĠJa pÃ£o
Ġindi vidual
Ġpalav ras
ĠTrabal ho
. .
9 2
ĠNo vo
Ġele mentos
Ġcent ral
Ġimuniz antes
ĠNor deste
S C
f an
al vo
Ġv as
Ã³ di
Ġpo vos
Ġcl Ã¡ss
Ġch ikungunya
Ġfil ha
Ġcomple to
Ġconhe cida
Ġadequ ado
c ent
Ġa ber
Ġm issÃ£o
ha da
Ġcir Ãºrg
Ġcar ga
Ġ6 5
Ġdire trizes
Ġapresenta dor
Ġestu dan
Ġinterna Ã§Ãµes
Ġplan os
Ġconside rado
Ġanterior mente
Ġsemelh antes
ĠPlan o
Ġreper cussÃ£o
ÃŃ amos
Ġcompartil hando
Ġviral izar
Ġtro ca
Ġadqui ri
ĠMaran hÃ£o
6 3
Ġa gÃªncia
Ġp Ã¢nico
Ġes tou
Ġes tim
ĠF al
Ġentre gou
Ġi de
Ġutil izar
Ġrecur so
Ġconsegu iu
Ġprof essor
da do
ĠM UN
ĠD ilma
ĠT erra
Ġass us
ĠPa ula
Ġra z
Ġhabilita dos
ustria l
Ġema gre
j us
m u
Ġa dap
ĠA c
ÃŃ dio
olog ista
Ġfu turo
Ġfra u
Ġestabele cimentos
Ġino vaÃ§Ã£o
Ġjus tamente
ta Ã§Ãµes
el lo
ÃŃn io
Ġ201 3
ĠPro jeto
Ġquali ficar
ĠGo iÃ¡s
ĠRec entemente
fam ero
Ġesque ma
ĠB as
Ġto mou
ĠL ab
Ġcl ique
for me
Ġminist ros
ciona dos
ĠCr ist
Ġmanu tenÃ§Ã£o
R NA
s tru
an g
ĠE d
Ġg ig
Ġpro postas
Ġposs ÃŃveis
Ġespecial izado
Ġresol vemos
Ġtorn ou
Ġtenta tiva
ĠTO TAL
Ġcrim inos
Ġreceb em
ĠAssocia Ã§Ã£o
to dos
ĠC Ã¢mara
Ġdes tes
Ġass um
Ġacusa Ã§Ãµes
Ġped indo
Ġescre veu
v ÃŃrus
Ã© dios
ĠC ir
ĠT ik
Ġpos tagens
Ġpreocu paÃ§Ã£o
Ġef eito
ĠS ol
Ġb aix
go as
ros o
Ġfor ne
Ġencontra do
ĠclÃŃn ica
Ġbol etim
Ġfuncion Ã¡rios
Ġenvi ou
S e
Ġc redi
Ġe conomia
Ġo pe
Ġna cionais
ec endo
Ġac ele
Ġtra dicion
Ġconf usÃ£o
Ġpe diu
ĠCi Ãªncia
ĠVac ina
Ġgolp istas
Ġcostu ma
1 00
7 8
Ġf eitos
Ġre vista
ci e
ĠT SE
Ġres id
Ġbeb ida
ana us
ĠlÃ³g ica
O s
ĠT i
Ġrela tos
Ġdescon f
Ġpass aram
ĠSanit Ã¡ria
ĠTecn ologia
Ġingl Ãªs
e ia
es es
Ġpre feito
Ġpres sÃ£o
Ġprin c
Ġcr Ã´nicas
Ġvo to
IC A
Ġgen Ã©
p Ã¡
z e
ĠA po
ĠIn o
tor ia
Ġvol tar
Ġadul te
ĠM anaus
ĠB om
ĠD F
con s
Ġti rar
Ġatu a
Ġta is
Ġcontribu ir
Ġcoment Ã¡rios
Ġ ros
Ġp ens
Ġan te
ĠI A
ĠEs pÃŃ
Ġcar dio
Ġhospital ares
Ġgaran tindo
Ġcompartilha mentos
Ġmobil izaÃ§Ã£o
ĠÃįn dia
Ġc ru
Ġt ri
Ġno vidade
Ġpro p
Ġmil ita
Ġ3 6
Ġmo di
Ġsegu ro
Ġverdade iro
Ġpol iciais
Ġre a
pan has
Ġfun do
Ġpe di
Ġutil izando
pen ho
ĠDes sa
Ġaplica tivos
Ġru as
Ġmanifesta Ã§Ã£o
Ġdro gas
ĠMarc elo
Ġf Ã©
Ġcon cre
ĠC ada
Ġj ud
Ġmo der
Ġmo tor
ess oria
Ġmos trou
Ġconfirma do
Ġindica do
ĠSu pre
ĠclÃŃn icos
Ġvul ner
Ġexclusiva mente
e tas
u ÃŃ
Ġa to
Ġest ru
Ġca ix
Ġanti go
ĠcientÃŃ fico
Ġintegra Ã§Ã£o
Ġlig aÃ§Ã£o
ĠCria n
Ã ķ
Ġf i
Ġno tic
ĠN em
ĠEs sas
ĠSe mana
Ġ4 8
Ġexpl icar
Ġdesta que
Ġcida d
S R
Ġs ou
ti za
Ġac hamos
Ġres tri
Ġma ta
Ã¡s tico
Ã¢n dia
Ġapresenta do
ĠNe ws
Ġenerg ia
j ar
Ġd anos
Ġmar cas
Ġlon ge
ĠA la
Ã¢ m
pres a
Ġfor Ã§as
Ġr enda
Ġob ras
Ġpri vada
Ġsupos tas
Ġatribu ÃŃdo
Ġedu ca
Ġpermi tir
Ġmemb ros
Ġs orte
Ġm em
ri tos
Ġre lev
ĠJ an
Ġdis posi
Ġutil izam
Ġcri ou
Ġcient istas
ĠIN SS
ĠIndÃŃgen as
Ġrem Ã©dios
ĠPres idente
ĠprÃªm io
Ġfr onte
ĠD ra
Ġex posiÃ§Ã£o
Ġter min
Ġper der
Ġfor m
Ġden uncia
Ġmelh oria
Ġcomple ta
Ġap l
ed cio
der e
Ġpos icion
ten sÃ£o
Ġsuger e
ĠlanÃ§ ou
0 9
8 00
ĠA S
Ġda ÃŃ
Ġer ro
Ġlev ando
rap Ãªu
Ġeta pas
Ġpne um
Ġgravi dez
I R
g eiros
Ġo ito
ĠR ena
Ġau men
Ġparticip ou
Ġrelaciona da
ĠcientÃŃ ficas
3 00
c r
Ġc ultura
qu ia
Ġcon tou
ĠB ill
ist ente
Ġl og
Ġen viar
Ġen tidades
Ġres idÃªncia
Ġofer ece
ĠCas o
ĠDo enÃ§as
Ġur nas
Ġviol Ãªncia
z hei
Ã© rg
ĠS ÃŃ
ist Ã£o
Ġas segu
oc ar
Ġad icion
Ġcam panhas
Ġchin esa
Ġprevis to
Ãķ ES
v oca
in i
Ġn ÃŃveis
cul a
ĠIn di
Ġespecial izados
Ġcuida r
ĠtÃ©cn icas
Ġcola te
Ġdissem inaÃ§Ã£o
ĠmÃºs ica
Ġbolsonar istas
Ġafirma Ã§Ã£o
ilo to
l aÃ§Ã£o
t ÃŃ
ma da
Ġv Ã¡
Ġdo m
ÃŃ ba
ci pl
ve z
ĠH abilita
enta do
Ġespecial ista
Ġeleito ral
Ġaproxima damente
Ġexa tamente
g io
Ġes posa
ir os
oc an
Ġinter naÃ§Ã£o
Ġmostra r
Ġquali fica
Ġcandida to
Q u
Ġt endo
Ġmen sal
ĠAl i
Ġav anÃ§a
Ġexempl os
Ġtor no
Ġdeter min
M P
n ia
x ico
Ġb log
ĠD ou
Ġan teriores
Ġpre Ã§o
Ġconse gue
Ġvo tos
Ġped ir
ĠApo io
7 4
u z
z ul
Ġm RNA
ĠD ES
Ġsu ple
Ġat riz
Ġch anc
Ġforma to
Ġdesaf io
Ġesfor Ã§o
Ġmora dores
ĠAV C
Ġcredi bilidade
ĠEspÃŃ rito
b us
f ec
ti ba
Ġb aixo
Ã´ men
Ġaf as
l im
ÃŃ du
ĠC osta
ĠI r
ed ses
Ġtrans par
Ġcausa do
ĠUniversi tÃ¡rio
Ġigu al
Ġp ensa
ĠT Ã©cn
la u
Ġcomp uta
si vo
pa tia
Ġconf irmou
Ġesc ola
ĠTo das
gan da
Ġmist ura
ĠepisÃ³ dio
A mericana
N o
b ac
on d
Ġaten de
Ġle gal
Ġtrans pl
Ġtrans fer
Ġtiv emos
Ġparc ela
Ġaprov ei
Ġcheg amos
Ġdecor rÃªncia
Ġs on
Ġl ar
Ġap r
Ġen tidade
ca das
Ġinter ior
Ġinter esse
Ġper to
Ġass isten
Ġcons tante
ÃŃn u
Ġdifer enÃ§a
ĠCam po
Ġemo cional
ĠPesso as
5 3
i va
ar da
ĠP O
Ġsobre vi
Ġver m
ĠPrim eiro
Ġmeta de
Ġsai u
Ġde ficiÃªncia
ri t
ĠS ab
Ġali mentar
Ġapro vado
Ġacab ar
Ġprotocol os
Ġfo go
ĠT r
Ġres postas
Ġcole ta
Ġcondi Ã§Ã£o
Ġevid Ãªncia
Ġacredi tar
g or
k do
Ġ 61
Ã£ es
Ġes cu
Ġdes cri
ente m
Ġcome Ã§o
ĠEqui pamentos
d Ãªncia
re a
Ġf ran
Ġem bora
ĠM on
ria m
ĠF ranÃ§a
Ġcomp os
Ġins tal
Ġind Ãºstria
tr Ã³
Ġlu ta
fr ica
Ġanal isa
Ġdeclara Ã§Ãµes
Ġtraz er
Ġdiminu ir
Ġtiv esse
Ġvin cul
Ġincid Ãªncia
ocan tins
ĠC ris
Ġg l
ĠM al
ĠB al
Ġinf luen
Ġinforma r
Ġass al
ĠLu cia
ĠAss ista
log ista
Ġincen tiv
Ġfigu ras
Ġarro z
5 4
Ġp Ã©
to m
Ġg ar
ĠN Âº
ne a
ula do
ĠEx iste
Ġproduz ir
Ġbilh Ã£o
Ġo x
ci fe
Ġman hÃ£
Ġps ic
Ġinfra estrutura
Ġhip Ã³
O C
a gens
Ġa Ã©re
ĠP ia
Ġcon duz
Ġper s
Ġessen ciais
ĠCal ma
Ã³di go
Ġde mo
Ġac olhimento
ĠEs tÃ¡
Ġent rou
Ġvi vem
Ġdire tora
Ġrela cionado
ĠCam p
Ġespe ci
ĠclÃŃn ico
0 2
t inho
Ã© rios
Ġre to
Ġpor tanto
Ġdescobri u
ĠFor Ã§as
ĠanÃºn cios
Ġconj un
Ġinde pend
, \
Ġco b
ĠP Ãº
ĠN enh
ita m
Ġres ta
Ġad ver
Ġindi v
Ġanima l
Ġfras e
C ola
Ġc ima
ĠA B
ĠC H
Ġg el
vi te
Ġj usti
Ġon tem
Ġconside rada
Ġrespira tÃ³rias
ĠFer reira
Ġemer gen
Ġhepati te
kdo wn
f Ã©
ĠR N
ĠUni do
Ġdef en
Ġexer c
Ġapre en
Ġm ec
Ġcon clusÃ£o
ĠM ensa
Ã¢n sito
ĠRe ino
ĠEsta duais
Ġsuper mer
Ġtoma da
Ġreti rada
ĠFÃ¡ bio
Ġm Ã³
te ira
Ġab aste
Ġcita dos
Ġdesta car
Ġfin s
Ġgrav idade
Ġagra de
ĠAle manha
Ġdecre to
ĠIndi vidual
I Z
P ara
Ġes qu
Ġcon g
ĠM us
Ġres ga
ĠH ora
Ġch u
bil izar
Ġban co
Ġhuma na
Ġsai ba
ĠSal vador
Ġcoorden adora
Ġintu ito
Ġradio terapia
D ES
Ġen dere
Ġman i
Ġdire to
elh os
Ġsol uÃ§Ã£o
Ġenfr entar
ĠAr madas
Ġop in
Ġesfor Ã§os
D e
ĠF ar
Ġcont ÃŃnu
Ġvol tadas
Ġer rada
Ġol ho
ĠInf luenza
ĠveÃŃ culo
ĠlanÃ§a mento
ture za
c ola
p to
in ares
re do
te gra
Ġf la
il e
ĠT he
ĠEs tamos
Ġper ten
Ġ4 2
Ġdever ia
ĠAla goas
O M
ĠP ra
Ġpro pri
Ġlu z
Ġbeb Ãªs
Ġgrav ou
ĠmÃ© todo
0 1
un a
Ġpa t
ĠEs pe
ĠAl gu
AR S
ĠMu ito
ĠT ocantins
Ġdivul gada
ĠestratÃ©g ico
Ġinclu em
Ġtre cho
Ġarma z
Ġchanc es
ou r
Ġimpac tos
6 2
b Ã¡
Ġ x
ĠCon tro
Ġpe didos
Ġtr Ã¡s
Ġaconte cendo
rin ci
igu al
ĠLo go
Ġsolu Ã§Ãµes
ĠF il
ĠL abora
Ġinf ar
Ġme todo
dor ia
Ġch oc
Ġapare cem
Ġescre vemos
B I
Ġs ac
Ġf as
ti mos
Ġna tureza
ĠL ocal
ĠPa z
Ġha ja
E m
N Ã£o
k i
Ġg os
ĠB ase
Ġpro l
Ġpre feitura
ĠIn Ã¡cio
Ġass untos
Ġ5 5
Ġfil me
Ġvis Ã£o
Ġdivul gar
Ġcaus ando
D I
Ġd icas
Ġdes cre
Ġen vio
Ġter mo
ĠH ar
Ġprim eiras
Ġche gada
Ġsitu a
Ġet Ã¡ria
Ġpopula Ã§Ãµes
ĠHabilita do
y p
Ġno ve
ĠM i
Ġ3 2
Ġconta tos
Ġ4 4
ĠEn fer
Ġdiz endo
ĠOu tros
Ġprior idade
Ġ27 45
Ġof talm
Ġliber dade
Ã©di to
G O
N T
U F
in el
Ġdo a
ri ge
so cial
iz onte
tu r
ĠD is
Ġap er
Ġj ur
Ġcas as
Ġcer tifica
Ġrela tÃ³rio
Ġrec Ã©m
ĠMun do
Ġgan ha
ĠFor tale
Ġdesem penho
te iro
ĠA edes
Ġcl ima
ĠRe cife
Ġlev ou
Ġdecis Ãµes
Ġapos tas
ĠPed ro
Ġv ig
ĠA f
Ġex ec
Ġpre en
na tal
Ġch Ã¡
Ġloc kdown
Ġsupos tos
Ġtre ina
Ġfen Ã´men
Ġcidad Ã£os
Ġo pen
ar ou
ĠB elo
Ġdi pl
Ġen ven
Ġam or
enh or
Ġ7 2
Ġlo tes
Ġdig itais
ĠdÃº vida
Ġcomb ust
ĠDan iel
ĠSupre mo
F ec
g ios
Ġin va
ĠN icol
Ġso fr
Ġta b
Ġsusp eitas
Ġinten Ã§Ã£o
Ġabs ol
Ġesp Ã©
Ġimag inar
Ġmovi mentos
4 60
D SEI
Ġac ha
ed pios
Ġmen ino
pi demia
ĠMinist ro
ĠMa du
Ġclassi fica
6 00
G E
Ġv ista
Ġb ran
Ġal inha
Ġor to
Ġapro vaÃ§Ã£o
Ġescol h
Ġcrim es
Ġrecor rente
Ġestudan tes
e ra
Ġqu ente
ĠE pidem
ĠU NA
av ar
ess ores
Ġdire ta
br ica
ch os
Ġbeb er
ĠCor onavÃŃrus
Ġadequ ada
Ġlevan tamento
Ġengan ar
Ġrecebi do
Ġdesa pare
F A
on es
ĠS erg
ei os
Ġap u
ĠF A
ĠV igil
Ġdivul gou
ĠgrÃ¡ tis
R S
e ma
or k
Ġn um
Ġf arm
Ġcon cor
Ã³ polis
ĠB oa
Ġmo mentos
fa blico
Ġten ho
Ġviral izando
Ġleg is
Ġampla mente
Ġf uma
Ġv elho
em in
Ġdes l
ĠD NA
Ġso ma
Ġesc ri
Ġav is
Ġcam inho
Ġapresenta dos
Ġconfirma r
Ġprova velmente
Ġlim ita
ĠBr uno
9 6
P N
Ġqu ÃŃm
Ġv ice
ri tiba
ĠS MS
Ãº ne
Ġpor tal
Ġan tivac
ĠI tÃ¡lia
Ġmo dal
Ġori entar
Ġafirma r
Ġcontinu idade
Ġadminist ra
Ġprotocol o
Ġsho w
B O
P or
P ro
U BS
Ġa ids
Ġde para
ĠE PI
Ġh emo
ĠF el
Ġen ch
201 3
Ġampl iando
cid entes
Ġdescobri r
Ġmilita res
Ġcolate rais
7 3
i rem
en os
as se
Ġh em
ho ra
ite m
ĠCam pos
tiz aÃ§Ã£o
Ġdificul dades
ĠÃŃn d
Ġpreju d
Ġconver sa
V O
\ ",
n omia
Ġs or
ÃŃ ram
Ġcomp re
Ġvi ve
Ġequi pa
Ġatribu ÃŃda
Ġauto nomia
Ġlabora tÃ³rios
Ġgeral mente
Ġsele Ã§Ã£o
dis cipl
Fec har
en to
ĠâĢ Ŀ
Ġass is
Ġcar go
Ġgratuita mente
Ġbo as
Ġarqui vo
Ġtempera tura
rinci pal
Ġde ba
Ġpa dre
Ġcam po
Ġinc r
Ġchin Ãªs
Ġtan tos
Ġrepassa dos
Ġesti ver
Ã©rg io
z er
te in
ri pe
ĠS ou
ĠO N
ĠV a
Ġ5 7
ĠmÃ©d icas
Ġaf irmando
Ġexpl o
ĠRes ol
mis s
Ġespal ha
Ġcapita is
Ġrou bar
Ġbanc os
4 40
t ista
es tar
re ia
Ġem bal
ol as
Ġte rapia
Ġdes igual
Ġcompro vada
Ġbac tÃ©ria
en tal
an des
ĠS Ã©rgio
ol ha
ĠV ol
Ġregist ra
Ġnecess Ã¡rios
Ġdesco berta
tri z
Ġjog os
Ġarro w
d im
Ġh abil
Ġg o
Ġex terior
Ġcu rios
Ġman ip
Ġ9 5
Ġocor rÃªncia
Ġvia gem
Ġlugar es
ĠPesso a
ĠHor izonte
d ente
x as
Ġmu dar
Ġdia riamente
Ġmor to
Ġgra vaÃ§Ã£o
Ãªn ero
Ġlu vas
Ã¡lis es
Ġindica m
Ġsur tos
ĠPre feitura
ĠInf ec
ĠCu ritiba
Ġperman ece
Ġterc eiro
Ġtesta gem
Ġespan h
Ġconsci enti
Ġo dontolÃ³g
ic al
ĠG ru
icos social
Ġvi rais
Ġcontinu am
val ente
eg yp
Ġinscri Ã§Ãµes
egyp ti
I TA
Ġin clusÃ£o
Ġse de
ĠM ich
Ġb l
ĠD om
cu ra
ĠPor que
Ġam igo
Ġtrabal hando
Ġnecess Ã¡ria
mis sÃ£o
Ġaplica das
ĠMu itas
ĠMil itar
ĠPia uÃŃ
D C
E PI
Ġg in
Ġen orme
Ġfal am
cul ares
Ġmu tir
Ġequi voca
ĠFor Ã§a
ecu tivo
Ġante ci
e f
g ico
Ġe vent
ĠC AS
Ġpara lis
ĠM ag
sa ude
tan a
og le
ĠAn dr
Ġmater no
pro fission
Ġdecl arou
Ġhigi ene
P C
n ar
Ġp ena
gu eira
Ġpo dendo
ĠG ar
Ġman da
Ġutil izadas
ĠES T
ĠMa ter
olÃ³g icas
Ġresol veu
Ġnormal mente
Ġcandida tos
ĠDig ital
Ġexec uÃ§Ã£o
T ok
s idade
Ġp Ã³s
ĠT emos
Ġdificul dade
m ed
t endo
ec o
Ġmen Ã§Ã£o
ĠJ unto
ĠH el
Ġminist Ã©rio
Ġrespon dendo
ano ma
ĠCor onav
Ġesto que
Ġemerg Ãªncias
ĠTik Tok
Ġc ra
Ġe pidemia
Ġin je
ĠT im
ĠJ ornal
Ġminist ra
Ġimun idade
Ãĩ A
Ġgest or
Ġresp ei
Ġproc essa
ĠCN N
Ġpropa ganda
Ġblo que
ĠMadu ro
h ing
l la
Ã¡ lia
Ġes pi
Ġcon ven
ĠB er
tu gal
Ġan Ã¡lises
ĠI mp
ĠG en
Ġali mento
ĠLu ÃŃs
ĠAss istÃªncia
Ġdescon he
Ġcul pa
ĠAle gre
Ġexpan sÃ£o
Ġimplan taÃ§Ã£o
Ġcompor tamento
G A
z inho
Ġa egypti
Ġf rio
Ã¡ logo
Ġt um
ĠL ima
Ġcausa das
ciona da
Ġinte iro
Ġcomun it
Ġrecu pera
ĠprÃ³p rios
Ġpol icial
terior mente
Ġacredi ta
iel ite
Ġmilag ros
Ġpedi Ã¡
t ÃŃcia
da d
ĠN i
Ġex cesso
Ġpre ten
Ġtr Ã¡
Ġche gando
Ġinvesti ga
Ġprev al
ĠK a
mic ron
Ġsuspen sÃ£o
Ġd ono
Ġre Ãºne
Ġcont in
Ġfun Ã§Ã£o
Ġimun o
Ġapro vada
Ġaplica da
Ġpou cos
Ġref le
Ġdestina do
ĠÃģ frica
Ġocorre ram
Ġmelho ra
Ġamb ul
ĠLi v
Ġig re
Ġirre g
Ġjoga dor
Ġnegacion istas
ĠPu tin
r ica
Ġcons pira
ĠPara ÃŃba
ĠRe al
Ġgover nos
Ġfec har
ĠGo ogle
Ġperce b
ĠlanÃ§a do
ĠepidemiolÃ³g ica
ĠBel Ã©m
c A
c her
v ou
os es
de ram
Ġdo u
Ġno tificaÃ§Ã£o
Ġg ela
Ġb io
Ġen g
Ġto n
Ġfal e
Ġinter rom
Ġar gu
Ġass ass
ĠCo or
Ġ4 6
Ġforma l
Ġpe gar
Ġfil an
Ġnotifica Ã§Ãµes
ĠfarmacÃªu tica
% ).
7 9
t ulos
u cas
ĠM Ã©
ĠM oro
ĠB on
di Ã§Ã£o
gra f
Ġpres iden
ĠhÃ¡ bitos
Ġcri pto
Ġlo te
ĠCris to
c d
g ica
o is
Ġn or
ĠS RAG
ĠD esta
Ġal terna
om ielite
ĠT ar
Ġcor rente
Ġesc ala
Ġgaran tia
Ġdetal ha
abilita Ã§Ã£o
Ġcoordena dor
* *
G U
te bol
ĠS ER
Ġb ra
Ġb reve
Ġl ic
ĠU BS
av am
Ġcar ros
Ġag res
ĠLa tina
Ġdeman das
Ġcompara Ã§Ã£o
Ġamos tras
ĠfenÃ´men o
b ola
Ġm us
Ã¡ r
ĠB l
Ġpor Ã©m
ĠT ele
Ġge rado
Ġprocu ra
Ġexplica mos
ero por
Ġsolic itar
Ġimedia ta
Ġeletr Ã´nico
Ġinfluen cia
rincipal mente
Ġm is
Ġem isso
Ġb iolÃ³g
tu ais
Ãµ e
ĠÃ ĵ
Ġex pres
Ġentre gas
Ġ4 9
Ġcer im
Ġprote ge
minist ro
Ġtre chos
ĠÃŃn tegra
Ġre forma
ĠE r
ĠE conÃ´m
ĠB R
gu ai
ĠG M
ĠPor tugal
Ġab ando
ĠAn t
Ġcer eb
Ġacompanha do
Ġquer em
fil ia
ĠreforÃ§ ando
Ġdever Ã£o
Ġsubst Ã¢ncias
Ġequ idade
ĠRodri go
ĠContro le
3 2
3 6
Ġ !
Ġa berto
Ġs ÃŃndrome
Ġcom em
ti mo
ĠA gu
ÃŃ pios
ĠS ÃŃndrome
Ġre quis
ĠF ac
org e
fic ando
Ġle ves
Ġcita Ã§Ã£o
Ġapresenta ram
Ġautor izaÃ§Ã£o
Ġconside rando
Ġenferm eira
Ġfrequ Ãªncia
Ġdepen de
Ġqu il
Ġf os
Ġpar la
Ġpe Ã§a
ĠÃ³ culos
Ġencontra da
Ġ15 0
IS T
Ġfinanc eira
Ġgoverna dores
Ġocu pa
ĠS or
ĠS ARS
Ġcon den
ĠB ran
ĠD iante
Ġen f
ĠPor tal
Ġfica mos
ĠAr ti
Ġfabr ic
Ġaber tas
Ġindiv ÃŃdu
Ġn uma
Ġser ve
Ġtra g
ĠCon stitu
tura is
Ġdire ita
Ġcan c
ĠRes pira
Ġgratu ito
Ã³r m
Ġcola bora
Ġceleb ri
ĠFortale za
D AS
\ "
e das
Ġa cidentes
Ġp un
er s
Ġs Ã©rio
qu Ã©
Ġcom ida
ĠT anto
Ġfal ado
Ġvi u
Ġ4 00
Ġsof reu
Ġavan Ã§os
zhei mer
Ġemergen cial
L O
a tÃ©
l ome
ĠR osa
si bilidade
Ġ5 3
Ġob ra
for d
Ġutil izaÃ§Ã£o
EN ÃĩÃĥO
Ġro teiro
Ġfac t
Ġtan tas
Ġantic or
Ġtranspar Ãªncia
7 2
L A
p h
Ġp io
Ġre af
tes es
pi as
Ġ6 00
Ġpesquisa dor
Ġcal endÃ¡rio
Ġenvia do
Ġprotes to
Ġsuj eito
Ġ rus
Ġcon ter
ĠC R
ĠJ ul
me tros
Ġins er
Ġtrans ferÃªncia
Ġad vo
Ġanuncia do
Ġencontro u
Ġonc ologia
ĠMUN IC
ĠAc esse
Ġcomputa dor
ĠPÃº blico
ĠUNA CON
Ġf esta
tu aÃ§Ã£o
ĠR ela
esso ra
Ġmor tal
Ġestra t
Ġrec eita
Ġprev istas
Ġdem oc
ĠpolÃªm ica
Ġinfar to
b os
z ar
Ġm el
ĠP en
Ġpro ib
ec king
Ġac ei
ĠL Ã¡
Ġvol ume
Ġer rado
Ġapare cer
EM B
ĠY ork
Ġba ir
Ġestran ho
ĠFre i
Ġcerve ja
8 5
Ġem b
ĠC PF
ol ina
Ã©d ia
Ġtr iste
lex o
ĠSer Ã¡
Ġref rige
Ã©l io
Ġprov oca
Ġcardio vas
Ġinf er
Ġper deu
Ġfor tes
Ġvol tado
Ġfil a
Ġdesenvol vido
Ġsusp eito
bÃ© ns
Ġresta u
ĠCoronav ac
Ġfilan tr
v amos
or d
ĠP B
ĠD en
ĠAl guns
ĠOu tras
bo raÃ§Ã£o
Ġale gaÃ§Ãµes
Ġrespira t
Ġur b
Ã©re bro
Ġfru to
Ġconfer ir
ĠA ÃŃ
Ġna qu
Ġsu ic
io terapia
Ġpre m
ĠprÃ³x imas
ĠAma pÃ¡
Ġfigu ra
ĠCan ad
ĠRodri gues
Ġchec ar
is mos
ÃŃ pio
Ġin ves
ĠP os
om em
Ġpa go
Ġfa tor
Ġsegu ran
Ġ8 00
ĠcomeÃ§ am
ĠSu deste
Ġabri r
Ãºn cias
ĠSerg ipe
Ġ +
ĠA ca
Ġac res
ĠV as
Ġpar tes
Ġcausa m
Ġsub me
Ġtorn ar
Ġsimples mente
ĠAmaz Ã´nia
Ġfrequ entemente
Ġtur no
Ġaparel ho
ĠSen ado
ĠEuro pa
D i
H O
I P
Ã§ u
Ġf emin
Ġcom emo
Ġin vas
Ġdes es
om as
go cia
ed lia
ĠIn formaÃ§Ã£o
ĠW u
ĠAl zheimer
Ġdiz em
Ġaler tou
Ġeste ve
Ġcontro la
Ġz ika
Ġliv ro
ĠespecÃŃ fico
Ġsaud Ã¡veis
Ġblo qu
edo do
uz io
p r
ra ta
te u
ĠA us
Ġg Ãªnero
ĠR ond
ĠF ab
Ġpa uta
Ġter ra
ĠIn clusive
tro c
Ġsal Ã¡rio
Ġbas ta
Ġhav iam
Ġreceber Ã£o
Ġperman ente
ĠOl ha
Ġendere Ã§o
Ġc Ã©rebro
ro ta
Ġdo entes
Ġre aÃ§Ã£o
ĠÃ Ķ
Ġca ir
Ġreg ional
ez a
ni ma
Ġafirma m
Ġusa m
ĠNe y
ĠclÃŃn icas
Ġchin eses
Ġambi entes
a a
e p
h em
an ta
ĠA t
Ġh er
us to
Ġap elo
ga mento
Ġraz Ã£o
L E
Ġ @
os s
ĠS ch
ĠC AM
ch ecking
Ã©r cio
Ġescol ha
Ġinten sa
ĠIN CR
Ġatra ir
Ġdefin i
Ġveri fica
Ġelim inaÃ§Ã£o
Ġfru tas
ĠFun do
Ġmani pulaÃ§Ã£o
en Ã§o
Ġcon vida
ĠN Ã³s
va Ã§Ãµes
Ġtem por
ĠH u
20 19
ĠPa ÃŃs
Ġag lome
ion ais
Ġrecomenda do
Ġaumento u
ĠCu ba
Ġalc ance
Ġesto ques
ĠMich el
b b
v istas
os p
Ġs ena
in Ã¡rio
Ġg or
Ġdi Ã¡logo
ĠV are
der ne
fica mente
Ġdis cussÃ£o
Ġme tas
Ġinvesti gaÃ§Ãµes
ite c
Ġchama das
Ġis to
Ġcontro lar
ĠDa ta
Ġcateg oria
Ġinv enta
Ġcompe t
ĠIno vaÃ§Ã£o
p Ã³
ma do
Ġv elo
Ġdo ar
ita ndo
ĠF la
ĠH a
Ġtrata va
Ġdivul gados
Ġcus tos
Ġtran qu
Ġdeci diu
N O
Ġ :
Ġ ðŁ
Ġe con
Ġg reve
tu Ã¡rio
om es
Ġmen inas
ru m
ĠAl bert
Ġ4 1
pul ar
Ġor Ã§a
Ġsan gu
Ġsecre taria
Ġpri vadas
Ġge ra
Ġsur pre
Ġcur sos
Ġing er
Ġpequ ena
UL A
Ġempre go
Ġassina tura
Ġfrau des
3 9
A P
B GE
c aro
x i
Ã§ Ãº
pp ing
Ġab ran
TA RIA
Ġbase ada
Ġdefin iÃ§Ã£o
Ġpl Ã¡stico
Ġrastre amento
t y
Ã ¨
Ġs ul
da m
on s
ĠT al
Ġcontra to
Ġenvol vidos
and ro
Ġfortale ce
EM ENTO
Ġfica m
Ġart ista
Ġhum or
Ġpoli omielite
Ġpneum onia
Ġgin ec
ĠINCR EMENTO
en tos
ta ta
is co
on ta
ĠS in
Ġin ver
ĠC ab
ĠB em
Ġb or
Ġex ter
cion ou
du ras
tic ar
Ġreal izando
Ġela bora
Ġapresenta da
ad dad
CO M
Ġsanit Ã¡ria
Ġfic aram
Ġconsequ Ãªncias
ĠInte ligÃªncia
Ġros to
ĠLucia no
ĠespÃ© cie
Ġv iz
ĠM T
Ġl ÃŃn
Ġte ra
Ġte rapÃªu
im e
ĠT or
ĠI gre
Ġca ixa
Ġper cent
con t
Ġli gado
Ġra ras
Ġapare ceu
ĠComp artil
ĠServi Ã§os
Ġevol u
Ġcanc ela
Ã§Ãº car
B C
V E
y s
Ì ģ
Ġem bar
ir me
Ġj ustiÃ§a
Ġto ucas
Ġpre fer
ĠH addad
Ġcl icar
Ġdire cionado
Ġmar ido
ĠCar naval
Es tamos
Ġfabr icaÃ§Ã£o
ĠPres idÃªncia
ĠMS T
Ġsemelh ante
Ġgesta Ã§Ã£o
Ġmetodo logia
e j
Ġf Ã£s
ri mento
Ġin a
Ġvi rou
Ġab ra
per o
ena mento
Ġprecis ar
pro va
Ġalarm istas
ib an
Ġcontribu i
Ġdever Ã¡
ĠMunic ipais
Ġlemb ra
ĠFern anda
ĠLiv re
4 00
t Ã¢
Ġa tes
Ġs ei
ĠE X
Ġse para
ĠD entre
di re
Ġac um
ĠG er
ĠH osp
ca pa
ÃŃs tico
fa bl
Ġtr Ã¢nsito
Ġten tando
ĠestratÃ©g icas
Ġge rando
Ġconsegu imos
Ġfinanc eiros
Ġri gor
Ġexig e
Ġimpos s
Ġflu xo
Ġperceb emos
7 00
Ġd ita
Ġt osse
ĠR os
Ġfo mos
Ġac er
Ġpa ulista
Ġne gocia
ĠEm er
Ġrecu peraÃ§Ã£o
Ġinic iar
Ġanal is
Ġressal ta
ĠOrgan iza
Ġart istas
Ġprotes tos
Ġincorpo raÃ§Ã£o
Ġhiper tensÃ£o
Ġench entes
c rito
Ġa tivo
Ġm ando
ĠR T
Ġex por
Ġcontra taÃ§Ã£o
tr ico
Ġconfirma da
Ġfam iliar
Ġ0 9
EI RO
Ġbom ba
Ġelim inar
Ġdetec Ã§Ã£o
ĠMer cado
ĠSegu ranÃ§a
ĠON U
Ġa man
de iras
ĠM OR
ĠD OS
ĠR O
Ġca fÃ©
Ġpre Ã§os
cul as
Ġass essoria
Ġaten didos
ula Ã§Ãµes
Ġdis p
Ġregist radas
Ġaler tas
Ġven der
Ġinstitu i
ĠFa kes
Ġsal a
Ġoportun idades
Ġexclusi vo
Ġfiscal izaÃ§Ã£o
Ġvelo cidade
ĠIgre ja
p rincipalmente
Ġes tes
Ġre ver
ita mina
pl ice
Ġpres os
Ġel Ã©
Ġdist Ã¢ncia
Ġparcer ias
Ġfu tebol
ĠCOM P
Ġocu paÃ§Ã£o
Ġterr or
7 6
e e
u ello
Ġn er
ĠP i
Ã³ x
Ġl an
Ġex istÃªncia
Ġinf lama
Ġ7 8
Ġdefin ir
Ġenvia das
Ġating ir
ĠSÃŃ rio
Ġox ig
Ġfilantr Ã³p
Ġacres c
V EL
e da
in d
Ġco ber
to logista
Ġcon du
ĠN ik
ĠD el
Ġfa ciais
Ġres pec
Ġgra Ã§as
ĠQ U
Ġav entais
tr icion
ian os
Ġsab em
Ãĩ ÃķES
ĠPre to
AM U
ĠMul ti
Ġcapaci taÃ§Ã£o
ĠClÃŃn icas
Ġvulner Ã¡veis
ĠAndr Ã©
M E
M O
Â °
Ġs ÃŃ
Ġn esses
Ġl ou
Ġdes per
pe rar
ĠV ic
Ġcomp an
ĠJ un
ni os
lis e
Ġregist rada
Ġ7 4
Ġag il
ĠMa ia
IA L
Ġden Ãºncias
Ġdesco berto
ĠFa z
Ġparticip aram
Ġreceber Ã¡
Ġvar ia
Ġrevel a
Ġmam ografia
ĠGab ri
cr Ã¢nia
Ġcelebri dades
ĠVare lla
re ce
Ġem bas
Ġcomp on
Ġcar tÃ£o
Ġav anÃ§
NA L
Ġacompanha da
Ġconhe cidos
Ġconside rados
ĠPA B
Ġresol u
Ġmant Ã©m
ĠLab ois
ĠhipÃ³ tese
ĠPaz uello
Ġanticor pos
ĠLabois si
E u
g ni
os as
ĠA zul
Ġb ur
ĠF u
ina da
Ġent en
qui do
ĠU crÃ¢nia
Ġcar di
Ġmul ta
Ġban deira
ĠZ ika
Ġquan ti
Ġfuncion ar
Ġbrin ca
Ġconh ecer
Ġcredencia mento
Ġcriminos os
ĠCamp inas
Ġcerim Ã´nia
ĠAus tr
T RA
Ġm im
Ã© tica
ĠA G
Ġg arra
ita Ã§Ã£o
ran Ã§as
Ġdi rig
Ġ3 580
Ġconte m
Ġpe Ã§as
Ġval ida
Ġbus cam
ĠEspecial izada
Ġenfr en
Ġdiscu tir
Ġrevel ou
Ġevol uÃ§Ã£o
Ġjur ÃŃ
ĠNey mar
m b
o d
ti o
un os
Ġmen ing
um in
Ġtrans tor
it indo
ĠPOR TARIA
ĠDE Z
Ġsof re
Ġpequ eno
Ġconcent ra
ÃŃss imo
RG ENTE
ĠAnt Ã´nio
EMB RO
A PS
N S
P CR
c rim
g i
i fica
l er
Ã§ oa
ĠO x
Ġprote ÃŃna
ĠdiagnÃ³s ticos
Ġpequ enas
Ġja pon
Ġfla gra
Ġdeba tes
Ġirreg ular
Ġemisso ra
derne ta
iban Ãªs
A g
d icas
Ġs ens
re as
ic i
ĠS ho
Ġcon ce
ei r
ĠG omes
ĠW al
Ġind ÃŃcio
Ġ9 9
Ġcr ist
Ġdef ende
ĠTo da
Ġpare cer
Ġajuda m
Ġespe rar
Ġlevan ta
Ġpron uncia
Ġsimil ar
Ġmosqui tos
Ġpalav ra
Ġopin iÃ£o
anoma mi
ĠÃĶ micron
P O
T U
c aram
ģ £
in har
Ġf Ã³rm
Ġque b
Ġre in
Ġt rou
ĠB io
sa do
Ġdes tin
Ġal tamente
ĠG us
ĠW ol
ula da
Ġ5 4
ĠPara bÃ©ns
Ġob ter
Ġsa pa
Ġmostra ria
Ġmostra ndo
Ġcita m
ĠUni das
Ġrel embre
Ġsus ten
Ġpra ia
Ġdeix ando
Ġinstitu cional
ĠPo de
ea mento
Ġreun iu
Ġdor m
Ġlibe raÃ§Ã£o
Ġposi tivos
ĠBÃ¡s icas
Ġequipa mento
ĠWu han
ta gon
ti Ã§Ã£o
ĠV AC
Ġinf unda
Ġpos iÃ§Ã£o
ĠAl ves
Ġcons titu
ĠEn ten
Ġpromo vendo
fil is
ĠBar roso
Ġcorre ta
h n
Ġes til
âĢ ľ
Ġg aro
ĠV SR
Ġaf eta
ĠAn g
ĠTo tal
Ġinc Ãªn
Ġol ha
Ġban didos
Ġba ter
Ġidentifica do
Ġenvia dos
ĠMus k
ĠArti ficial
Ã¨ re
F o
g ria
Ġd ent
Ã§ ar
ĠM E
Ġpor qu
Ġmu dou
it Ãª
Ġche fe
Ġpri vados
via mente
Ġassocia dos
ĠtÃŃ p
Ġforne cimento
ĠLaboissi Ã¨re
Ġp ac
Ġdo ente
ĠP ix
ĠP RE
ĠM ou
Ġl ida
ven Ã§Ãµes
Ġinte lig
Ġve ja
Ġautor idade
DO U
Ġrespira dores
Ġabor to
Ġinterpre taÃ§Ã£o
Ġassin ou
ĠAlgu mas
ĠDEZ EMBRO
S T
S ESAI
h eiro
ra cia
ma g
ĠM ic
Ġpa troc
Ġres pi
Ġpre lim
ĠU PA
Ġ4 7
Ġle vam
ĠfÃ¡ brica
Ġespa Ã§os
B olsonaro
R IO
T o
i ologia
Ġd ram
es sÃ£o
te ra
Ġvi tÃ³ria
Ġprin t
Ġlon ga
ĠespecÃŃ ficos
ĠlÃŃder es
ĠJan ja
ĠCanad Ã¡
Ġoxig Ãªnio
8 6
Ġd Ã³l
Ġde po
Ġt ria
Ãº c
ist ia
Ġl it
Ġan i
ina dos
Ġpre con
ĠH uma
id or
Ġmo do
Ġvi ver
Ġpartic ular
OS PI
Ġpromo ve
vers Ã¡rio
Ġrepresen tante
Ġconsum idores
Ġnotifica dos
Ġhaver Ã¡
Ġultra pas
ĠAustr Ã¡lia
t ti
Ġde dica
Ã³ i
ĠF ede
Ġen fa
Ġper igo
Ġval idade
Ġidenti dade
ea u
Ġpubl ic
Ġrepresen tam
Ġobser var
ĠbÃ¡s ica
Ġanda mento
Ġunivers al
ĠCuida do
ĠEspe ciais
Ġfas es
Ġincr ÃŃvel
Ġtrag Ã©dia
Ġimposs ÃŃvel
b ele
d b
er os
Ġda tas
Ġre tra
tu a
Ġdes ab
ĠD ias
Ġ3 9
ista ncia
Ġind ustrial
Ġch eio
pro c
ĠAp enas
Ġcres cente
ĠMA IS
ĠprÃªm ios
Ġgig antes
B T
Ġa er
es tas
Ġv indo
ĠE las
ĠB ene
Ġal unos
Ġen x
Ġsobre tudo
Ġdis cus
Ġcar naval
Ġpublica das
Ġcan cer
Ġsa ÃŃda
ĠRa fa
Ġlo jas
ĠNos sa
Ġartic ulaÃ§Ã£o
ĠcirÃºrg icas
Ġcripto mo
Ġquanti ta
R U
V ER
g icos
p elo
z inha
is s
Ġo vos
do m
an as
ul dade
ĠC ac
Ġna turais
va mento
ed gen
Ġ201 0
bo vir
Ġinic iou
Ġve ic
embro u
ĠMu ita
Ġpron to
Ġeletr Ã´nicas
Ġapl icar
ĠGru po
Ġp ei
ĠS O
ĠE v
Ġpor tarias
ĠF arm
Ġso be
con te
me tro
Ġvi vendo
Ġvacina do
Ġpopul ares
Ġvol tados
tri Ã§Ã£o
Ġhou ver
Ġassocia do
Ġquad ros
ĠespecÃŃ ficas
ass im
Ġaprov ou
ĠbÃ¡s icas
ins tein
Ġaborda gem
Ġclim Ã¡ticas
ĠMensa gens
Ġmodal idade
Ġinves tir
B rasil
b es
e u
k a
p ir
Ġc Ã³digo
in f
Ġv Ãª
ci osa
Ġfa Ã§a
ĠH OSPI
ĠW ill
Ġcer ta
Ġsim ul
Ġpesquisa dora
Ġaqu ela
Ġuni versi
Ġassocia da
Ġamb os
Ġimpos to
Ġtransforma r
Ġtradicion al
ĠtrÃ¡ fico
d f
Ġp iloto
ri ga
ei j
ĠÃ ´
orma l
Ġen vel
Ġen redo
Ġcomp ras
ĠU M
Ġmu da
Ġfalsa mente
Ġusa das
ĠAr n
Ġproduz ido
Ġconstru ir
ĠRec eita
Ġhomen agem
Ġsele cionados
Ġvisual izaÃ§Ãµes
Ġmec an
ĠlÃŃn gua
Ġlit ros
istancia mento
C U
in clusive
Ġf ique
ĠP F
ei Ã§Ã£o
ĠM ara
ac os
ĠEs cola
ĠH am
Ġind ÃŃcios
ĠSan tana
Ġencontra dos
Ġvis itas
Ġsin c
Ġer radas
Ġir res
Ġorgan izado
ĠY p
ĠDist ritos
Ġlabora torial
ĠGo i
Ġprof essores
OL SO
Ġamb ula
Ġaper fei
ĠAf inal
Ġespanh ol
Ġa berta
Ġa eropor
Ġp ros
en izaÃ§Ã£o
Ġc ena
ĠS U
Ġt Ã¡tica
em Ã£o
Ġen sa
na da
dem ias
Ã¢n da
ix as
Ġprote tores
Ġta xas
Ġdistribu i
ĠAg entes
Ġauto ma
Ġbol sa
ĠfÃŃs icas
ric ultura
Ġabsur do
Ġresid entes
Ġmem Ã³ria
ĠMÃ© xico
! âĢĿ.
G eral
u ki
â ģ£
Ã© is
ĠS am
ĠE instein
ĠO S
Ġas pec
ĠEs panha
til has
ĠEm erg
Ġapon tando
Ã¡g io
pec tiva
ĠEx empl
Ġsex o
ona tal
Ġintegra da
Ġcent rais
ĠmÃ£ es
Ġbac tÃ©rias
Ġimpe dir
Ġnu tricion
Ġfamos os
Ġfecha mento
Ġcorrespon de
Ġlog ÃŃstica
Ġincentiv ar
ĠRond Ã´nia
O PAS
a t
Ġl ixo
ĠF ora
ĠÃ Ģ
Ġpre ma
ce doras
Ġsa tis
Ġcausa dos
TA S
Ġinvesti do
ĠestratÃ©g icos
Ġacab am
ona to
Ġcoloc ou
ĠEl on
Ġimpres sion
Ġdro ga
Ġunivers idades
ĠclÃ¡ss ico
ĠFel ipe
quÃ© rito
Ġsangu ÃŃ
A l
Ġd ÃŃ
Ġo raÃ§Ã£o
Ġf an
Ġdo bro
ÃŃ ase
Ġin com
Ġb ara
Ġl avar
Ġdes criÃ§Ã£o
Ġconf l
ĠDe pu
Ġsem estre
Ġaponta vam
ĠLu cas
log os
Ġestar Ã¡
Ġ200 9
Ġcent enas
ĠMu itos
Ġfinanc eiras
Ġz ero
Ġpequ enos
ezu el
Ġfamos o
ĠBra ga
Ġapoia dores
cont ent
OLSO NA
g rÃ¡
Ġa titu
Ġc ach
qu inha
Ġcom Ã©rcio
Ġen c
ĠV an
Ġentre gar
Ġcont Ã©m
Ġpe gou
Ġcan etas
ĠPro du
Ġapresenta das
Ġinfec tadas
Ġir m
!! !!
Ġcomple tou
Ġsegun dos
Ġbene fici
Ġpergun ta
Ġfiz emos
ĠMe u
ĠCE O
ĠpediÃ¡ trica
Ġcereb ral
Ġin tes
ĠF ra
ec ular
Ġcomo Ã§Ã£o
Ãªn cio
ĠLe Ã£o
Ġad mi
Ġinvesti gar
ch as
Ġnes sas
Ġespe ranÃ§a
Ġfunda mentais
Ġnarra tivas
ĠBar b
Ġcarre ira
ĠPe tro
ĠepidemiolÃ³g ico
Ġconh ece
Ġju iz
Ġtempera turas
Ġestabel ece
a ps
z i
Ġs oc
ĠC he
ou ve
ĠT ur
Ġcontra tos
Ġta man
ĠestratÃ©g ica
Ġlocal idades
AR TI
ĠTo do
ĠCons ul
Ġclas se
Ġefica zes
Ġcheg aram
Ġcontamina das
Ġles Ãµes
mu ito
a p
l io
s ando
ĠA ta
ĠC U
Ġdes n
Ġpa inel
Ġca b
Ġcomp rou
Ġcor rupÃ§Ã£o
ni bus
Ġcar teira
Ġins ul
bu r
Ġ8 5
Ġofer ecendo
Ġsen tir
Ġquestion Ã¡rio
Ġreconhe cimento
Ġcli ques
Ġdesigual dades
ł ï¸ı
ri dade
gu as
Ġex cel
Ġpa z
ig ar
Ġreg ionais
Ġcons er
Ġcita das
Ġdesenvol vida
Ġir Ã£o
Ġprov oc
Ġurg ente
Ġhepati tes
Ġconv oc
Ġpens ar
Ġner vos
I T
c c
i tes
i ficaÃ§Ã£o
Ġa Ã§Ãºcar
ic ia
ĠA conte
Ġre aÃ§Ãµes
Ã³ rum
Ġb ron
Ġl ac
Ġpro m
Ġca deia
Ġpas tor
Ġle vado
ĠHospital ar
Ã´n icos
Ġespal hando
Ġescol ar
Ġlim ite
Ġcoloc ado
ĠSer Ã£o
ĠTrabal ha
ĠFre itas
ĠInte gra
Ġsofr er
ĠVa tic
ĠOx ford
g il
ļ łï¸ı
Ġde l
or b
ÃŃ a
ĠS AMU
Ġre dor
Ġin duz
Ġpro tagon
le ta
ĠI l
ce fal
Ġpassa gem
Ġtele visÃ£o
Ġcr Ã©dito
Ġbase ia
Ġreti rado
ĠPal Ã¡cio
Ġprome te
ĠGol pe
ĠImp rensa
m em
p ra
ic es
Ã© u
ĠI sa
Ġim pul
Ġnas cimento
Ġ4 3
Ġch ip
Ġhor Ã¡ria
Ġbol sas
pea mento
Ġfacil itar
ĠalcanÃ§ ar
Ġfl ores
Ġrequis itos
7 1
I I
i edade
t Ã¡veis
Ġd istanciamento
Ġc eb
Ġde mi
er ta
te i
Ġg al
ĠT Ã¡
Ġpos teriormente
Ġ6 4
Ġcompartilha das
Ġatual izar
Ġconside ra
Ġsur presa
AM ENTO
ĠMÃ©d ico
Ġalte raÃ§Ãµes
ĠComp lexo
ĠESTA DO
Ġide al
ĠExiste m
bovir oses
OLSONA RO
N CIA
O este
g aram
v an
v ando
Ġd ica
Ġcon ec
Ġen dos
Ġent er
Ġpos t
Ġmes mos
ciona das
Ġnecess Ã¡rias
Ġven dido
Ġprev ista
Ġpul m
Ġidos o
Ġtoma do
IDA DE
ced ores
ĠBas ta
Ġcomem ora
Ġcriptomo edas
ĠBarb osa
R N
S B
Ġ ital
os os
ĠB en
Ġdes as
Ġ20 30
Ġass ist
Ġob s
Ġocor r
ĠÃ³ b
Ġchama r
ĠÃ¡u dios
fici entes
Ġcel ulares
ĠPad re
Ġcontribu indo
Ġclassi ficaÃ§Ã£o
Ġtransmi tido
ĠHor Ã¡rio
Ġfronte ira
Ġpreten de
ĠConstitu iÃ§Ã£o
ĠNik olas
a mente
Ġa bre
ĠA do
Ġes tiv
ent Ã¡vel
âĢĿ )
ĠEs tu
Ġca Ã§a
ĠU N
ab a
pi do
Ġar mas
Ġ5 2
Ġ6 8
RA L
Ġag ente
Ġaqu elas
Ġvo tar
Ġmonito rar
Ġz ona
Ġcumpri mento
Ġconclu iu
ĠRib eiro
Ġjud icial
Ġprol on
F OR
i vo
o ta
ĠP C
Ġb izar
ter ial
ga dor
si ma
Ġmes a
Ã¢n ica
Ãºmer os
Ġfil magem
Ġdevem os
Ġelei Ã§Ã£o
Ġlabora toriais
ĠLei te
Ġinicial mente
Ġsil Ãªncio
Ġbloqu eio
Ġpercent ual
Ġcontem pl
Ġestil o
ĠArn aldo
or r
ĠM elo
iz e
ĠR el
Ġj eito
ĠH ouve
der son
Ġcan cel
ĠPs icossocial
Ġdeix am
Ġven ezuel
Ġpare cida
ĠPo der
Ġquer ia
Ġsof rimento
Ġcola p
Ġprof essora
ĠTrans miss
Ġsolicita Ã§Ã£o
Ġig no
ĠDra uzio
ĠRena to
Ġinstal aÃ§Ã£o
ĠEpidem iolÃ³g
Ġ y
es tes
Ġe bola
Ġf ol
Ġv igil
ti te
ÃŃ gado
Ġin cidente
ĠvÃŃ n
ba g
Ġme ia
Ġle ve
Ġman ejo
Ġpe ga
Ġmostra do
Ġcr ono
Ġro b
Ġado Ã§Ã£o
Ġado tar
Ġcontribu iÃ§Ãµes
Ġaparel hos
ĠEstratÃ©g ia
Ġtera pias
Ġani versÃ¡rio
ĠHOSPI TAL
9 00
f i
i ol
ta dor
or e
or ias
ic k
ĠA Ã§Ã£o
ĠC har
Ġmas cul
Ġven dendo
Ġfortale cendo
Ġreduz indo
Ġâ ļłï¸ı
Ġmelhor ias
ĠcientÃŃ ficos
ĠReg iÃ£o
Ġrepassa do
Ġmulti profission
Ġemagre cedoras
ĠVatic ano
Ġcrono grama
l ias
Ġc igar
un d
ĠO NG
Ġfo me
ve ja
id ra
Ġpos to
ĠEn con
RA M
Ġlin gu
ĠSu a
vida mente
âĢĻ .
Ġespe ciais
Ġproduz ida
Ġconc eito
ĠGra ve
Ġvolun tÃ¡rios
Ġretor no
Ġexerc ÃŃcio
Ġsupermer cados
Ġtreina mento
ĠCoor den
F M
i bilidade
ta dores
Ġv endo
men go
men tado
Ã³ cio
ĠF OR
Ġex ibi
cion ando
ĠNa Ã§Ãµes
ĠAl iÃ¡s
ĠCom bate
ĠÃº tero
Ġvol tada
Ġimun olÃ³gico
Ġro m
Ġquer o
16 8
Ġabri u
ĠY anomami
Ġfu g
Ġauto m
ĠSanit Ã¡rio
Ġop Ã§Ã£o
ðŁ ĩ
americ ano
ĠFar macÃªu
ĠEconÃ´m ico
Ġtaman ho
V S
c amos
x ÃŃlio
ia das
Ġf ÃŃgado
Ġv itamina
Ġre abilitaÃ§Ã£o
ĠC el
Ãº r
ĠB OLSONARO
Ġfa kes
Ġfal si
cu rso
Ġpu der
Ġlei to
cor re
Ġind is
Ġdu raÃ§Ã£o
Ġcont Ã¡gio
Ġ201 1
Ġuso u
Ġmar co
ĠCar val
Ġconside radas
Ġalte ra
Ã³l icas
Ġjog ar
Ġleg ÃŃ
ĠPron to
Ġtranspl ante
Ġecon om
Ġquantita tivo
4 9
D OR
t res
t rito
Ġs ono
do min
ÃŃ bl
Ġin oc
Ġb arra
Ġl embrou
us el
ir ceu
ĠR en
Ġcomp osto
Ġtra je
Ġcu b
ĠMar cos
Ġsurg iram
Ġatribu ÃŃdas
Ġtorn ando
Ġabs or
Ġagu da
Ġperson al
ĠGar cia
caro usel
6 9
I G
Ġp edia
Ġde vol
ta vo
qu ad
te is
Ġv Ãªm
em s
Ġg ene
Ġna vio
Ġpor tas
Ġpo bre
Ġass inado
Ġne gou
Ġme us
Ġma Ã§
Ġcompartil hou
ĠQu er
TA M
Ġdescon to
EI RA
Ġconsegu em
Ã´m bia
ĠLa va
Ġhuman idade
Ġtransmiss ÃŃveis
ĠServi Ã§o
ĠII I
Ġdesl oca
Ġavis o
Ġtria gem
C IO
E G
P T
Ġde pressÃ£o
Ã© ticos
Ġes por
ĠD AS
ĠD irceu
ĠR oc
Ġal deia
pe za
ĠV in
Ġind icaÃ§Ã£o
Ġdu ra
Ã¡s tica
Ġrespon de
âĢ¦ .
Ġcompro var
Ġro do
Ġescol her
ĠGu ia
Ġata car
Ġseman ais
Ġren al
Ãļ DE
Ġtermin ar
Ġdipl om
Ġambul Ã¢ncias
Ġreaf irma
ĠFla mengo
Ġmando u
S RAG
g Ã£o
an e
ĠS endo
ĠO ri
gu em
ĠH ospitais
ĠAl berto
Ġma peamento
Ġ6 9
ĠUS P
Ġref u
Ġestran geiros
Ġdisposi tivos
Ġlegis laÃ§Ã£o
ĠResol vemos
ĠGus tavo
Ġdiscus sÃµes
f u
f ÃŃcio
f eno
Ġqu im
ĠM os
Ġpro var
Ġex ce
ĠI gua
ĠAl to
ps ia
Ġprote g
Ġresul tou
Ġplan eta
Ġbal an
Ġedi tor
Ġjun tos
Ġesclare ce
ĠtÃŃ tulos
Ġcarre ga
c Ã£o
o p
da da
Ġv es
ĠA qu
Ġin capa
Ġse tores
ĠM onte
Ġl au
iz em
Ġso mos
Ġan si
ed pio
Ġnas ceu
Ġle talidade
ĠCh ile
Ġtrabal hos
Ġag ir
Ġinfec tado
Ġrecomenda da
nas cidos
Ġvir tual
Ġamea Ã§as
ĠFl Ã¡
Ġambi ental
Ġcumpri r
ĠSA ÃļDE
ĠcÃ¡ l
Ġprorro gaÃ§Ã£o
Ġestru turas
ĠDou rados
Ġassisten cial
ĠAgu da
Ġsapa tilhas
) \
C onas
R OS
b ais
f un
i ts
Ġ q
Ġre i
Ġb rit
Ġl as
Ġdes crito
ĠR ou
ĠT EM
til ha
Ġconf or
Ġaconte cido
Ġviral izaram
val o
Ġcole tivo
Ġgover n
ĠPre venÃ§Ã£o
Es sa
ach eco
Ġcontamina dos
Ġperigos o
ĠdÃ© cadas
Ġameric ano
Ġdetermin ou
Ġbair ro
C N
b res
b ras
m il
Ġ org
Ġde cid
ti ram
ÃŃ plice
ĠP acheco
dos o
am e
Ġap a
âĢĿ ).
Ġou ro
tan o
na dor
Ġentre vistas
Ġinter essados
ĠCon forme
Ġle ia
Ġor den
Ġutil izou
Ġobje tivos
Ġreti rar
Ġrou pas
ĠSanit Ã¡rios
Ġino vado
ĠCol Ã´mbia
Ġinstala da
Ġaposenta doria
ĠEd gar
Ġabsol u
ĠMichel le
ĠAconte ce
Q UE
b is
d d
al to
Ġdes ma
vi u
Ġpar tido
cu r
Ġind icar
Ġ7 9
Ġ7 00
Ġ201 2
TA N
Ġsab ia
ĠDes se
mar go
Ġrespira tÃ³ria
Ġacess ando
Ġacredi tam
ĠX IV
Ġperm itindo
Ġacompan ham
Ġreceb endo
ĠTrans criÃ§Ã£o
ĠTÃ©cn ica
Ġparalis ia
Ġcober turas
Ġprom essa
L H
d inha
p ria
ra tivos
al go
ei rÃ£o
Ġg Ã¡s
ĠB iden
Ġca ta
Ġaten didas
Ġreg ra
ĠNo ta
Ġpublica dos
ĠOu tubro
Ġatual izadas
Ġafirma do
gan ta
Ġfec hado
ex ecutivo
Ġfrequ entes
Ġrecor rentes
ĠcrÃŃ tica
Ġproibi do
Ġproibi Ã§Ã£o
ĠFl or
Ġexpan dir
Ġperson agem
ĠInforma Ã§Ãµes
Ġadver sos
Ġpropri e
Ġfos sem
ĠMUNIC I
ĠCompartil he
k y
Ġf oc
Ã¡ u
Ġda da
Ġdi vi
Ġpa gos
Ġinf lu
ĠU rg
Ġconf ianÃ§a
ĠCon tudo
Ġins iste
Ġfun cional
ĠPro fission
Ġapresenta dora
Ġenvol vem
Ġcri tica
ĠRo bert
Ġcoloc ando
ĠespecÃŃ fica
Ġsanit Ã¡rias
Ġestim ular
ĠÃŃnd ice
Ġmanip ula
ĠindivÃŃdu os
ĠEmer gÃªncia
Ġcancer ÃŃgen
E n
V er
m ei
Ġs oro
ĠA O
Ġb en
tra n
Ġou vir
Ġto mando
ĠV ai
ĠU RGENTE
Ġpres tar
ess em
ke t
it Ã¡rios
Ġregist raram
Ġrep Ã³rter
Ġinclu ir
cida des
Ġelei tores
ĠIN TER
ĠUS B
Ġpul mÃ£o
ĠEqui pe
Ġimedia to
Ġul tras
Ġabsur da
Ġpriorit Ã¡rios
Ġconjun ta
ĠTransmiss ÃŃveis
D S
D IC
i mentos
z os
Ġa tivos
Ġa jus
Ġm Ã©dio
Ġcon vers
he cimento
it Ã¡ria
Ġespecial idades
Ġesc Ã¢nda
TA R
Ġresol uÃ§Ã£o
Ġpubl icar
ĠCu ia
Ġimple menta
Ġrecebi mento
Ġdepu tados
Ġevita ndo
Ġpreen ch
Ġimpul sion
f c
g icas
t w
in ais
ĠA ni
ĠS AN
Ġcon qu
ĠC ara
Ġh ack
ĠM IL
ĠT en
Ġfal eceu
Ġca i
pos tos
ne o
Ġvacin ou
Ġlei tor
Ġma tÃ©rias
bil izaÃ§Ã£o
Ġ9 93
Ġenvol vimento
Ġquar to
ĠGu ar
ĠGlo bal
Ġperman ecer
Ġdiminu iÃ§Ã£o
Ġgas tos
Ġadminist raÃ§Ã£o
ĠAT ENÃĩÃĥO
Ġdomic iliar
Ġcompos iÃ§Ã£o
Ġequivoca da
Ġespi ri
Ġgor dura
umin ense
Ġcolap so
N a
Ġ ?
Ġp ico
Ġp si
en cial
ma go
ar os
Ġes tas
ĠS ÃĥO
ĠV ira
Ġpr Ã©dio
Ġaten to
man n
Ġvacin ais
Ġ5 8
ela das
aran do
Ġag re
Ġdistribu ÃŃdas
Ġ18 0
AN DO
Ġdever iam
Ġpopula cional
Ġconsum ir
Ġconcent raÃ§Ã£o
Ġestima tiva
Ġjoga dores
Ġnar iz
Ġgar ganta
ĠSou za
ĠVas con
Ġsinc icial
Ġlingu agem
ĠEdgar d
P a
c ica
x im
Ġs enhor
in ga
ĠS ino
Ġh os
âĢĿ ?
Ġan ual
Ġpre p
Ġim ig
ba dos
ix os
Ġpassa da
iser ic
Ġra ra
Ġvis am
li de
Ġge raÃ§Ã£o
Ġ0 8
Ġvo taÃ§Ã£o
Ġdesin forma
Ġintegra r
Ġidos a
Ġpubl icidade
Ġdisponibil izados
Ġpadr Ãµes
ĠbÃ¡s ico
Ġdescar tados
ĠCir cula
ĠcontÃŃnu o
ĠFil ho
ĠfÃ³rm ula
ĠVascon cel
E P
M inist
Ġa tos
te ve
ic ios
Ġcom entar
em ble
ĠC OR
ĠC lau
Ġb ril
Ġdes cul
ĠR ES
Ġ1 20
go ver
ĠG over
Ġpos se
Ġar terial
lo ga
Ġle is
Ġpassa geiros
Ġag Ãªncias
Ġprograma Ã§Ã£o
ĠMa ts
ĠVal or
ĠPer eira
Ġrespira tÃ³rios
Ġating iu
Ġbenefic iar
Ġsho pping
ĠCha gas
ĠBol etim
Ġsensacional ista
Ġsensacional istas
Ġaprimo ramento
Ġigre ja
j Ã¡
k k
Ġ )
qu im
ĠA cesso
Ã³ rio
ĠM el
Ġpro gres
Ġdes eja
ĠF BI
Ġex ces
Ġres pal
Ġcomp rado
Ġtra tam
Ġma tou
Ġimpor ta
Ġli gados
ĠQu anto
Ġten dÃªncia
Ġgaran tem
Ġven eno
Ġir mÃ£o
Ġ0 2
Ġmal Ã¡ria
Ãĩ O
ĠNe g
Ġing estÃ£o
Ġing redi
ĠPar tic
Ġanuncia r
Ġges to
Ġimpos tos
Ġopera Ã§Ãµes
Ġcontempla dos
Ġbrinca deira
emble ia
b ai
s lide
Ġp is
Ġco man
Ã¡ cias
Ġin venÃ§Ã£o
Ġin Ãºmeros
Ġcon d
Ġ1 000
Ġfa ixas
bl o
Ġsi ga
Ġvi ra
ĠPa ulista
Ġimun iza
Ġ0 1
Ġvia j
ĠCas os
Es se
Ġla va
ĠPol os
ĠmÃ© todos
Ġpreju ÃŃ
Ġgig ante
Ġtradicion ais
Ġcostuma m
Ġdisposi tivo
OC ÃĬ
ĠNenh uma
ĠGabri el
ĠCuia bÃ¡
4 1
E Z
T RO
e gal
p rim
z aro
Ã© tico
ĠA ids
ĠS erra
Ġso cio
vi ral
Ġto x
ĠG al
Ġres erva
ĠH U
si as
Ġpr Ã³s
Ġconf un
Ġvi de
Ġvi ram
Ġ5 1
Ġins cre
Ġ9 8
ĠAn ton
Ġconhe cidas
Ġoficial mente
ĠPo pular
Ġpou cas
Ġlim peza
Ġglo bais
Ġelim ina
Ġmist u
Ġpriorit Ã¡rias
ĠImun izaÃ§Ãµes
ĠNenh um
ĠBl ack
Ġparla mentares
ĠDepu tados
Ġa ulas
Ġco in
ter s
Ġex age
Ġen quad
ed cia
Ġcas al
ĠSe u
Ġven cer
Ġtal vez
Ġado tadas
Ġpare cido
Ġdez enas
mes sas
Ġincen tiva
Ġanuncia da
Ġating e
ĠFran co
Ġpulmon ar
Ġcoment Ã¡rio
Ġultra proc
ĠHe pati
bac hia
Ġassisten ciais
ĠMats uki
b c
f eitos
s ino
Ġa bu
in to
Ġf eliz
Ġv an
ĠC AR
ĠU ru
pl as
gra fo
Ġvi vos
Ġsuger em
Ġatu ais
Ġdef ender
Ġacab aram
Ġanti bi
IC S
Ġjornal istas
Ġbil ion
ĠMÃ©d ica
Ġtran si
ĠEuro pe
Ġexis tir
ĠCrian Ã§a
discipl inares
Ġtrou xe
Ġaspec tos
5 7
5 9
Ġe ficiÃªncia
or re
on y
Ġin ex
ĠC idade
ĠE di
ĠR ed
ita do
tra l
Ġper i
Ġcria dos
Ġatu ando
tr icos
ĠCO P
ĠAss embleia
ĠCa margo
Ġorgan iza
ĠK ar
ĠperÃŃo dos
ĠEsta bele
ĠAg ricultura
Ġsuper f
Ġger ente
Ġtan ta
Ġmenti ras
Ġmilag re
ĠeconÃ´m ica
Ġjusti fica
Ġperten ce
onta de
Ġpronuncia mento
J A
b om
s Ã³
y l
Ġm i
Ġfal as
ĠV OCÃĬ
ed do
ĠNa da
Ġaten dem
Ġdia r
ĠPa tr
Ġocor rem
Ġten tam
Ġconfirma das
ĠSecre tÃ¡rio
Ġro l
ĠrÃ¡ dio
Ġidentifica dos
Ġk it
Ġk its
ĠAmÃ©r icas
Ġmoto c
ĠBol sa
Ġblog s
Ġespeci ficamente
ĠEnfer m
graf ias
ĠVAC INA
ĠRafa el
i be
t to
es p
Ġre quer
Ġan ualmente
ed ticas
ĠJ orge
Ġcor te
Ġsegu ido
Ġgra Ã§a
Ġdu vidos
Ġel og
Ġtr ÃŃplice
Ãªm io
Ġve ge
Ġatual iza
Ġsal as
Ġrefer ente
Ġcen su
Ġaquis iÃ§Ãµes
encia mento
ĠTecn ologias
cep cional
Ġmanifes tantes
ww w
Ġalco Ã³licas
Ġsuple mentos
dim ir
Ġsena dor
ĠExempl o
I s
R e
f ac
h is
p us
Ġp ic
Ġc Ã¢
is se
Ã¡ gua
ÃŃ rem
Ġin do
Ġt ribu
ĠP L
ĠV ila
ĠL ÃŃ
Ġcor pos
Ġmes mas
Ġ6 2
Ġten tou
Ġta bag
Ġru im
Ġbuscar mos
âĢĻ ,
Ġil egal
Ġimpres sÃ£o
Ġfras es
ĠJu iz
Ġmoder n
Ġposicion amento
Ġtranspl antes
ĠWol bachia
Ġporqu Ãª
Ġenfa tiz
S TF
z aÃ§Ã£o
Ġn isso
te la
Ã§ ou
Ġf irma
Ġque bra
Ġdo ado
ĠA Ã©re
Ġin se
Ġser es
la dimir
Ġen gen
Ġat entado
ĠV ER
ĠPro f
Ġexpl os
Ġmedica Ã§Ã£o
Ġvol taram
Ġvis ando
vul gaÃ§Ã£o
Ġali mentares
Ġven de
Ġespal haram
Âº C
ĠNe to
Ġgen Ã©r
Ġidentifica da
Ġrou bo
Ġestabele cimento
Ġimple mentar
ĠQual quer
Ġrelig iÃ£o
edn drome
Ġdistor Ã§Ã£o
Ġreligios o
ĠFac uldade
Ġsuic ÃŃdio
ĠEnten da
ĠdÃ³l ares
Ġaperfei Ã§oa
d inho
h t
Ġcom orb
Ġt Ã´
ul ho
Ġpara da
Ġse gre
ĠB or
ĠD em
le y
Ġso br
Ġac har
Ġent ende
ĠH omem
ĠMinist Ã©rios
tro duÃ§Ã£o
vid Ãªncia
Ġconta bil
Ġcompro ve
27 45
Ġ19 2
Ġpol ar
Ġcomple tar
ĠmÃŃ nima
Ġveri ficaÃ§Ã£o
Ġce gueira
ĠEl eito
Ġgas olina
Ġagu ar
Ġquestion a
Ġcoorden aÃ§Ã£o
Ġapreen sÃ£o
Ġaman hÃ£
8 80
S ES
v entes
en ses
Ġex pul
Ġest Ã´
ĠH ist
Ġim pl
Ġpar que
Ġinter venÃ§Ãµes
ĠIn g
ÃŃs ticos
vid ores
elh as
Ġinfec tada
Ġcompro vado
Ġprev ia
Ġ0 7
Ġanti gas
Ġperce be
Ġcorre to
Ġobriga tÃ³rio
ĠSuper ior
Ġmodi fica
ĠMater nidade
Ġton eladas
Ġnor mas
ĠLÃ¡ zaro
ĠHu ck
N os
in ta
Ġm onte
on de
ri edade
Ġin ven
ĠP ER
ĠEs tÃ£o
ĠV o
ĠV ladimir
Ġpr ender
ne y
ĠAl mei
Ġme x
Ġtrata do
Ġtrabal ham
ĠMar ÃŃlia
Ġacompanha das
Ġcri tic
val ida
ĠCor re
ĠPer gun
Ġesclare ceu
Ġmode los
estrutura Ã§Ã£o
Ġarqui vos
ĠFÃ¡ tima
Ġemi tiu
Ġform ul
Ġaumen tando
Ġfuma r
ÃŃbl ia
4 6
L ibanÃªs
a e
t us
en dido
te ral
ĠA os
ĠP ES
ĠC ida
ĠM elh
Ġan dar
Ġesta t
ĠPa ci
Ġch Ã£o
Ġaplica do
abil idade
Ġorgan izaÃ§Ãµes
UA L
Ġconsegu iram
PI O
Ġfrequ ente
Ġpaga mentos
Ġtransmi tida
Ġcerve jas
ĠOr dem
Ġderru bar
Ġga y
Ġprejud icar
Ġtum ores
Ġrespi rar
ĠprÃ³s tata
Ġultraproc essados
S G
b am
Ġp aco
Ġc itou
re l
Ġv ontade
ĠC ur
ĠF DA
Ġac essa
Ġdi gn
ĠV ar
co bri
ĠJ ab
Ġcan sa
Ġtes es
ĠsÃ³ dio
Ġcri t
ĠCi ent
Ġrepassa das
ĠPol o
ĠPlan alto
Ġreligios os
Ġirre vers
Ġcli entes
ĠRena ta
Ġassegu rar
ĠvÃ¡ l
Ġcombust ÃŃvel
Ġantivac ina
Ġassis tir
Ġtabag ismo
5 6
D es
I F
f ira
g eiro
s ia
Ã Ĥ
Ġde pÃ³
Ġco ra
an sen
Ġl ad
tu de
Ġex ib
ĠI BGE
ĠL U
Ġass ista
Ġapon tado
Ġesc al
Ġacom e
Ġdeix e
lu tida
ĠSo ares
Ġsub si
Ġespal hado
Ġrepas sar
Ġrespira tÃ³rio
Ġatribu ÃŃdos
ĠSil via
Ġreun iÃµes
Ġcomer ciais
Ġalc anÃ§a
Ġalte raÃ§Ã£o
Ġbi Ã³
americ ana
IZ A
Ġdescre ve
Ġcertifica do
Ġbur bur
ĠestÃ´ mago
d c
g na
Ġs ent
Ġo tim
ĠB i
Ġb ens
Ġdes pe
âĢĿ :
pe ras
ĠV ia
Ġca os
Ġpr is
Ġpres er
Ġpres erva
tado ra
Ġpublica mente
ian Ã§as
Ġdivul ga
Ġis ol
Ġcus ta
ĠMen des
ĠGu il
Ġcarre tas
Ġparc eiros
Ġimpres so
vac ina
ĠCarval ho
S F
T OR
V ac
Ġd entre
Ġde fici
Ġin cons
Ġt he
ĠM c
ĠF Ã³rum
Ġex istentes
ĠI M
tal he
bi os
fa ke
Ġofer tadas
dan te
Ġdivul gadas
Ġsur gem
Ġru m
Ġficar Ã¡
Ġidentifica das
Ġdiminu i
Ġinteg rantes
ĠTe xto
Ġforn ecer
Ġpresen cial
ĠCrist ina
ĠIr Ã£
Ġdemo ra
Ġabaste cimento
ĠsÃŃ filis
Ġaeropor to
ĠEstu dos
ĠEleito ral
H C
r ma
Ġ ia
Ġde ram
Ġe vi
qu ei
in ando
Ġv elha
ĠS ar
Ġt Ã³x
ĠC B
ĠC aixa
ĠE N
ĠB arra
ĠN Ãºc
ĠD os
om o
Ġser vem
ĠEs tudo
ĠL ULA
ed timas
ĠG l
Ġcomp are
ĠU MA
ÃŃs io
Ġpu des
ĠRe is
ĠPro mo
orn ais
Ġdeix aram
eita mento
Ġpri vado
Ġbase ado
Ġsinto ma
Ġfra ud
Ġjul gamento
ĠMed ica
Ġce do
Ġlig ar
Ġneuro lÃ³g
Ġofere cidos
Ġmol ecular
ĠdÃ© cada
Ġcaix as
Ġrus so
Ġsobe ran
ĠCoorden aÃ§Ã£o
Ġtraje tÃ³ria
Ġansi edade
ĠSino vac
Ġburbur inho
Ġe ficiente
Ġm ig
ol o
Ġ2 50
Ġser vir
pe dia
Ġca derneta
ĠL au
Ġres to
Ġpre ca
si de
ber g
Ġgra feno
tÃ³ lica
Ġ6 7
Ġrela Ã§Ãµes
Ġofer tar
Ġrec lama
icar do
Ġafirma Ã§Ãµes
ĠCar re
Ġcontam inado
Ġesp ir
Ġapu raÃ§Ã£o
hing ton
c la
d Ã¡
s or
Ġp ip
is i
qu istÃ£o
in go
Ġco ca
Ġo ral
ĠB eb
Ġl he
di ram
Ġex clu
ĠG on
Ġcomp osta
ĠJ ud
ĠH ol
vel a
ĠSe x
ĠW as
Ġreg ime
Ġmor ce
icos e
Ġcons elhos
ĠCom itÃª
Ġforma dos
Ġ7 20
Ġrespon deu
dan ia
Ġorgan izar
Ġvia gens
ĠVocÃª s
mes mo
Ġnega tivo
Ġcomplex o
Ġforn ece
ÃŃss imos
Ġprelim inares
V IS
c O
f b
Ġc ruz
in am
Ġo cul
do b
Ġin quÃ©rito
ĠP M
Ãº jo
Ã³ veis
Ġ( @
ĠM Ã¡rio
ĠB and
Ġb ic
ac redi
Ġsu co
Ġal tas
ĠV ig
Ġres istÃªncia
Ġentre gue
tic al
ĠÃ³ leo
Ġinte gram
ĠMar tins
Ġfil as
Ã¡g ica
tem un
Ġautor iza
Ġvo o
Ġfac ada
ques tra
Ġama mentaÃ§Ã£o
Ġproibi u
Ġprevis tos
Ġrelev Ã¢ncia
ĠEnfer magem
PC D
Ġbalan Ã§o
ansen ÃŃase
1 64
d iar
n Ã§a
Ġde d
Ġin con
Ġdes emb
Ġpa d
Ġter emos
ĠJ r
ĠIn corpo
Ġar boviroses
ĠW an
Ġne onatal
Ġdis posiÃ§Ã£o
Ġcons elho
com p
uma be
Ġimp ro
58 7
Ġapro vados
Ġaqu ilo
Ġva quinha
Ġestar Ã£o
ĠNe w
ĠGu erra
ĠInf antil
Ġtoma ram
Ġpl ena
ĠAu g
Ġcheg am
Ġpropa gaÃ§Ã£o
Ġmin im
Ġsequ elas
ĠSuper mer
cons ul
tÃŃ culas
ĠTÃ©cn ico
Ġreto mada
Ġchu vas
Ġpresiden cial
Ġprecon c
Ġatitu de
Ġsuperf ÃŃci
Ġfraud ul
ĠWas hington
4 3
i ga
p ia
t rem
t inu
en eca
Ġm eios
da ma
Ġv oc
ĠA pare
Ã³ vel
Ġb el
Ġl inhas
ĠO pera
us eas
ĠT RA
ce is
ĠH em
Ġtra duz
Ġvi va
Ġdis pu
Ġsegu indo
Ġsegu idores
ba ma
Ġpe da
Ġrece p
Ġpesqu isar
Ġad m
rado ra
MS I
aix ada
Ġgaran tiu
Ġcompro v
Ġplan tÃ£o
cid Ãªncia
ĠJo hn
Ġale gando
ĠFern andes
Ġafe tadas
ĠComun idade
Ġreper cu
Ġja mais
Ġdiagnostica dos
Ġreconh ece
Ġfronte iras
Ġconscienti zaÃ§Ã£o
ĠTim es
Ġfabric ante
ĠAta ca
O pas
ta rem
ĠC IA
ĠC orte
ei as
Ġpara l
Ġdes mente
ĠR icardo
Ġal tos
Ġan d
Ġinter essa
ÃŃs sima
ĠCon ec
Ġab aca
Ġad ian
Ġer ra
Ġcr Ã´nica
Ã³r dia
ĠPA C
ea mente
Ġofic inas
Ġsof rido
Ġrevel ado
Ġfic Ã§Ã£o
ĠAra Ãºjo
Ġdaqu eles
Ġaprimo rar
Ġalar man
ĠRespira tÃ³ria
ici Ã¡rio
4 7
C AR
D B
U TI
V I
a qui
d s
d ru
Ġco bra
ĠP la
Ãº de
ĠE QU
Ã³ lica
le tas
Ġfa Ã§am
ĠV e
Ġar g
ni as
Ġfaz ia
Ġti do
Ġli gadas
dia Ã§Ã£o
Ġofer tados
Ġsol ida
Ġtecn olÃ³gica
Ġale ga
dica mente
Ġfuncion am
pol ita
Ġprov Ã¡vel
Ġhe ma
ĠSem pre
Ġk m
Ġarre cada
Ġacele rar
Ġprinc ÃŃpio
Ġtab ela
Ġantivac inas
ĠorÃ§a mento
ĠHuma no
ĠRel embre
ĠFarmacÃªu tica
ĠAni tta
ĠAlmei da
M I
n em
n icas
re iras
men da
Ġno v
ĠE qu
Ã³ ticos
Ġpor tais
im un
di ta
ter ol
Ġex cepcional
Ġdi Ã¡rio
co ma
ĠJ Ãº
ne os
Ġdis far
Ġvacina da
Ġconte xtos
Ġdire Ã§Ã£o
Ġeu ro
ĠTam b
Ġfar ia
Ġassocia Ã§Ã£o
Ġenvia da
ach ment
ĠComun itÃ¡rios
ÃĬ NCIA
ĠcardÃŃ aca
ĠgenÃ© tica
Ġmotor istas
Ġsupermer cado
Ġpropri edade
ĠNicol Ã¡s
\" .
ĠEmerg Ãªncias
Ġcach orro
Ġ993 31
P o
a to
f re
f eita
m ico
er ial
Ġqu Ãª
ma ne
da dos
Ġv c
ĠP ela
tu ros
ac as
Ġso m
ĠV ir
Ġpar entes
Ġinter ess
Ġper segu
ĠW ai
Ġtrata da
cis amos
Ġminist Ã©rios
Ġdist in
Ġrel emb
Ġra pa
Ġinterna da
Ġdef endeu
Ġdifer encia
Ġ0 3
Ġresol ver
ĠQual idade
Ġce pa
ĠAd ria
Ġfacil mente
Ġcontamina da
ÃŃm bol
Ġsil en
Ġamos tra
ĠEST Ãģ
Ġcardiovas culares
ĠÃ´ nibus
ĠvÃŃn culo
4 2
I AS
c oa
x ia
ĠS ara
Ġre ab
Ġre visÃ£o
ĠB H
ĠB ÃŃblia
am ba
ĠN OS
ĠT h
ĠI MP
ed ores
Ġesta rem
ja do
ĠÃ¡ cido
Ġ7 3
Ãªm ica
ĠMar co
Ġpra ticamente
Ġsan eamento
ĠCa das
IC O
Ġfar mac
Ġfunda mento
Ġpal co
Ġdisponi bilidade
ĠhistÃ³r ica
Ġtenta tivas
Ġrepro du
ĠSen hora
Ġanteci pa
Ġinterrom per
Ġdisp ensa
Ġcata rata
. *
5 2
8 1
D IA
b or
h eiros
n es
x os
Ġt oss
ul to
Ãµ em
ĠD ito
ha el
Ġsu pri
ĠIn ca
um ba
Ġi tem
Ġpu ra
ess Ãµes
Ġ9 2
Ġela boraÃ§Ã£o
Ġofer ecem
Ġenvol vido
Ġpri va
Ġdistribu ÃŃdo
Ġtotal izando
Ġpon ta
Ġmal icios
ĠTem er
Ġagra vamento
Ġpermite m
ĠRu i
Ġrevol ta
Ġrepro duz
Ġclara mente
Ġarmaz enamento
ĠLabora tÃ³rio
PN I
ĠBran co
P L
r one
Ġ zo
Ġp ica
Ġn am
on das
ĠS ÃŃl
Ġin e
Ġno ti
Ãº m
ei x
Ġpara s
ĠM EN
Ġpor te
Ġte l
di te
ĠF O
Ġpo t
la us
Ġcomp rim
Ġconf ron
Ġma dru
Ġfor em
Ġpassa porte
Ġaler tar
ian Ã³polis
Ġdistribu iu
Ġlocal izada
Ġ0 4
Ġrefer e
Ġale gria
ĠNos so
Ġperman Ãªncia
ĠSi tuaÃ§Ã£o
Ġproc ed
Ġrecor de
ĠAu di
ĠmÃº lti
Ġtransmi tir
ĠComun icaÃ§Ã£o
ĠpolÃªm icas
Ġlide ranÃ§as
gon ha
Ġestru tu
Ġbran co
ĠGoi Ã¢nia
cefal ia
iseric Ã³rdia
l icas
t ismo
v in
Ġd ona
Ġcom enta
ul ha
Ġpro messas
Ġinter rupÃ§Ã£o
fic aram
Ġmo tiva
Ġmor rendo
Ġconf irme
Ġsegu ras
Ã´ s
Ġcer tificaÃ§Ã£o
ite l
gn aÃ§Ã£o
Ġparticip am
Ġcient ista
ĠSu b
Ġconside raÃ§Ã£o
ĠZ Ã©
MA Q
ĠPR ES
Ġemo cion
Ġocas ion
ĠAd Ã©lio
Ġil us
ĠNicol e
Ġmilagros as
Ġrefrige rante
Ġdorm ir
Ġpei xe
C L
m ica
s us
v ine
Ġa ves
Ġe ixos
ar te
ti pos
ĠA h
Ġin Ã©di
di as
ĠT ER
Ġj an
ve ra
pi ke
tro polita
20 2
cl i
Ġcor ro
US P
Ġma terna
Ġman chas
Ġtrans por
Ġapres entem
ĠPro cu
Ġconfi gu
Ġlocal izado
ĠCar doso
den tal
Ġvia jar
minist ra
Ġtoma das
EL A
onal do
Ġocas iÃµes
ĠPesqu isas
Co vid
Ġefe tividade
Ġconsequ entemente
Ġconfer e
Ġderru ba
ĠTr Ãªs
Ġdoa dores
Ġtab aco
Ġfarm Ã¡cia
Ġdemoc racia
Ġautoma ticamente
Ġinsul ina
Ġestiv esse
Ġdesemb ar
d indo
f en
z el
Ġs ÃŃmbol
in osa
ei te
ĠM AS
Ġdes cu
ĠF AL
ĠV ida
Ġmen inos
Ġter mina
Ãªn is
Ġmostra ram
Ġocor rendo
Ġbus cas
Ġcomun ismo
EN DO
ian tes
Ġempres Ã¡rio
Ġsab endo
ĠprÃ³p rias
Ġapo iado
Ġplan ta
Ġfinal idade
ĠPo pulaÃ§Ã£o
ĠSil vio
Ġtor cedores
Ġimpe achment
ĠlÃŃ quido
ĠCN H
Ġopera cional
ĠescÃ¢nda lo
Ġrespal do
Ġdign idade
D P
Ġqu iz
ĠP ai
Ġdes ven
ĠD ro
Ġac ad
Ġac esse
Ġres tante
ĠJ ac
Ġreg ulaÃ§Ã£o
Ġpres tado
Ġcria das
Ġr ins
Ġ5 6
Ġsuger indo
Ġsa indo
Ġ8 2
Ġbus cando
Ġempres Ã¡rios
ĠIs to
Ġcapa zes
Ġconside rar
ĠZ el
Ġsof tw
Ġdissem ina
Ġcomercial izaÃ§Ã£o
ĠInter net
Ġperigos a
Ġ37 13
?? ?
Ġvaz io
Ġescon der
ĠAS COM
ĠmÃ³ veis
Ġescri ta
discipl inar
Ġpreval Ãªncia
ĠFrei re
Ġurb anos
Ġgarra fas
ĠincÃªn dio
Ġfan tas
ĠÃ³b vio
Ġquim ioterapia
ĠIgua Ã§u
Ġespiri tual
ĠSÃŃl via
p ac
Ġd entes
Ġp in
Ġp Ã©s
ta mentos
Ġf arÃ¡
il ar
ĠC ro
ĠE L
ĠM eta
ĠM aca
Ġan t
Ġcons iste
Ġti ro
Ġaf ric
Ġesc asse
Ġli gada
Ġun s
ian s
Ġcomple mentar
Ġ13 0
Ġsurg ir
Ġref lex
Ġrevel ar
Ġino va
Ġminu to
Ġcomercial iza
Ġliber ou
Ġinstru mento
ĠeconÃ´m ico
Ġadap taÃ§Ã£o
ĠTi po
Ġindepend entemente
Ġresga te
ĠNi ter
ĠAG ORA
Ġtranstor nos
Ġflagra do
ĠPergun ta
ĠAug usto
ĠConec te
Ġescasse z
: \
B RE
j os
r ico
Ġ !!!
Ġs Ãº
Ġm embro
Ġf eij
ri d
Ġre ag
ĠC L
Ġna ve
ĠR onaldo
Ġas ma
di ologia
Ġdi men
Ġdi vid
Ġent endeu
ed ros
Ġres er
Ġter m
Ġtem Ã¡tica
gen das
Ġpar es
Ġper de
Ġaten tos
Ġpas se
Ġsegu ros
ĠAn dre
Ġ7 6
Ġlo ja
ĠPo vos
Ġdiscu r
ĠMo vimento
Ġsen hora
Ġhab i
Ġpreocupa da
Ġpossibil itar
ĠRu a
ĠOn c
Ġcho que
Ġaudi Ãªncia
Ġverm elha
ĠWill iam
Ġirres trito
âģ£ âģ£
ĠClau dia
ĠAnton io
Ġmadru gada
A o
E F
I B
b f
r ÃŃ
z Ã£o
Ġc aro
Ġde por
ĠA v
Ġg osta
ĠM AR
mento u
ec on
ĠEs p
ĠV ista
ed tica
ĠU ber
ĠW e
ĠPara guai
Ġle u
Ġle genda
Ġmed ir
Ġor ig
ian as
Ġofer tas
Ġali menta
16 5
ĠreforÃ§ am
Ġtrabalha dor
ĠMA C
Ġcuste ar
ĠlanÃ§a da
Ġagu arda
Ġprepara Ã§Ã£o
Ġequ il
Ġambi entais
Ġdaqu ele
Ġmotor ista
ĠCrian Ã§as
Ġescolh ido
Ġdepara mos
Ġcurios idade
ĠTar c
Ġpio rar
fabl icas
edgen as
ĠFarm Ã¡cia
Ġintes tino
Ġabu so
ĠEnferm eiro
ĠAÃ©re a
8 7
P B
a ten
e to
i tiva
m it
v iando
es tra
Ġs el
re fa
ti po
ĠA Ã§Ãµes
un g
Ġl en
Ġte x
Ġal a
Ġdi Ã¡ria
Ġmo ral
Ġpres a
Ġele mento
Ã©d icos
Ġgra u
bil idades
ĠVer m
her me
Ġimpor tado
Ġ8 4
ĠLu iza
ID S
Ġsecre tÃ¡rios
Ġafirma va
Ġ0 800
Ġban ho
Ġquan tas
Ġ200 6
Ġfec hou
Ġhabilita Ã§Ãµes
Ġgu ar
Ġdisponibil iza
Ġdissem inar
Ġrepor tagens
ĠPal m
Ġfecha dos
Ġassina da
Ġexis tiu
Ġmutir Ã£o
Ġbron qui
ket ing
Is so
ĠJab or
Ġsoberan ia
ĠEQU IP
Ġsolida riedade
Ġtoss ir
9 9458
U m
d ista
g ias
Ġ rio
Ġa ti
Ġp H
Ġde missÃ£o
Ġco po
ĠA fe
el l
ul ando
ĠC lu
ĠO U
ĠN AS
Ġdes tino
ter ra
cion e
Ġfal tado
ĠL ac
ĠL este
Ġent es
Ġreal izaram
ĠNo bel
og rÃ¡
Ġcl ube
Ġdesmenti ram
ĠLe an
Ġencon tros
Ġnecess ita
Ġer va
ĠAss essoria
Ġbase adas
ĠDo enÃ§a
Ġproduz idos
Ġextre mo
Ġenferm eiro
Ġdisponibil izar
Ġges tante
ĠMed ida
ĠTO DOS
ĠfÃŃs ico
Ġconsum ido
ĠCal endÃ¡rio
ĠPI X
ĠRib eirÃ£o
ĠMulher es
Ġtorna do
Ġaut ismo
Ġreconh ecer
Ġassum ir
Ġacele ra
Ġcaix Ãµes
Ġenvel hecimento
ĠSupermer cados
a o
g ela
n cias
es ai
qu al
ti mento
ÃŃ g
Ġes per
ĠP ais
âĢ ĭ
ĠO PAS
us se
Ġal mo
Ġac eita
ĠV il
ĠL G
ĠG RAN
Ġmil ion
Ġaten dendo
Ġcor rig
Ġpres id
bi do
ĠCon ferÃªncia
Ġme tros
Ġarti gos
Ġ6 6
Ġpe dem
ĠLe on
Ġinterna dos
Ġvis itou
Ġinstitu to
ĠEle tr
Ġprior idades
Ġdele gado
ĠDia gn
Ġperman ecem
ĠMunic ÃŃpios
Ġdisponibil izado
ĠVi tÃ³ria
ĠTer es
Ġsensa Ã§Ã£o
Ġprinc ÃŃpios
Ġcombust ÃŃveis
Ġrecupera dos
ĠBR ICS
Ġacresc entou
ĠMou rÃ£o
Ġcab elo
Ġceb ola
Ver sÃ£o
B L
c b
s Ã¡vel
Ì ĥ
Ã¡ vamos
ĠA F
ĠA meric
il Ã¢ndia
ĠC ano
ĠM endo
am ina
Ġdes tas
gu inhos
ĠF olha
tra Z
ec k
Ġou vido
om os
ĠT edros
pe rado
ĠL A
ĠL in
est or
Ġinforma tizaÃ§Ã£o
Ġlei tura
Ġ6 3
ĠRe u
Ġcam inha
Ġ8 1
Ġprecis ou
Ġcr is
Ġrecomen dou
hos a
Ġdescobri ram
Ġapresen tando
Ġcres cer
Ġreun ir
ex Ã£o
cop ia
Ġmer cados
Ġcadastra das
Ġadicion ais
Ġchu va
Ġdepara r
Ġmening ite
Ġtransi Ã§Ã£o
ĠAtaca dÃ£o
C ar
D U
D EM
i ria
v est
in Ã¢m
el son
ĠO K
Ġdes e
ĠF orma
Ġj ornais
Ã§a do
Ġinf Ã¢ncia
Ġmen tais
Ġter ras
ce ram
ĠIn vesti
vel as
Ġvi rar
bi u
Ġdesmen tia
aran ja
Ġcam pe
Ġ8 8
Ġrec olhimento
Ġdesenvol vidas
Ġaval iou
Ġoutro ra
Ġev ang
Ġsurg imento
gal o
Ġcadas tros
Ġafe tam
Ġdetermina do
Ġapar Ãªncia
Ġsustenta bilidade
ĠcardÃŃ aco
Ġinaugu raÃ§Ã£o
Ġdesconf ianÃ§a
Ġjud iciais
Ġpermitir Ã¡
Ġvig or
ĠÃŃnd ices
Ġrespei tando
Ġdesconhe cida
ĠFlÃ¡ vio
Ġinovado ras
Ġhos pe
ĠWan derson
Ġilus tra
f in
g amos
h ospital
Ã© cia
al th
on os
ÃŃ fico
Ġin ci
il i
ĠM ede
ĠB oato
Ġal ho
vi as
Ġdi eta
ĠIn teg
ĠDe talhe
ĠhÃ¡ bito
Ġcam is
Ġ8 9
Ġra io
Ġra diaÃ§Ã£o
Ġrecu perar
Ġali Ã¡s
ĠPrim eira
Ġge rais
Ġis en
Ġru rais
Ġtraz endo
Ġevid encia
23 51
Ãį L
Ġlibe rado
ĠPr Ãªmio
ĠCer ca
Ġader iram
Ġembal agem
Ġalterna tiva
ĠDen gue
Ġnaqu ele
Ġcancela mento
Ġdiar reia
Ġcoca ÃŃna
Ġrapa z
ĠTarc ÃŃsio
8 3
L ula
U ma
h u
i des
m inaÃ§Ã£o
Ġde vidamente
ĠA R
ĠS T
ĠS r
Ġh ac
ĠO dontolÃ³g
ent ino
Ġpro fis
tu ba
ĠâĢ ¢
vi duais
ĠT rin
Ġto car
ĠG ente
Ġinter ino
tal ha
Ġver de
Ġregist rar
ĠRe ferÃªncia
Ġinte ra
Ġpromo vido
Ġdistribu indo
Ġescol he
Ġconsul tar
Ġindi gnaÃ§Ã£o
Ġfre te
Ġdefin ido
Ġfuncion Ã¡rio
Ġadolesc ente
Ġdisponibil izadas
ĠIm por
Ġeletr Ã´nicos
Ġbac ter
tel la
ĠCuida dos
Ġdom Ã©s
Ġgl icose
Ġcra var
Ġfabric antes
ĠAca demia
Ġaglome raÃ§Ãµes
Ġcrist Ã£os
tera pe
ĠcancerÃŃgen as
ĠGuil herme
ĠMendo nÃ§a
E RA
b ser
c f
g Ãªn
en so
is sa
Ġco ma
Ġco les
ic la
ti dia
ĠP OL
res se
ĠF i
om Ã£o
Ġen gra
ĠL im
io dicamente
Ġim in
Ġtra fic
Ġpar ou
Ġmo d
no va
Ġmensa is
Ġpres taÃ§Ã£o
ĠDe ficiÃªncia
Ġimpor tados
EN TOS
Ġinic iais
Ġinfec tologista
Ġencontra das
Ġdeix ado
ĠSo mente
Ġapro va
16 7
gan istÃ£o
ĠGu a
Ġoportun o
Ġdestina da
Ġcorre tamente
ĠNO VO
Ġdepen der
ĠSE U
ĠfarmacÃªu ticos
Ġdesen ca
Ġadulte radas
ĠBer n
Ġconden ado
ĠVic ente
Ġdepo imento
ĠGover nador
Ġcomorb idades
ĠAfe ganistÃ£o
ĠLeon ardo
traZ eneca
Ġcoles terol
b d
c entes
j unto
l Ã¢ndia
t witter
x umba
y er
in ou
Ġco bri
Ġo raÃ§Ãµes
te cn
on ha
ĠS IM
Ġcon vi
Ġcon dena
ĠC PI
ĠE ras
ĠM Ã£es
ĠO peraÃ§Ã£o
ĠR NA
ĠT ro
Ġmen ciona
ne as
ten ha
ula dos
Ġtes temun
Ġprecis Ã£o
ĠInstitu cional
Ġinten siva
ĠDu arte
ĠPar is
Ġfacil ita
Ġconsequ Ãªncia
Ġdesconf ianÃ§as
Ġprop Ã³
Ġassal to
ĠelÃ© trica
ĠFaz enda
Ġuniversi tÃ¡rios
Ġpulm Ãµes
ĠChar les
ĠApare cida
cli ques
G ripe
H U
O U
g ma
v Ãªncia
ra qu
or icamente
te us
ĠA bra
ĠS Ã¡bado
Ġin es
ĠP ri
Ġdes fec
im ed
ĠR Ã¡
ĠF igu
ĠF rida
Ġfal has
si vos
con ta
Ġver tical
ĠW eb
Ġpres tes
Ġcu ja
fa do
Ġaponta ram
eral do
Ãºmer o
Ġaler tando
EN D
Ġinfec tar
Ġinfec cios
Ġlu xo
Ġis rael
Ġorgan izada
tin ga
fil a
Ġinten so
Ġatra pal
Ġba te
ĠUTI s
Ġcola boraÃ§Ã£o
Ġseman al
Ġdetec tar
Ġaposenta dos
stru Ã§Ã£o
ĠMon ito
Ġcardiovas cular
Ġcomemo raÃ§Ã£o
tÃ¢ nea
Ġsusten tar
Ġdesn ecess
Ġconqu ista
ĠGRAN DE
! âĢĿ
A r
C G
M ais
s ol
t Ãµes
t Ã¢ncia
in ten
Ġn i
Ġn ec
Ġm ara
re o
Ġco tidia
ma z
Ġt ru
Ġt Ã³p
le os
ĠF I
ĠF in
Ġfal tou
Ġinter se
Ġper deram
Ġar ran
Ġreal izam
Ġver Ã£o
Ġcor rup
Ġ7 7
Ġdiver sidade
Ġdesenvol ve
mar t
cas o
IS TA
Ġprocu ramos
Ġlim ites
Ġprof unda
su da
Ġdecor rentes
fam eros
Ġbon s
Ġinstru Ã§Ãµes
ĠAb aixo
Ġnotic iado
Ġrelev ante
Ġdescri tos
Ġlegis la
Ġhemo filia
Ġtempor Ã¡ria
ĠBene fic
ĠMonte iro
ĠaperfeiÃ§oa mento
ĠCadas tro
c Ã³
n al
Ã£ pi
Ã§ al
ic aram
de pend
an ti
Ġre cado
ol ite
Ã³ rias
ĠM igu
ĠO f
ĠR enda
ter ia
se ja
ran di
Ġex al
Ġpa utas
Ġca xumba
Ġcomp at
bi ologia
Ġcl andes
Ġins criÃ§Ã£o
Ġmul tas
ĠPro tocol
ĠMas suda
Ġinvesti u
ĠLu pa
Ġidenti ficou
Ġcapa cidades
Ġado tado
Ġacompanha dos
ĠK al
Ġcur to
Ġrevel aÃ§Ã£o
Ġlevan tar
Ġeletr Ã´nica
Ġsust entÃ¡vel
ĠÃ¢ n
Ġprepara r
ĠBo ulos
Ġfamos as
Ġhum il
Qu ando
Ġpat ente
Ġpreen cher
Ġbl oco
Ġfale cimento
Ġcompan hia
ĠHam as
ĠFlor ianÃ³polis
Ġingredi entes
ĠUru guai
Ġformul Ã¡rio
ĠReu ters
Ġhac ke
C ER
I TO
f im
z as
Ġc Ã©u
qu ando
Ġf oca
da Ã§Ã£o
ĠS ES
ĠS enhor
Ġcon clus
ul hos
ĠE ra
un do
Ġap el
Ġso zinho
tan eamente
que za
no pes
Ġnas cidos
pres enta
Ġpu Ã©r
Ġr ÃŃg
har ia
Ġtes tar
ĠÃ³ dio
Ġcomun ista
Ġvis ibilidade
Ġapo iando
Ġta ri
li fe
Ġsal Ã¡rios
Ġ0 5
Ġcasa mento
Ġban heiro
rÃ¡ ticas
Ġuni versidade
Ġrepresen tando
Ġestrutura Ã§Ã£o
Ġestran ha
Ġfic t
Ġleg ais
SA PS
Ġdecor rente
ĠlanÃ§ ar
Ġpropor Ã§Ã£o
Ġperson agens
Ġsequ est
Ġemi tido
Ġrea jus
Ġcultura is
ĠaÃ©re as
Ġpers pectiva
Ġevent uais
Di vulgaÃ§Ã£o
Ġcompon ente
Ġlida r
ĠEncon tro
Ġdesloca mento
his hing
Ġeuro pe
ĠMede iros
" .
. ,
? âĢĿ.
E A
S Ã£o
V SA
V SR
o ma
r or
v indo
Ġa ba
en ado
de l
ti la
Ġre estruturaÃ§Ã£o
Ġcon vite
Ġb riga
ĠN elson
Ġdes ejo
Ġ2 000
Ġ1 94
ina gre
Ġpo bres
Ġen d
Ġfal avam
ĠU OL
id er
con tra
Ġar te
Ġpres idÃªncia
Ġne u
ĠCon tin
Ġ7 1
ĠDi ver
tugu esa
Ġro das
Ġdescon for
Ġvia bilizar
ĠPre vidÃªncia
Ġcres ceu
Ġindi viduais
Ġtorn aram
Es ta
Ġsignifica tivo
Ġdestina das
ĠCOM O
Ġcul tural
Com o
Ġencaminha do
Ġintensi ficar
Ġfabrica dos
ĠgenÃ© tico
Ġfi quem
trÃ³ pol
ĠquÃŃm icos
Ġhabil itou
Ġagil idade
ĠSar s
Ġnov idades
ĠWai Ã£pi
ĠBern ardo
8 2
J E
M an
u do
Ġd anÃ§
Ġa zul
ta tus
or nada
Ġco co
Ġv el
ĠA SS
ol her
Ã³ logos
ir us
di to
di omas
vi os
Ġto que
Ġtra duÃ§Ã£o
ĠIn ten
me di
Ġpos so
Ġmor ta
ĠCon itec
US F
Ġti me
ves se
Ġrep u
Ġmar cado
Ġbus camos
ĠAm pl
ur sos
Ġimun izar
Ġven das
Ġta va
ĠCas tro
Ġanti gos
Ġsurg e
ĠCor in
ĠCor ona
Ġofic ina
Ġmonito rados
Ġadul to
ĠRec eb
Ġprov ocar
Ġpron tuÃ¡rio
ĠSal omÃ£o
Ġestabele cidos
Ġsen so
ĠMaria na
ĠAu xÃŃlio
Ġregula menta
Ġfiscal iza
Ġcadastra dos
Ġcoo pera
Ġofere cido
bÃ© ola
Ġadicion al
Ġabando na
Ġacei tar
ĠavanÃ§ ar
ĠEurope ia
ĠNiter Ã³i
E x
s ticos
u ca
z z
Ġd ra
in co
re lo
ma ria
da das
Ġre organ
ĠE NT
so m
ĠN unca
ĠN inguÃ©m
tra ns
ĠT el
pe rada
du aÃ§Ã£o
ĠJ er
Ġinter fer
Ġi diomas
ĠCon ta
ĠCon he
Ġdesmen tindo
Ã´ metros
ĠCh ico
ĠAm igos
Ġnecess itam
Ġven didos
Ġsan gra
Ġid Ãªn
Ġpossu ir
ĠPre vine
Ġterri t
ĠSim p
ĠReg ist
Ġgu arda
EL O
Ġlibe rados
Ġconsum idor
Ġalte rar
ĠTe rapÃªu
Ġimpe de
Ġcoordena da
Con itec
ĠImun izaÃ§Ã£o
Ġcateg orias
Ġdiagnostica do
Ġreno vaÃ§Ã£o
Ġalar de
Ġsobrevi ver
ĠMensa gem
Ġinvas Ã£o
ĠSho w
Ġfeij Ã£o
Ġbronqui olite
a di
b ou
m icina
Ġp Ã¡
Ã§ ul
ÃŃ mp
men tando
Ġre plica
il son
ĠP l
ĠB BC
Ġb ru
Ġpro b
ĠN essa
ĠR amos
ĠF E
ĠT ok
Ġca ma
gun da
tor iedade
Ġpres sion
ĠAl erta
Ġapon te
ĠQu ais
EN A
ĠRes idÃªncia
ID O
Ġta tu
ĠEsta dÃ£o
Ġrepas ses
Ġpl eito
ĠCl aro
th ians
ĠTu berculose
ĠTe ich
Ġdemons trou
Ġju ÃŃ
Ġnegacion ista
Ġluc ro
Ġresid Ãªncias
ĠaÃ©re a
Ġindepend ente
Ġdefen dem
Ġtranqu il
Ġrespec tivamente
Ġambula toriais
Ġsatis fa
Ġinscre ver
Ġpolar izaÃ§Ã£o
Ġpaco te
Ġlad rÃ£o
Ġrum ores
C as
N Ã³s
O NA
S aps
d ulo
h Ãµes
re al
ĠA man
ĠA val
Ġda qui
Ġre ci
ĠO pas
Ġpro ÃŃ
Ġdes ig
ĠD as
ĠR R
di Ã§Ãµes
ĠT U
Ġex i
ĠV ÃŃrus
ĠV AI
Ġpar cial
ĠestÃ¡ gio
pres s
ĠCon c
ĠCon tra
Ġ9 3
Ġpe tista
bo rar
Ġag ro
Ġampl iado
Ġdef ine
Ġautor izou
Ġsex uais
Ġrefer Ãªncias
ĠCor eia
ĠInf o
minist erial
Ġhor m
Ġmer ece
ĠRec ord
Ġdeter minaÃ§Ã£o
Ġtro mb
Ġop Ã§Ãµes
th ur
ĠCON TRA
Ġefe tiva
Ġreligios as
Ġreconhe cida
Ġclim Ã¡tica
Ġmanifes tou
Ġestabel ecer
Ġadquiri dos
Ġope randi
Ġrestri Ã§Ã£o
ĠLabora tÃ³rios
Ġfarm Ã¡cias
Ġmus cular
Ġdeses pero
Ġsurpre end
Ġenfren tando
Ġsens ÃŃveis
Ġintelig ente
ĠCac ho
Ġfalsi fica
ĠdepÃ³ sito
ĠMedica mentos
ĠTrin dade
N AS
f ab
f ique
v Ã¡vel
Ġco z
Ã¡ n
men tÃ¡rio
ĠS nopes
Ġre b
ĠC ER
ĠC Ã³digo
Ġh ansenÃŃase
Ġg osto
ĠM isericÃ³rdia
ĠB e
Ġac ons
ed nico
Ġtra tando
eb ra
ĠEm presa
ĠAs com
Ġgra dual
Ġti rada
Ġacor dos
Ġampl iou
Ġplan tas
Ġge rada
ĠTra tamento
Ġfu i
Ġale a
IN AS
Ġbo tÃ£o
Ġdepu tada
Ġflu xos
ĠPRO TE
ĠGil son
Ġbomb Ã¡stica
Ġadquiri u
Ġpens ando
ĠcontÃŃnu a
Ġoftalm ologia
Ġrefle te
Ġigre jas
Ġproib ida
Ġinver no
Ġviz inhos
Ġembas amento
ormal mente
Ġcigar ro
Ġexibi do
ĠcÃ¡l culo
ĠProfission ais
ĠEdi tal
ĠFrida y
H ospital
R US
c le
ia ne
re i
Ġco mando
ti dÃ£o
ĠC ou
ĠM U
ĠM ad
ĠB eraldo
Ġal tura
Ġen viando
ĠV elho
ĠV Ãį
io terape
Ġinter valo
Ġper dido
tro micina
Ġind enizaÃ§Ã£o
Ã¢n io
Ġti t
Ġman che
Ġfun dos
for m
for mou
ĠRe pas
Ġmar keting
Ġten d
Ġvis itar
Ġhospital izaÃ§Ãµes
ER TA
Ġapro vadas
Ġobje to
Ġobje tos
Ġge ogrÃ¡
Ġ0 6
Ġapare cimento
cos ul
Ġmater nidade
Ġâ ĸ
Ġru bÃ©ola
Ġfac tual
Ġacess ÃŃvel
ĠSer ia
Ġlabora t
Ãģ S
Ãģ RIO
ĠAu tor
ĠUF RJ
Ġpreju dica
Ġmovi mentaÃ§Ã£o
ĠMer cosul
ĠOb ser
ĠMac ei
Ġluc rativos
Ġdestru iÃ§Ã£o
ced or
Ġvas os
Ġgos taria
Ġsofr endo
Ġrestau rante
ARTI LH
Ġlau do
ĠEQUIP AMENTO
ĠContin gÃªncia
E UA
I TE
k o
p ing
s istema
is po
in ter
Ġn ele
re g
ĠB us
Ġser vidores
Ġan tir
ros e
mo to
Ġper nas
tic Ã¡rio
ÃŃs ia
ĠCom e
son s
Ġtrata dos
Ġtrans formaÃ§Ã£o
ÃŃn as
Ġtelef ones
Ġrec he
Ġimun e
Ġviral izaÃ§Ã£o
Ġpl eno
ĠÃģ gua
Ġobri gado
ĠmÃ¡ quina
Ġacompan hando
ĠRE AL
IM ENTO
Ġsuspen deu
ĠcrÃŃ ticos
Ġmic ros
Ġbar reiras
Ġiria m
ĠavanÃ§a do
Ġfran c
Ġpresiden ciais
Ġbra Ã§os
fabl icos
Ġcub anos
Ġlava gem
Ġcobri r
ĠpropÃ³ sito
ĠMigu el
ĠCorin thians
G RA
c en
h i
i vir
u b
v ic
Ġp eito
en tando
Ġs Ã¡
Ġs ÃŃn
Ġo vo
te d
Ġf ib
ĠB ru
ida do
Ġdes fil
ĠR IO
Ġap ela
Ġal emÃ£o
Ġex istia
ve te
ĠL t
ĠJ ar
ĠJ oa
Ġdia bo
Ġpres tados
Ġforma da
com un
br indo
Ġtu ÃŃ
Ġimpor taÃ§Ã£o
Ġrec eitas
Ġrec icla
Ġenvol ver
15 0
ĠCa tÃ³lica
ĠRo b
Ġpare cidos
Ġpare cem
Ġbal elas
ĠIN CA
Ġata ca
IN H
Ġpl aca
ĠPar tido
Ġdepen d
Ġfru ta
ĠCr Ã´nicas
ĠEstratÃ©g icas
Ġrepe tir
ĠMor eira
ĠfÃ© rias
Ġembal agens
ĠBon ner
Ġexcel Ãªncia
ĠMUNICI PIO
ĠSex ualmente
ĠCano as
Ġmod us
ĠEras mo
A IS
B B
M e
T S
U NA
c ria
p ica
r y
s ur
ta va
Ġm ente
Ġf rota
Ġcom itiva
Ġre dob
il ton
ĠN OR
ita da
Ġal u
Ġex pressÃ£o
Ġac ho
Ã§a da
ĠG RA
Ġcas ca
ĠH C
Ġmu Ã§ul
Ġpres tam
Ġcons tantes
Ġespecial izadas
olog istas
Ġche ia
Ġapresenta rem
Ġsab or
Ġindica da
Ġdifer enÃ§as
Ġfinal mente
Ġconsi der
Ġet nias
ĠfÃ¡ rma
ĠVi eira
Ġabsur das
Ġprome tem
ĠGO VER
Ġreconhe cido
ĠPS OL
Ġconsci Ãªncia
PR ES
Ġameric ana
Ġdestru ir
Ġassum iu
Ġexerc ÃŃcios
Ġchoc ola
ĠEPI s
Ġquil om
Ġelabora do
Ġina dequ
Ġirregular idades
Ġmecan ismos
ĠAdo lesc
ĠHepati tes
Ġenfatiz ou
Ġsegre do
Ġquestiona mentos
Ġabaca xi
bser h
A ids
B AS
Ġp hishing
Ġc estas
Ġde dos
Ġde li
Ġs essÃ£o
ci es
Ġpro xim
us tÃ£o
am es
Ġte la
Ġou viu
vi e
Ġan ex
ran a
ĠT ri
ĠI SS
ver so
Ġent rando
ed cios
ga re
Ġpos tou
fa tero
Ã¡s coa
Ġtrans m
ÃŃl ios
Ġrela tÃ³rios
ing as
EN TA
Ġten sÃ£o
ĠMar i
Ġvis tos
Ġdesenvol vidos
Ġro dando
Ġsal va
Ġ14 0
ĠEx ecutivo
ĠCam ilo
Ġol hada
ĠMen tal
CO VID
ine te
Ġassocia das
Ġsignifica tiva
ĠBo ticÃ¡rio
Ġtran sa
ril ha
Ġhuman as
Ġartic ula
Ġneg Ã³cio
Ġinstru mentos
ban k
Ġdescri ta
Ġfran go
ĠTal vez
Al Ã©m
Ġconfl itos
Ġexces sivo
Ġbilion Ã¡rio
ĠIncorpo raÃ§Ã£o
trÃ³pol es
M B
V AS
b oa
d ice
j ornal
k in
k ol
o b
Ġd inÃ¢m
in Ã¡ria
do filia
ma l
Ġv inagre
il Ã£o
Ġh on
Ġg r
ĠM Ã©dio
ĠM ello
ĠB olÃŃ
tu be
ĠR ita
Ġex terna
Ġat enta
ĠEs plan
ĠL on
ĠL ou
pan te
Ġma g
za p
Ġsus ce
ĠMar inha
Ġlu to
Ġsol o
Ġprev ine
Ġatual izada
fe go
Ġtecn olÃ³gicas
Ġcole gas
Ġlev aram
Ġrefer entes
Ġinten sidade
ĠSal a
Ġafe tar
Ġsanit Ã¡rio
ĠTe rapia
Ġcomb inaÃ§Ã£o
Ġpermi tido
edn icas
Ġbenefic iados
Ġmicro cefalia
Ġsexual mente
Ġreligios a
ĠPr Ã³
Ġporta dores
Ġencaminha dos
Ġexecu tivo
Ġentra rem
ĠCrist iano
Ġpio ra
Ġadvo gado
Ġproib ir
Ġcontrola da
ĠFab io
Ġespir rar
ĠEletr Ã´nico
ĠTeres ina
Ġdesenca de
fila xia
ĠpuÃ©r peras
8 9
P OS
R ES
f aÃ§Ã£o
i oca
n sito
y n
ta que
do ce
an i
ĠA cor
ri tal
Ġes go
Ġes co
Ġin tra
Ġt Ã©r
un e
Ġna Ã§Ã£o
im pÃŃ
Ġal eitamento
âĢĿ ),
ran da
ran ga
Ġex per
Ġto mo
Ġto na
Ġfal ha
ĠV I
ĠH on
Ġentre tanto
fic e
est Ãµes
av al
Ġconta va
Ġon das
Ġti rou
Ġob viamente
Ġaf ora
uma tologia
Ġverdade iras
Ġinte ira
Ġsus ci
Ġer rados
Ġpreven tiva
tt p
Ġenvol veu
Ġdesenvol vendo
Ġdistribu ir
Ġgan ham
Ġdisse ram
Ġrecomenda das
ĠAr thur
Ġelei tor
Ġgri pal
ĠDo is
Ġdeclara do
Ġhor mon
IL ITA
Ġz um
ĠVac inas
Ġfis ioterape
ĠmÃ¡ xima
tiz ar
Ġri b
Ġlibe ra
ĠNas cimento
Ġcos tas
ĠFl uminense
Ġmant endo
Ġaut ent
Ġpresen ciais
fan ica
ĠSol im
Ġqualifica da
Ġesqu emas
Ġhem orr
ĠInfec Ã§Ãµes
ĠTele gram
ĠPos t
ĠMulti disciplinares
ĠIsa bel
ĠJud iciÃ¡rio
Ġhabi tual
ĠLt da
C h
c ais
f ria
f our
g rande
h el
m ino
p iloto
u el
z il
Ġ ;
Ġco gni
Ġes ter
ĠS BT
ĠP Ã¡scoa
Ãº ria
Ġpro life
ĠD IA
oc aba
Ġac a
ed nica
ed lias
). \
Ġi deias
ĠAl ta
Ġvi as
Ġr ino
Ġins pe
Ġti ra
Ġman dar
Ġcrian do
Ġmostra va
Ġcha mando
TI E
TI NA
mar ca
Ġsecre to
Ġ19 90
Ġ12 5
Ġcomple menta
Ġconhe cimentos
ĠEsta t
Ġsuper vis
Ġjun tamente
Ġconstru ÃŃda
Ġsof rem
Ġrevel am
Ġmeta bol
ĠMunic ÃŃpio
Ġagra vos
Ġsust ente
Ġclassi ficou
Ġfede ra
Ġregula mentaÃ§Ã£o
Ãĵ S
Ġmac acos
Ġobriga tÃ³ria
ĠOb viamente
ĠalcanÃ§ ando
Ġrestri Ã§Ãµes
Ġson ho
Ġcong Ãªn
ĠodontolÃ³g icos
Ġcontin gÃªncia
Ġinventa da
ĠfilantrÃ³p icos
Ġnervos o
Ġbrit Ã¢nico
ĠSAN TA
Ġimig rantes
Ġbril h
ĠinÃ©di ta
usse ff
Ġdesfec ho
ĠproÃŃ be
ĠISS O
ĠEsplan ada
? âĢĿ
P re
c y
e v
Ġc ores
ar re
ĠP AR
Ã³ is
Ã³ fil
ĠM Ãī
Ġb e
res p
ĠO bama
ĠD EN
Ġap ag
Ġser ingas
ĠI ST
Ġent enda
ed fica
ĠJ ean
tiv aÃ§Ã£o
Ġconta gios
ni or
Ġ9 1
cn ica
Ġnes tes
Ġsub s
Ġdistribu ÃŃda
ĠSecre tÃ¡rios
mis sos
Ġpol u
Ġbas ti
AN D
Ġ200 8
Ġet Ã¡rias
ĠsÃ© ria
DA DE
Ġsele cionar
ĠNO VA
Ġnega tivos
Ġcrim inosa
tiz antes
Ġesp ÃŃ
Ġsolicita Ã§Ãµes
Ġprepara dos
Ġps ico
Ġrepro duÃ§Ã£o
Ġadquiri r
Ġaumen tam
ĠAli mentar
Ġapr end
Ġcob ranÃ§a
Ġabsol uta
ĠSor ocaba
ĠRela Ã§Ãµes
Ġnaqu ela
Ġcompon entes
ĠSO BRE
ĠProdu tos
zi tromicina
ĠPES SO
ĠAdria no
Ġcris es
ĠSimp sons
Ġprob abilidade
E MSI
P OL
b rio
c Ãº
f ra
i vos
p am
t inha
¶ ï¸ı
Ġde lica
Ġco zinha
Ġcom entou
Ġin im
Ġin corre
ĠP ecu
Ġse questra
ĠM in
ĠM Ã¡scara
ist Ãªncias
ĠN E
ĠN ÃŃsia
Ġte cido
Ġdes pes
ĠD ino
ĠR ei
le isi
Ġso ja
Ġfal Ãªncia
ĠL EI
ĠJ e
est indo
Ġcor rentes
Ġpres criÃ§Ã£o
Ġdis cre
Ġho tel
Ġind icou
Ġpes co
ĠVer de
ĠCh ikungunya
Ġav isar
Ġexpl ora
Ġ8 7
Ã´n imo
Ġchama m
ID ENTE
Ġpon tu
Ġinicia do
EM A
Ġinten Ã§Ãµes
ĠGu edes
Ġcoloc am
Ġcur va
Ġproduz idas
Ġentrevista dos
Ġgu ia
Ġmora dor
Ġaprov eita
ĠCON F
Ġbi valente
Ġimag ina
Ġmicro ondas
donto logia
Ġhuman izado
Ġpossibil itando
ĠcÃ¡ ps
ĠOn de
Ġenven ena
Ġevent ualmente
Ġcontin ente
Ġginec ologia
Ġenten dimento
Ġenfren tam
ĠVan essa
ĠPC C
Ġmultiprofission al
Minist Ã©rio
ÃĤ N
Ġâĸ ¶ï¸ı
Ġsusce t
M T
c emos
s im
Ì §
en tam
ma gens
Ġre j
Ãº dio
ei Ã§Ãµes
ol i
Ġte les
Ġte cidos
Ġdes resp
ĠD ec
ĠT Ã¢mara
Ġex Ã©rcito
Ġest re
Ġat ro
Ġca tÃ³
io vÃŃrus
Ġmen stru
ĠJ O
Ġpar Ã¢
Ġmor rem
ĠAl ice
bi olÃ³gicos
Ġele tro
tado ras
Ġpe dofilia
Ġir ri
Ġaju dou
Ġprocu re
Ġquer endo
ĠInd ustrial
ĠCor r
Ġidos as
Ġvar iantes
Ġpal est
Ġindi re
Ġmarca da
Ġepidem iol
ĠRE G
Ġafe tados
68 21
Ġregular mente
ĠFal amos
Ġcompre en
Ġgela da
Ġdefini tiva
mag lutida
Ġmecan ismo
Ġensa ios
Ġgovern anÃ§a
Ġhack ers
ĠLG BT
Ġisen Ã§Ã£o
ĠMacei Ã³
ĠBolÃŃ via
ĠSolim Ãµes
c ra
c un
f d
t z
qu el
Ġf icando
ĠC lin
Ġh anta
ĠM Ã¡r
ĠF iz
Ġal em
ĠT R
ĠI dos
ĠI vermectina
Ġest resse
Ġat in
ĠL ar
ĠG leisi
Ġpre mis
pl icaÃ§Ã£o
Ġpos tura
Ġar ris
Ġcontra cep
ĠAl emÃ£o
Ġau tÃ³
Ġele vado
ĠPa rece
Ġle tal
Ġle vada
it Ã¡rio
Ġ9 00
pes o
Ġrela ta
Ġcita ndo
dia is
Ġsin tÃ©
Ġatual izado
Ġatual izaÃ§Ãµes
Ġespal ham
and ra
Ġprocu rando
ĠCam ila
25 0
Ġvar iar
ĠDu bai
ĠSim one
ĠsÃ© culo
ĠPar que
Ġating ido
Ġsele tivo
Ġestran g
icl ÃŃn
ĠCN P
ĠPan demia
Ġfamos a
Ġvaz ios
Ġassin tom
Ġterr eno
ĠAli mentaÃ§Ã£o
Ġopin iÃµes
Ġcertifica dos
Ġenven enamento
Ġdita dura
Ġgaro ta
Ġconfl ito
ĠTur quia
ĠEpidemiolÃ³g ico
Ġexce Ã§Ã£o
Ġantibi Ã³ticos
Ġsubsi diar
ĠOf talm
4 11
M EC
P P
b em
p in
r icas
ra riamente
Ġf olha
an et
ti que
Ġda va
Ġes ca
ĠS oc
Ġcon tidas
ol ar
Ġl embre
ĠO z
am b
oc os
oa x
ĠI mag
Ġfal tam
Ġfal aram
ĠL Ãº
Ġres tr
Ġpre domin
ĠJ ose
Ġtra tou
Ġi remos
Ġau tores
Ġgra da
tÃ© is
Ġins pi
inal do
Ġcer tamente
ĠLe andro
Ġdesta cam
Ġ8 6
tr icas
Ġencontra m
Ġaconte cem
Ġcompro missos
ĠDes cobri
Ġenvol vidas
par ou
ĠRo do
Ġfalta ram
Ġcaus aram
Ġpare cia
Ġprior izaÃ§Ã£o
Ġespe rando
Ġconstru ÃŃdo
vil le
ĠX X
Ġacusa do
nas cido
Ġrou pa
Ġrou bados
Ġinsu ficiÃªncia
ĠAmaz on
Ġtro car
Ġlevan tou
Ġsen sibilidade
ĠbÃ¡s icos
Ġps icossocial
ĠepidemiolÃ³g icos
Ġagenda mento
Ġcadastra mento
In ca
Ġhigi enizaÃ§Ã£o
Ġpossibil idades
Ġvolun tÃ¡ria
Ġclara s
ĠGol d
Ġsorte io
Ġaprovei tar
Ġverm elho
ĠSab e
Ġvincul ados
ĠBal eia
Ġsac ri
Ġdipl oma
Ġeng ana
Ġcolabora dores
Ġrefrige rantes
ĠdÃŃ vidas
Conas ems
Ġproprie dades
ĠVira is
Ġcrit Ã©rio
Ġisol ado
Ãºm ulo
ĠFO I
aten dimento
ĠInteg ral
ĠOdontolÃ³g icas
Ġbasti dores
a pesar
f t
o peraÃ§Ã£o
Ġ &
es as
Ġp onte
en ce
Ġde ep
Ġs enh
Ġm ach
Ã§ ando
Ġqu is
de i
ma dos
ro logia
ĠA ven
Ġes pon
Ġt rem
ica mp
Ġse ca
un iÃ£o
Ġl is
Ġpro vimento
Ġte to
ĠD ecre
vi er
la terra
cion istas
Ġca deira
ĠL en
Ġter re
ce tam
Ġinforma do
ĠSe ja
Ġele tivas
Ġcl on
ĠPa ul
Ġma tando
Ġr endeu
Ġprodu tiva
enti mento
Ġsa z
Ġpassa va
Ġli ga
pre go
za mento
Ġvol tando
Ġra iva
Ġcompro va
ĠMa teus
Ġcompartilha rem
ios a
Ġresul tar
Ġsan Ã§Ãµes
Ġro bus
ĠRo usseff
Ġfez es
Ġcorpo ral
Ġ200 3
Ġtraz em
Ġadul ta
Ġz e
Ġreti rados
tis e
ĠfÃŃs icos
AB ILITA
Ġsen si
icl istas
Ġdepen dÃªncia
Ġil um
ĠComp le
Ġsequ Ãªncia
Ġhaver ia
Ġpen al
Ġdomic iliares
Ġaber tos
lau coma
Ġinva dir
Ġcomunit Ã¡rios
Ġurb ana
ĠSch w
Ġcardi ologia
Ġsimul taneamente
Ġabsolu tamente
Ġbel eza
Ġdiscur sos
tecn ologia
ĠProtocol o
Ġexper tise
C IS
P RO
V ocÃª
b onato
c ante
e ar
p ela
es tiv
qu inho
Ã© ss
al Ã©m
ÃŃ v
Ġse maglutida
ĠB ento
Ġb Ãª
ĠD ona
ec emos
Ġex ag
ĠG L
Ġesta bilidade
Ġpre feitos
ĠIn depend
me ra
Ġinforma ndo
ja da
Ã³s tico
ĠCon tinu
Ġab us
Ġch eca
Ġ9 6
Ġaler tado
Ġsim p
Ġag ulha
Ġrec olh
Ġgaran tido
Ġprote ÃŃnas
Ġtempo rariamente
ĠRes pon
Ġpreven tivas
Ġgan hando
Ġgratu itos
Ġ13 6
ĠUn icamp
IN HA
Ġreti radas
Ġgrav ÃŃssimos
ĠPesso al
Ġpopular mente
Ġencaminha mento
Ġfabrica do
ĠepisÃ³ dios
Ġcho rando
ĠNu bank
Ġconcre tas
Ġform ulaÃ§Ã£o
Ġdom ÃŃnio
Ġapr ender
Ġescu ta
Ġabaste cer
ĠFA Z
Ġhemo di
Ġassass ina
Ġbra Ã§o
ĠCOMP ARTILH
Ġirm Ã£os
ap enas
Ġocorr Ãªncias
ĠPromo Ã§Ã£o
ĠCarre four
ĠGon Ã§al
ĠPalm eiras
impÃŃ adas
i di
m or
p ic
r ter
Ġs tatus
is tiu
Ġcom issÃ£o
Ġu se
Ġes cor
Ġl endo
ĠO este
ĠN U
Ġex ten
ed icina
Ġmen cionado
Ġper cor
no tÃŃcia
20 22
Ġcria m
Ġam iga
ĠPa quistÃ£o
Ġma gn
Ġr Ã³
be ra
Ã´ metro
cre mento
ora ma
Ġsa ÃŃram
ĠUni vers
Ġexpl icando
Ġchama mento
Ġcompro vem
Ġprecis aria
ĠDire trizes
Ġcin ema
ĠJo e
Ġintegra das
Ġing res
pol as
tox ica
pou che
Ġmist Ã©rio
aria mente
Ġbanc Ã¡rias
Ġcontar Ã¡
Ġvolun t
ĠSegu ro
Ġqueima duras
ĠHel eno
Ġmilagros a
Ġconspira tÃ³rias
ĠðŁ ĳ
ĠTor res
Ġdesab aste
ĠprejuÃŃ zo
Ġpudes se
ĠVig itel
ĠMonito ramento
cÃº rio
D T
N DES
R ec
s icas
v Ã£o
Ġ ran
Ġ idades
ta forma
Ġm ito
ma res
Ġv inha
ĠS te
ĠS UL
ci el
Ġh ttp
ĠB ez
le c
ac e
Ġan estes
ĠT om
ĠI vete
ĠL ag
ĠG re
Ġmen cion
Ġinter ro
ito ral
Ġi dio
ĠÃ¡ r
Ġob st
Ġtrans formou
Ġ9 92
ĠAn ti
Ġregist ram
Ġinterna das
ĠLu c
ĠLu is
ĠFa to
ĠK laus
val e
val do
Ġban ana
Ã©s ia
ĠIN FOR
Ġespec ulaÃ§Ãµes
bar do
ĠHo ff
ende ram
Ġemo Ã§Ã£o
ĠVi va
Ġavalia das
ĠMe ga
Ġnu tri
Ġfer idas
Ġinterpre taÃ§Ãµes
Ġofere cida
ĠGab bardo
Ġope rado
tom ia
Ġorto pedia
EPI s
Ġprocessa mento
Ġalterna tivas
ĠBran ca
ĠindivÃŃdu o
ĠTrabalha dor
Ġpsi quia
Ġprep arando
Ġexplos Ã£o
ĠDem oc
Ġrelemb rar
ĠSara h
Ġpica da
Ġcotidia no
Ġexi gem
ĠConc eiÃ§Ã£o
Ġrib eir
3 587
I BGE
M a
Ġc enas
is tir
is sÃµes
Ġf ix
Ã© lica
ĠS tar
ĠS AB
Ġcon ferÃªncia
ĠC EN
un s
Ġh idra
ĠB anc
ĠD al
ĠD Ã³ria
Ġsu ficientes
se x
ĠV EN
ĠG ri
cul ado
Ġpar Ã¡
Ġinter di
Ġper dÃ£o
Ġmun diais
ĠAs traZeneca
Ġcu jo
be v
Ġforma do
Ġprodu tores
Ġfun Ã§Ãµes
ip se
Ġpassa gens
ĠPro va
201 4
ĠAm bev
ĠEdu ca
Ġis ca
Ġpal estra
Ġfuncion ando
ĠsÃ© rias
Ġesclare cimento
ĠRec o
Ġnega tiva
UL O
Ġlibe rar
Ġbac t
Ġquais quer
ĠAd han
Ġconclu ir
Ġgolp ista
cent ral
Ã¢m bio
Ġconduz ido
ĠCR M
Ġadvo gados
Ġtranstor no
Ġgigantes co
Ġenx er
Ġbenefici Ã¡rios
Ġvenezuel anos
Ġultras son
Ġdescul pas
ĠIng laterra
Ġpad ron
Ġhema tologia
Ġsoftw are
ĠMaca pÃ¡
ĠtuÃŃ te
cetam ol
B ER
H o
l or
Ġa z
Ġa que
Ġp ec
Ġde vas
Ġde bater
Ġe tanol
da e
Ã© ns
men das
ĠP ris
Ġno Ã§Ã£o
Ã³ tica
ĠB ispo
Ġb ro
Ġpro fe
iz amos
Ġdes can
Ġap tas
ĠF ica
ĠV A
ĠL E
tam bÃ©m
ĠJ Ã´
ĠU r
Ġpar tida
ca tu
Ġaten deu
Ġcontra ir
og os
Ã¢n gela
Ġmed ula
ing os
Ġrep ara
Ġci ber
fe ra
Ġrecomen dando
Ġinicia da
16 0
ĠIN F
ĠGu an
ĠUn imed
col h
Ġdefin idos
ĠReg ina
ĠCl Ã¡u
Ġgu er
ĠBar re
Ġcaminh Ã£o
Ġrecebi dos
Ġmulti dÃ£o
Ġremo tas
Ġsuple mento
fec Ã§Ã£o
ĠmÃ³ vel
Ġbran ca
Ġargu mento
Ġinfer ior
Ġconvida dos
Ġjapon Ãªs
Ġdestin ou
Ġinfunda da
ĠFra zÃ£o
ĠTrabalha dores
Ġindis crim
Ġpobre za
Ġpreconc eito
Ġalmo Ã§o
Ġimin ente
ĠInfo Gripe
ĠAdhan om
3 24
U ni
b la
f onte
g ol
h Ã¡
i Ãº
k u
n icos
r indo
u ci
Ġc un
in tes
ĠA U
ĠP RA
ĠP AS
ci ent
sa dos
Ġl aranja
Ġdes pro
Ġsu m
Ġex posi
Ġdi Ã¡rias
ĠEs tes
Ġca ia
Ġca deiras
Ġres fria
qui vo
Ġinforma da
ten imento
Ġaten dido
Ġmor tas
Ġconf ir
Ġcu ras
Ġme tropolita
fa to
Ġcar tilha
Ġind en
Ġind icando
Ġdu pla
Ã¡s ticas
ciona mento
Ġsim pa
Ġestu pro
Ġencontra ram
Ġcol una
Ġvo os
Ġvalor izaÃ§Ã£o
Ġvia bil
ĠCas s
Ġsusp ensa
Ġhou vesse
Ġcen Ã¡rios
Ġhor Ã¡rios
bol as
Ġbrin que
fal timos
Ġobser vado
ĠOl impÃŃadas
Ġengan osa
Ġoriginal mente
Ġsho ws
Ġremo Ã§Ã£o
Ġneg ras
Ġencer ramento
ĠClÃŃn ico
ĠHe alth
Ġbaix ar
zhei m
Ġespeci fic
ĠHar zheim
ĠDom ingo
ĠJul iana
Ġvalida Ã§Ã£o
ĠMou ra
ĠCac au
Ġadmi tiu
Ġprevia mente
ĠMelh oria
Ġmorce gos
Ġinteress ante
ĠsÃŃmbol o
Ġdesven dar
ĠRegist ro
ĠAval iaÃ§Ã£o
S VSA
U PA
i ri
n idades
o grafias
t istas
x icos
x ias
Ġ ÃŃ
Ġde b
in t
Ġf uman
Ã© ria
on el
ĠA no
ĠS pike
il y
ĠP inheiro
Ġno tar
ci pe
ol la
un es
Ġh el
ĠB OM
Ġl ab
ĠN Ãºmero
Ġdes ej
ĠD ei
ĠD IS
ĠR isco
oc on
ĠF on
Ġal ÃŃ
ina mento
Ġdi ga
Ġen do
ver sa
Ġto me
Ġca rece
ed quido
ĠG aran
ĠH av
Ġvac a
est ores
til aÃ§Ã£o
no vo
Ġsug estÃµes
Ġmed iante
Ġpe tiÃ§Ã£o
inh al
ĠSan galo
ĠcomeÃ§ ando
ĠMar ina
Ġsecre t
Ġdesco ber
and ida
Ġinclu ÃŃdos
Ġdetal hada
Ġru mo
ĠPre cisamos
Ġenfer maria
Ġcontribu iÃ§Ã£o
ĠGe orge
fal timo
Ġsust entem
Ġprepara do
Ġeleito rais
Ġpriorit Ã¡rio
Ġexa to
Ġpreocupa do
Ġcapaci tar
Ġpopular idade
ĠImun iza
Ġameric anos
Ġcriminos o
Ġconscienti zar
Ġequivoca das
Ġinger ir
Ġsofre ram
ĠincÃªn dios
Ġobs tÃ©
ĠUrg Ãªncia
ĠPatr ÃŃcia
Ġcora gem
Ġpriva cidade
ĠOftalm ologia
B E
d istas
p Ã©
t her
y ou
Ġe vite
qu inas
to l
to log
Ġf ris
Ġf irme
Ġv Ã´m
Ġdo ados
ĠS G
ĠS ele
Ġem p
el tam
ĠC Ã©s
Ãª a
ĠB lu
ac u
ĠF erra
Ġac arre
Ġfa tal
Ġfal ei
ĠV is
ĠV AL
Ġcomp rados
Ġper das
Ġi do
Ġcor tar
Ġne gra
ba da
Ġam polas
Ġforma r
Ġ9 4
Ġpan o
Ġsim ular
Ġra ro
ĠMar cel
Ġsab Ã£o
Ġci vis
clu indo
Ġsol ar
Ġpri vil
Ġaju de
Ġinstitu tos
ĠK it
ĠSu Ã©cia
tion al
16 6
ĠJo in
Ãºn el
Ġ17 0
ĠZ ona
ĠPer u
ĠGu ara
Ġquali ficado
Ġacredi to
Ġpossa mos
ĠGe ografia
cem ia
Ġpron ta
Ġcrim inal
Ġmist er
Ġpossibil ita
ĠOb je
Ġhum ilha
Ġconsolida Ã§Ã£o
ĠEd son
Ġinstal ar
ĠMi randa
ĠMag al
Ġcompet Ãªncia
ĠFede raÃ§Ã£o
Ġpersonal idades
Ġdecid ir
Ġimpro vÃ¡vel
Ġcomprim idos
Ġvel Ã³rio
Ġtromb ose
Ġproxim idade
ĠCorr Ãªa
M u
b ela
c eiro
e SF
p ando
u e
Ġp iada
Ġc Ã£es
Ġm g
re tro
Ġf lex
Ġcon curso
ĠC DC
ĠÃ© tica
Ġg aÃº
sa Ãºde
rio tas
Ġex posta
Ġentre tenimento
ĠIn don
Ġmo tos
Ġi men
ĠÃ¡ guas
Ã©d ico
Ġman dado
RA R
Ġcausa dor
Ġche gue
ĠQu ei
Ġdist Ãºr
oca dos
Ġinvesti dos
Ġimun izadas
ĠAss is
ĠCar teira
Ãĩ AS
pro v
Ġbom bar
ĠCor po
Ġdisponibil izou
su mos
ĠAtual izaÃ§Ã£o
Ġdiretor ia
Ġobser va
Ġder rota
ĠOl ÃŃmp
Ġproibi dos
Ġregula dora
ric s
Ġabsur dos
ocal ipse
Ġnar raÃ§Ã£o
Ġapar entemente
Ġles Ã£o
Ġadulte rada
Ġrelev antes
Ġaumen tado
Ġafas tamento
ĠTr Ã¢nsito
Ġdefen dendo
Ġfuma Ã§a
Ġcompre ender
Ġtum or
ĠTar de
ĠbiolÃ³g ica
ĠEr no
Ġparla mentar
Ġsena dores
Ġqueb rar
Ġdepo imentos
eau tica
dom inal
ĠPetro bras
Ġsoc orro
Ġorden s
ĠVasconcel los
Ġpreserva tivos
Ġdesconfor to
Man guinhos
ĠBez erra
eltam ivir
3 20
C or
D onald
P MAQ
R io
k s
Ã£ e
in Ã¡rios
on to
ĠA com
Ġt ril
Ġcon dicion
Ġan dando
Ġex postos
Ġpa p
Ġinf orme
ros a
Ġsobre peso
Ġver gonha
Ġass inar
cl er
Ġgra vadas
Ġma pe
Ġr icos
Ġequi valente
cis mo
ĠRe uniÃ£o
Ġaler tam
Ġchama dos
Ã¡g ico
Ġve ter
Ġven dida
Ġir respon
27 5
par to
ĠEx teriores
Ġmal ig
if ar
if ique
Ġfica do
Ġfac e
Ġmonito ra
ĠSim pl
Ġpossi velmente
Ġama z
Ġadequ ados
ĠÃģ rea
fal tima
Ġclassi ficado
Ġavalia dos
Ġefe tu
Ġonc olÃ³gicos
Ġdetermina da
Ġmac onha
ĠSA O
ĠcardÃŃ acos
Ġconstante mente
Ġsoma m
ĠquÃŃm ica
ĠodontolÃ³g ico
Ġimuno de
Ġfale cido
ĠCoor dena
Ġagres sÃ£o
Ġpun iÃ§Ã£o
ĠMUNIC Ãį
Ġabran ge
Ġanalis ou
Ġdedica do
Ġinduz ir
Ġital iano
Ġmultiprofission ais
ðŁĩ ·
ĠvÃ¡l ida
side rando
Ġminim izar
Ġnam ora
A u
G estor
I X
S aÃºde
b ul
c res
f unda
p esso
t ente
Ġm ioc
Ġco to
ic Ã³p
ma la
Ġf ing
Ġf estas
on g
so cor
ed fico
ĠG LO
Ġres piraÃ§Ã£o
Ġsobre car
Ġcomp Ãµem
ĠH emo
po x
ĠestÃ¡ dio
Ġreal idades
ĠNa qu
Ġpres cri
Ġvi eram
ÃŃl ula
ĠRe valida
bro u
Ġimpor tadas
Ġav isa
Ġdesta cando
Ġ8 3
Ġmedica Ã§Ãµes
ĠMas sa
ĠAm or
ĠHospital ares
Ġnecess ariamente
Ġcuida dores
Ġpromo vida
ĠMa y
var d
li gencia
Ġsecre ta
Ġdivul gando
Ġindica dos
Ġcomple mentares
Ġfac a
Ġcura das
tros pectiva
Ãģ VEL
ĠsÃ© rios
Ġaux il
Ġaparece ram
ĠCal das
Ġfacil idade
Ġprome tendo
RI OS
Ġenvi e
Ġsubstitu ir
Ġforn ec
Ġcomprome te
Ġinv estindo
trÃ³ i
Ġvincul ada
ĠaÃ©re o
Ġjusti ficar
Ġorto grafia
Ġterror ista
ĠQU EM
ĠjurÃŃ dica
Ġdobro u
Ġdemi tido
Ġdesas tre
ĠCOR ONA
ĠEstabele cimentos
Ġcomprov ante
Ġreab er
mit h
ÃįL IA
cÃ³ pio
ĠFE DE
Ġquilom bolas
ĠDecre to
ĠCass iano
M o
P h
a dor
u so
§ ðŁĩ·
Ã Ķ
Ġa zitromicina
Ġp Ã³
Ġe h
Ġn Ã¡
ĠA plica
ĠS UA
Ġin unda
ĠP DF
ĠP ELO
em ia
ĠM Ã´nica
ĠB O
oc ado
ĠF an
Ġan uais
Ġca re
Ġres ili
Ġcomp rando
Ġper mane
Ġ3 40
ne um
Ġver mes
ten a
um ÃŃnio
Ġpres ta
Ġapon tamos
Ġcar gos
Ġdu rar
Ġab dominal
Ã´ nios
Ġli dos
ĠQu an
Ãªm icos
Ġpoder es
Ġinvesti gado
Ġinvesti gados
icar bonato
ĠRes posta
li dos
ĠFa tos
Ġorgan ismos
Ġ13 2
Ġreceber em
ĠPo dem
Ġexplica do
Ġfu turas
Ġatra so
Ġsig ilo
Ġbol so
ĠX u
IO NAL
Ġliv ros
Ġbo ico
Ġprecoce mente
Ġexclusi vos
Ġcomplex os
ĠCol e
Ġocorrer Ã¡
ĠIta Ãº
ĠCA PS
Ġbolsonar ista
ĠPron tuÃ¡rio
tÃŃ fice
Ġtransfer ido
Ġlar vas
ĠSab emos
Ġparalis aÃ§Ã£o
Ġinfunda das
Ġimpression ante
Ġconser v
Ġgene ticamente
ĠAqu ino
Ġlas tro
ĠRou anet
Ġpreench imento
Ġincons istÃªncias
Ġadian ta
Ġalarman te
ĠPla taforma
Ġnoti ficou
Ġemocion ante
ĠPai va
Ġconclus Ãµes
Ġpremis sa
Ġespecific idades
ĠJoin ville
4 50
G R
a z
b aÃ§Ã£o
l d
Ġa fer
re bro
Ġco ag
to p
Ġv inda
men tam
ĠP ou
Ġno tas
ci oc
ĠC ola
ĠC FM
Ãº pula
ĠE LE
Ġpara m
Ã³ tico
Ġg laucoma
ĠM C
sa m
ĠO bri
di ga
Ġan est
Ġex posto
pe rando
Ã§a dos
Ġat ores
ĠEs col
Ġinter esses
Ġ3 50
Ġver ba
Ġaten dida
Ġconf ira
Ġcar b
ĠEn sino
Ġti ve
Ġman ual
Ġmed ic
ÃŃn cipe
ĠPro gramas
Ġli ve
Ġofer tado
Ġfil mes
Ġpromo veu
Ġafirma ram
ĠCar diologia
Ġado tou
Ġmon tante
ĠCa xias
Ġprocu rem
af inal
ĠCas as
Ġpou ca
pu ra
Ġcur ta
Ġquali ficando
Ġresp eita
Ġrem une
ĠTab a
Ġacredi te
Ġsignifica tivamente
CA RA
Ġacontece ram
Ġcida dania
fo go
Ġfinancia r
Ġcandida tura
Ġdepen dendo
ĠcrÃŃ tico
Ġgas to
Ġfic tÃŃcia
Ġtur ma
Ġdistor cida
ĠalcanÃ§ ou
ĠSÃŃ ria
ĠMi riam
graf os
Ġevolu ir
Ġgaro to
Ġmascul ina
ĠPartic ip
ĠsuperfÃŃci es
ĠVerm elho
Ġantir retro
ĠRob son
ĠMÃī DIC
POL IS
ĠcatÃ³ l
ĠHoff mann
ĠReco menda
cler ose
) ?
C AS
H ÃķES
M ENTE
O u
P M
b ita
f el
n io
Ġd r
Ġa di
es pecial
Ġp Ã³l
Ġs inist
Ġs elo
Ġs aco
Ġs amba
or ra
in te
ĠA D
ĠA tra
ÃŃ dios
ĠS arampo
Ġre com
Ġin us
Ġin clus
il ares
Ġt rim
Ã³ cios
sa da
Ġb olsonaro
am i
am o
Ġdes f
gu ei
Ġal umÃŃnio
ĠT eb
Ġj ornada
ed du
ĠG r
Ġcor rendo
ĠDe z
Ġele vados
Ġcria dores
Ġfor tun
Ġr ico
Ġman o
ĠprÃ³ teses
Ġsa u
Ġrela taram
ima r
Ġli do
ĠAm bi
Ã´n us
mail s
Ġpra tica
Ġcompartilha dos
Ġgan haram
Ġrecomen dar
Ġbas es
Ġfortale cem
osse x
Ġespe rado
Ġur ina
Ġur na
Ġdisponibil izaÃ§Ã£o
ĠIm posto
Ġtenta ram
Ġpron tos
icial mente
Ġestabele cido
ly s
Ġrepassa da
ĠPol i
ĠCON S
ĠfarmacÃªu tico
Ġobriga toriedade
Ãºst rias
Ġretor n
Ġmanifes tar
Ġader ir
Ġader irem
Ġbaix as
Ġfi Ã©is
ĠDES CAR
Ġassal tos
ĠPra ia
Ġpat rim
ĠDis que
Ġlimita do
ĠâĢĿ ,
ĠEconÃ´m ica
Ġbair ros
Ġagil izar
Ġcancel ado
Ġabsor ventes
ĠVasconcel os
Ġperi Ã³
Ġcompare cer
Ġmara vil
Ġsurpreend ente
Ġprolife raÃ§Ã£o
Ġrestr ing
ĠGL P
Ġsimpa tizantes
% ;
C F
M ar
N ES
d il
t mo
Ġ ÂºC
Ġa ula
es tima
Ġp las
Ġde do
Ġde ri
er idade
al i
Ġv idro
ĠA OS
ÃŃ p
Ġt Ãºnel
el li
ĠM ol
Ġb icarbonato
ĠN ormalmente
Ġdes tila
Ġ2 58
Ġap p
ter nidade
oc Ã³
ĠF is
Ġal vos
Ġal cal
ĠT ai
Ġex tras
ĠI R
ed ficas
tan t
ĠH un
pl os
Ġ- ,
til ho
ne Ã¡rio
Ġcor rida
Ġ4 80
vol ta
ĠÃº til
Ġdire triz
ĠRe abilitaÃ§Ã£o
ĠPro vis
Ġinte raÃ§Ã£o
Ġsim patia
Ġvis uais
Ġcircula va
Ġpreven tivo
Ġdef ens
Ġ24 0
ĠGeral do
Ġacab ado
ĠDa vid
eds ica
Ã´m ica
ĠCi Ãªncias
Ġprov Ã¡veis
ĠCl oroquina
Ġextre mos
PA L
Ġadolesc Ãªncia
Ġur Ã¢nio
ĠÃģ lcool
Ġhe p
ĠmÃ¡ quinas
Ġtur va
Ġavi Ãµes
48 5
Ġesti gma
In d
cep cionais
Ġretor nar
fas tria
Ġcap tura
Ġcomprome timento
Ġrepe te
ĠMUN DO
Ġanalisa das
ĠHar vard
Ġenven enado
Ġmodal idades
Ġadministra tiva
ĠSor os
Ġfemin ino
Ġbor do
Ġdirig ir
Ġpac tu
Ġrodo vias
Ġincapa cidade
Conas s
Ġjustifica tiva
ĠNÃºc leos
ĠAF P
ĠEstat ÃŃstica
Ġatin gem
% );
; \
G EM
O l
g ul
Ġa bal
en tas
Ġe mendas
Ġo posiÃ§Ã£o
te o
al e
Ã¡ polis
Ġv itam
ti t
ti ra
ĠA pp
ĠA gra
ri r
ĠS EM
Ġt ribunal
em edicina
Ġcon tes
Ġh oax
ĠM inha
Ġl enda
tu catu
ĠR i
ter mina
Ġsu biu
ĠF AB
se is
Ġpa ta
Ġca indo
qui Ã¡
ĠIn sumos
enta mento
Ġmo bilidade
Ġreg ulares
Ġcons entimento
Ġfaz enda
Ġman tido
ĠÃº teis
Ġservi u
ĠLe g
ES TE
Ġtrabal hou
Ġun ir
EN S
ĠMar isa
Ġpra zos
TI S
Ġta x
Ġdesco bre
Ġinstitu cionais
Ġindica dor
ĠDire ito
Ġgan ho
Ġcel eridade
Ġedi tais
Ġprecisa va
Ġcontribu em
ĠDO U
Ġet nia
Ġconc ed
Ġconc essÃ£o
Ġuni Ã£o
Ġuni verso
Ġtorn am
Ġpl acebo
Ġadequ adas
Ġcarre ta
Ġestabele cida
ĠEl iza
ĠCe dae
Ġcos m
Ġdecre tou
Ġbi om
ĠepidemiolÃ³g icas
ĠTer eza
Ġesti veram
Ġhigi en
Ġinstala Ã§Ãµes
ĠClÃŃn ica
Ġassum ido
Ġcru cial
Ġeduca tivas
Ġresga tar
Ġton tura
Ġargu mentos
Ġdetalha mento
ĠPen al
ĠCab o
Ġabra Ã§o
ĠWal ter
Ġescolar idade
Ġprotagon ismo
Ġdecid imos
ĠMc Donald
consul tas
ĠAudi tÃ³rio
Ġreflex Ã£o
ĠInten siva
ĠAman da
Ġautent icidade
Ġpesco Ã§o
Ho je
ĠCÃ©s ar
ĠIndon Ã©sia
D IO
b in
i pa
t f
z ia
Ġp iores
Ġe ixo
Ġs ar
is la
qu il
or ld
Ġo cular
Ġf Ã©r
Ġre ite
ĠP U
ul am
ĠB rics
tu rar
ĠD or
ĠF ontes
tra tamento
Ġdi v
ĠL emb
ĠG es
tan ha
Ġinter medi
ÃŃs ica
Ġnas al
ĠCo operaÃ§Ã£o
ĠEm pres
Ġele vada
ĠÃ¡ gil
Ġaf inal
br icas
ĠRe por
Ãªm ico
Ġval er
dia m
Ġra cional
ĠMar io
Ġchama ram
Ġpra to
Ġrec ru
Ġconfirma Ã§Ãµes
Ġviral izado
Ġdocu mentaÃ§Ã£o
Ġaju dando
IS S
ĠCar ibe
ice f
ĠNe ves
ĠAr t
Ġjornal ÃŃstica
Ġbil a
Ġdeclara r
Ġ200 7
Ġgoverna mentais
Ġaux ilia
ĠLa ir
Ġpron unciou
Ġescre ver
Ġjog ando
Ġsolicita do
Ġcompara do
Ġencam inhar
Ġ99177 9164
ĠdifÃŃ ceis
Ġneg ligencia
Ġdetermina dos
Ġsubstitu to
Ġlide ranÃ§a
ĠGil mar
Ġnotic i
tiza da
Ġaprovei tando
Ġanalisa dos
ĠBal neÃ¡rio
Ġconduz ida
Ġchoc ante
ĠMater no
Ġdou tor
Ġcompet Ãªncias
Ġbor ra
ĠPi res
ĠMic hael
ĠSam u
Ġnutricion al
Ġdesas tres
Ġconvers ar
ĠGuar ulhos
Ġsocio econ
Ġmotoc ic
Ġmodern izaÃ§Ã£o
ĠVar gas
ĠJÃº nior
Ġprofis sÃ£o
Ġdesfil e
Ġdespes as
Ġdesabaste cimento
ĠBanc os
Ġhel icÃ³p
ĠTeb et
C AN
F AB
K E
M IN
N e
m g
v ente
v ocÃª
Ġd Ãª
Ġa men
Ġp ilo
qu ida
qu io
Ġn ela
Ġm ine
al iz
Ġdo ce
ĠS ena
Ġcon tido
Ġcon exÃ£o
Ġg eno
ĠM P
ĠM ai
Ġb eira
ent u
ras se
ĠN ele
ĠN unes
Ġ2 10
di um
Ġou vidos
ĠT re
ĠT este
Ġex p
ĠEs tou
ĠEs tima
Ġcomp ul
ĠJ ogos
ĠH O
Ġinter nos
Ġmo ram
Ġmor na
man os
ez inho
Ġcria tura
Ġcria dor
Ġgra var
Ġma u
Ġesc ra
Ġocor ra
Ġrep ente
201 8
tr on
Ġsim ula
ĠMa x
ID OS
Ġatual izados
Ġdifer en
par tite
Ġado tada
EI O
ĠCam inhos
Ġpare Ã§a
ĠPre ven
IV ER
Ġquan tidades
IN CA
Ġperman entes
Ġperce p
Ġprov is
ĠCl ara
ĠRE CE
Ġvir tuais
Ġcaminh Ãµes
ĠFl ores
Ġsolicita dos
Ġdecre tar
ff oli
ĠYou tube
Ġmovi menta
Ġbanc Ã¡rios
Ġdesa tual
ĠVÃŃde os
Ġdiagnos ticar
Ġinstala do
Ġprorro gou
Ġcli ente
Ġdiagnostica da
Ġdesen ho
Ġdesen car
Ġdesconf iar
ĠIno va
Ġdetermin ar
ĠBer nar
Ġgarra fa
Ġdesn u
Ġconvoc aÃ§Ã£o
ĠIl ha
Ġfol has
Ġorg ulho
Ġcond iz
ĠLau ra
ĠIMP OR
rone amente
Ġinfeccios as
ĠdanÃ§ ando
ĠdinÃ¢m ica
ĠFiz emos
ABILITA ÃĩÃĥO
Ġ992 15
Ġconfir mem
3 25
F IC
S a
n us
n dia
p esta
u rante
Ġ %
Ġn ano
Ġco p
Ġco Ã¡g
ÃŃ ola
Ġes cul
Ġre dire
Ġt Ãªnis
Ġcon quis
ei tu
dos e
ĠB AR
iz umabe
Ġ1 15
Ġfo gos
ĠT an
ed entes
Ġpre ferÃªncia
Ġper feito
Ġ3 22
Ġmo Ã§a
ĠSe bas
Ġcor tes
man uel
ĠCom prova
Ġvacina rem
Ġcar d
Ġch um
Ġcer tos
Ġrela tou
ĠPro enÃ§o
ĠQu ase
Ġtele atendimento
Ġmar car
Ġapresenta Ã§Ãµes
Ġestu dar
Ġci enti
Ġlu tar
Ġconfirma ram
Ġapro var
Ġapro pria
Ġ12 4
Ġinclu iu
EI TO
Ġcontinu ou
ĠTo ffoli
Ġ11 0
Ġquer emos
Ġ* **
ĠDo en
Ġpreocu pante
Ġanuncia ram
CA O
Ġped ras
Ġepidem ias
Ġrecebi das
Ġnu triÃ§Ã£o
Ġexig Ãªncia
Ġestima da
hÃ£ es
66 3
edn icos
ĠCer tificaÃ§Ã£o
Ġescon dendo
ĠeconÃ´m icas
ĠAT Ãī
Ġqueima das
Ġinaugu rou
Ġestudan te
Ġeduca cionais
Ġcomputa dores
Ġcob rar
Ġates tado
Ġrever ter
Ġinflama Ã§Ã£o
gni tude
Ġdent ista
ĠtÃŃp ico
ĠlegÃŃ tima
Ġproced Ãªncia
ĠPRES IDENTE
reo ide
mart ph
Ġdra ma
Ġinterro mp
B io
C am
N este
R T
V amos
d un
d ent
g ente
p aro
Ġs essÃµes
ar ial
ti rem
ĠA ch
ĠS esai
Ġin vis
ĠC RIA
ĠC BO
Ġse c
ĠB ro
sa tis
Ġdes li
Ġsu perar
ĠF onte
ĠF lu
ĠF elizmente
Ġal iado
ĠT eix
Ġfa velas
Ġpar tidos
ĠIn icialmente
Ġver bas
Ġaten da
20 21
ĠCo vas
Ġdis crim
ĠEn t
Ġpublica mos
ĠAn da
Ãªn ia
ĠMas ter
ĠMar tin
Ġpra ias
Ġprote tor
Ġprecis ando
dan tes
Ġdesenvol veu
Ġdistribu ido
Ġpon tÃŃfice
ĠEx tra
Ġpass arÃ¡
tri te
Ġfu ga
Ġba talha
Ġisola dos
Ġtrabalha do
eds tica
Ġnorma tiva
Ġrecon struÃ§Ã£o
Ġincen tivos
Ġsolic itou
dro mes
Ġfiz er
Ġsen ha
Ġcomunica dos
Ġbar riga
Ġcomb ina
Ġil eg
ĠBo tucatu
Ġmulti plica
Ġefe tivas
ĠDan i
Ġcompor tamentos
Ġcaminhon eiro
ĠavanÃ§a da
Ġcomunit Ã¡ria
Ġemb aixa
pr indo
ĠCAM PO
ĠCorre ios
rel li
Ġirrevers ÃŃvel
Ġarg entino
Ġtrafic antes
Ġsequest ro
lec tual
ĠMagal hÃ£es
ĠTeix eira
B U
C H
V ES
c ran
e di
k er
l en
l oa
m ia
m itos
t inas
u til
Ã ¼
Ġde pos
Ġs ente
or ros
Ġco brindo
Ġf io
Ã© gio
Ġv ital
ĠA z
ĠA bre
ĠA genda
Ġre visa
ĠP el
ĠB ial
Ġna Ã§Ãµes
Ġdes central
Ġsu pera
Ġex ist
Ġinter c
ĠestÃ¡ vel
Ġver s
Ġi Ph
Ġvi vemos
Ġdis tante
Ġcons erva
ven i
Ġ9 94
onav es
onav irus
Ãªn ico
Ġcha ve
Ġinfec ciosa
TI CO
stitu cional
ĠEspecial idades
bri l
EI ROS
Ġcontinu e
Ġfe to
ĠK ir
ĠRa p
Ġban dido
Ã©s icos
AN HA
Ġjornal ÃŃstico
ine ken
Ġesclare cimentos
Es te
Ġdem Ãªncia
ĠCOM UN
ĠQual ificaÃ§Ã£o
Ġgas tro
Ġfigu r
Ġmobil iza
Ġexig Ãªncias
Ġpermi tiu
Ġcoorden ado
Ġvin das
Ġcadastra r
Ġneg ro
Ġdesem p
Ġdenuncia r
ĠDou g
trÃ³ leo
Ġfla g
Ġher pes
ĠDel ta
Ġcardi ologista
Ġensa io
ĠEpidemiolÃ³g ica
Ġcigar ros
Ġinoc entes
ĠRou pas
Ġinsiste m
Ġvira ria
Ġcensu ra
ĠPaci ente
Ġexib ir
Ġpresid entes
Ġbacter iana
ĠCacho eira
ĠLÃº cia
ĠDescobri mos
ĠbÃª bado
ĠðŁĳ İ
Ġvitam inas
B R
D a
N I
g ina
i gen
o f
v ÃŃde
re quis
Ġcom ba
Ġcom igo
ĠA presenta
ÃŃ Ã§a
ĠS tor
Ġt Ã³
ĠB aixada
us ando
Ġ2 20
oc es
Ġfo mentar
se qu
ĠT es
Ġex tensÃ£o
ĠI V
ĠV era
Ġca bel
ed dos
Ġtra vesti
org es
Ġper dendo
con f
ĠNa tÃ¡lia
20 24
Ġpres s
Ġne gar
ĠDe vido
Ġvi tro
Ġpu deram
Ġma gnitude
Ġle gado
Ġ9 91
Ġsa que
Ġimp re
Ġche gado
Ġcam isa
Ġvol tem
Ġra Ã§a
ch ip
Ġaconte cimentos
âĢ¦ âĢ¦
Ġven ceu
Ġsol id
Ġlocal izadas
ĠFa ustÃ£o
via m
den Ãºncia
Ġtecn olÃ³gico
ĠCam bor
nam ed
Ġ16 0
AM A
Ġfu ros
ĠPer man
Ġatra v
Ġauto imun
Ġmer cÃºrio
tia na
Ãī M
ĠBar cel
ĠÃģ sia
Ġino vaÃ§Ãµes
Ġsuspen der
Ġequ ÃŃv
ĠAra ca
Ġbenefic iando
ĠgrÃ¡ vida
xe que
ck min
Ġfecha das
Ġdetermina das
Ġexer cer
ĠAM E
Ġencer rar
Ġreconh eceu
Ġafas tar
Ġdescri tas
Ġclassifica dos
Ġalinha mento
Ġdesigual dade
Ġhabil itar
Ġrestau rantes
ĠFu x
Ġconce dido
ĠsanguÃŃ neos
ĠCel so
ĠOri ente
Ġinflu Ãªncia
ĠEstabele cimento
Ġengen haria
ĠProf essor
ĠOpera Ã§Ãµes
Ġarrecada Ã§Ã£o
ĠTerapÃªu ticas
Ġtransa Ã§Ãµes
ĠcÃ¡ps ulas
Ġmach u
Ġbombar de
Ġplas ma
! âĢĿ,
M AS
T V
W S
Z A
b ando
c eira
c rin
f Ã¡
l Ã¢m
s un
t Ãªncia
Ġ tir
en car
Ġe tique
in dica
Ġm ira
ic ÃŃdio
ma no
Ġf eira
Ã© tano
ĠA ÃĩÃĥO
Ġre vo
Ġt ram
ĠP IS
ĠP into
ĠP rÃ¡ticas
ĠC le
Ġpara cetamol
un Ã§Ã£o
un ha
Ġg elo
Ġb ola
Ġb uro
Ġpro vid
ĠD Ã¡
Ġal as
ĠI C
ĠV ou
ĠG as
Ġcir cun
Ġpos ts
eb om
20 23
Ġcontra tados
Ġconf irmando
ĠCo mando
Ġme ados
ES TA
ima mente
lan d
Ġverdade iros
Ġcam inhos
Ġofer tada
Ġhospital iza
Ġer roneamente
Ġimun olÃ³gica
Ġven deu
Ġresul tando
Ġden om
Ġvo zes
Ġvalor izar
Ġquer er
ĠNe tto
Ġru ral
ona ve
ĠPA ULO
AM OS
ĠZ ero
ĠUS A
Ġintegra do
Ġ200 5
Ġing les
Ġhomen age
Ġfis cais
Ġalc an
cios o
Ġestran hos
fo i
tiz ado
Ġafe tada
Ġder ma
Ġdificul ta
ĠTecn olÃ³gico
Ġforte mente
Ġimag in
Ġparticipan te
ĠLo pes
Ġconver sas
Ġneg Ã³cios
Ġaborda dos
Ġpreocupa Ã§Ãµes
Con fira
Ġhiper tens
Ġcontempla das
Ġencer ra
ĠOn tem
Ġcomprome ter
Ġparticipa do
Ġtiver em
Ġpoli ticamente
Ġvas cular
Ġbaix os
ĠBom b
Ġsuple mentar
ĠLucia na
Ġagrade ceu
Ġdoa dor
ĠGen eral
Ġexter no
Ġanalis amos
Ġpac to
ĠFede rais
Ġaer onave
ĠsanguÃŃ nea
grÃ¡ ficos
Ġmascul ino
EZ A
Ġvide ocon
Ġcoin cidÃªncia
Ġenquad ram
Ġparal isa
ĠtÃ³p icos
zz ebom
ĠCNP J
Ġdeep fake
Ġhemodi Ã¡lise
ĠFEDE RAL
ĠXu xa
ĠfÃ©r til
ĠBernar des
C a
D ER
G TS
b orou
d ical
i Ã¡
p icos
w an
x ido
Â ²
Ġ !!
te mos
ic lo
ĠA colh
men timos
ĠS tra
ĠS AI
Ġin tro
ĠP rem
ĠP onta
ĠP NS
Ġno vela
ĠC res
ei tar
ĠM AN
ĠB NDES
ĠB orges
Ġte atro
ĠR ic
ac ha
Ġsu por
Ġal ma
vi rais
Ġest endido
ĠL ibanÃªs
ga z
ĠJ Ãģ
Ġim Ã³veis
pa do
ca Ã§a
Ġsegu idos
Ġcria ram
ĠPa es
pon do
Ġr Ã©
lti ma
Ġtrans gÃªn
Ġor elha
for mes
Ġprin ts
Ġsa ÃŃdo
pre ven
forma n
Ġtempo rada
IA N
li e
Ġsub ir
Ġcol or
ĠSu z
Ġpare cidas
Ġpou so
has se
Ġba teu
ĠSil veira
Ġespec ulaÃ§Ã£o
Ġvar iam
Ġreun i
ĠDu as
ilo ma
Ġtoma te
Ġaux iliares
Ġproc essados
Ġexperi mentais
Ġventila tÃ³rio
Ġcum prindo
Ġw ww
Ġbar reira
Ġnu cle
ĠlÃŃ tio
ĠPE C
Ġfer ro
Ġcompara r
Ġmulti disciplinar
Ġtransmi tidas
Ġig n
Ġdistor cidas
Ġimplan tado
Ġsubstitu iÃ§Ã£o
QU ER
Ġrevol tados
Ġassin aram
Ġcoloca da
Ġpen sÃ£o
Ġcompe tiÃ§Ã£o
ĠHe ineken
Ġemagre cer
Ġsobrevi vÃªncia
Ġox igen
Ġpsic Ã³logos
Ġemb aixo
Ġfemin ina
Ġnegocia Ã§Ã£o
Ġresolu tividade
Ġbater ia
Ġprelim inar
edgen a
ĠEv itar
inf lama
Ġultras som
Ġprogres siva
ĠprejuÃŃ zos
Ġpris ional
ĠtÃ³x ica
Ġsilen ciosa
ĠDro gas
Ġevang Ã©l
Ġreajus te
Ġfranc Ãªs
ĠGOVER NO
Ġtomo grafia
Ġpontu ou
Ġran king
Ġcun ho
ĠAnda ra
ĠDoug las
A T
R es
V Ãį
h eira
j or
j ac
l ix
l fo
Ġd arÃ¡
is f
qu eles
Ġm itos
Ġf ur
al erta
on i
Ġcom itÃª
Ġu rin
Ġdo ando
ÃŃ brio
men au
Ġin to
Ġin satis
ĠP h
ĠP ira
ci mo
Ġ( âĢľ
ĠM em
Ġb ei
Ġb ares
Ġl itoral
us ar
ita n
ĠF ÃŃsica
se a
ĠT ex
Ġac u
Ġat letas
ĠG A
ĠG ripe
ĠH ang
po de
pa da
Ġar tes
ĠAl ckmin
Ġne to
ber dade
ĠPa inel
Ġcar entes
Ġcar ioca
lo taÃ§Ã£o
Ã¡s ticos
Ã¢n icos
Ġman teve
Ġab domin
cn ico
ĠLe o
Ġrela tado
Ġsim b
Ġrec olher
TI N
Ġpri ma
Ġ15 6
ĠCar olina
Ġpol iovÃŃrus
Ġinicia ram
ĠSu ÃŃÃ§a
ĠRa tinho
Ġsig la
Ġvar i
ĠMu dan
ĠSim Ã£o
ĠX i
45 79
ris o
Ġanuncia ndo
Ġped ra
ĠfÃ¡ bricas
Ġri tmo
Ġemo cionais
Ġdepen dem
ĠAd ulto
Ġadminist rada
Ġsubstitu i
ĠOb s
ust entÃ¡vel
ĠPas ta
Ġdiagnostica das
Ġalco Ã³lica
ĠclÃ¡ss ica
Ġcardio patia
ĠPO VO
Ġescri tor
ĠBl oco
ĠRespira t
Ġcondu ta
Ġvaria Ã§Ãµes
ĠAng ola
Ġpei x
ĠFOR TAL
TAM ENTO
ĠOri enta
Ġcritica do
Ġduvidos a
Ġcritic ando
Ġdispu ta
ĠOnc ologia
Ġleu cemia
Ġcaminha da
ĠparÃ¢ metros
Ġsaz onal
ĠBlu menau
eddu os
Ġabdomin ais
3 44
C S
S er
c in
f es
m icos
p tos
s ica
u a
Ġp ÃŃlula
ra bes
as o
qu ar
in cluindo
ti as
ĠA ir
âĢ ĵ
Ġpara do
ĠM ES
Ġb u
Ġna tal
tu ridade
ĠR og
oc h
oa gul
Ġac olh
Ġent ram
Ġent raram
Ġres istente
ĠH i
si vas
Ġper na
pi dez
Ġar ras
Ġass essor
cer ia
Ġcons enso
Ġ202 7
Ġon Ã§a
Ġins tan
Ġins inu
Ġind Ãºstrias
ĠEn fr
it Ã¡rias
Ġcont Ãªm
Ġespecial izaÃ§Ã£o
Ġpes ca
ĠCh in
ĠPro cura
ĠQu estÃ£o
ag ner
Ġsim bol
ĠDi fer
ĠDi vul
Ġra ros
Ġsab o
IS TE
Ġge ram
Ġparticip ando
Ġpossu ÃŃrem
ĠCa io
Ġrelaciona mento
Ġcole tar
Ġinc ha
Ġbal a
Ġrepresen tar
Ġsaber es
ĠRec ursos
Ġnorma is
th ony
Ġobser vaÃ§Ã£o
ĠAL ERTA
Ġagu das
ĠAra gua
Ġfras cos
Ġamplia da
ĠPelo tas
Ġrevol u
Ġvolun tÃ¡rio
Ġintensi fica
200 2
ĠAN S
Ġestim ula
Ġlar ga
ĠVol ta
ĠGru pos
Ġlic enÃ§a
ĠTele f
Ġmis sion
ĠbiolÃ³g icas
Ġenf raqu
Ġaglome raÃ§Ã£o
Ġtranqu ilo
Ã³x ido
Ġacresc enta
Ġpublic aram
Ġprema turos
ĠdÃŃ vida
Ġbara to
gover no
Ġcoman dante
yl lys
ĠPaci entes
hospital ares
Ġtari fas
Ġreorgan izaÃ§Ã£o
Ġmicros cÃ³pio
ĠJar dim
ĠAcor do
Ġultrasson ografia
Ġindiscrim inado
Ġdescober tas
Ġdesencar go
L a
P D
j un
o pa
w ai
Ġp ion
er e
to lÃ³g
Ġf ria
an ha
ĠA CA
ĠS h
Ġre tÃ³
Ġre trospectiva
ĠP ARTI
Ġno tur
Ġcon tando
ĠC iro
Ġse g
Ġl inda
ĠO C
iz antes
ĠD ar
ĠD ele
gu ar
ĠT in
Ġac ham
ĠI TA
ĠI magens
ĠL is
co ra
ai ds
Ġtra var
Ġinter no
ĠestÃ¡ tua
Ġmu taÃ§Ã£o
me t
ten ham
cl as
Ġvacin aram
dor ias
Ġti reoide
Ġ9 7
ĠAn thony
Ġpe trÃ³leo
Ġmul tivac
ĠSan eamento
bo x
ĠAm bos
Ġra dical
Ġinterna uta
ĠcÃ¢ncer es
Ġden ota
Ġcol h
ĠFa tores
IS TER
ĠCa derneta
ĠSu ple
ĠRa ia
Ġmater nidades
ĠIN S
Ġcur rÃŃ
Ġajuda do
Ġquan tos
Ġacess ÃŃveis
Ġatribu iÃ§Ã£o
Ġcres ce
ĠMan u
Ġjun tas
Ġassocia Ã§Ãµes
ĠhistÃ³r icos
Ġfavor Ã¡vel
Ġur ban
Ġtenta do
Ġacompan hou
Ġimple mentado
fo bia
Ġsuspen so
dou ros
Ġlig ando
Ġbenefic iadas
Ġdistor ce
Ġextra ord
dal ha
ĠOb esidade
ĠGra Ã§as
Ġretor na
Ġdaqu elas
ĠNu triÃ§Ã£o
ĠEpidem iologia
Ġprejud icial
Ġhabil idades
ĠInfec Ã§Ã£o
Ġprefer encial
Ġaer onaves
Ġrob Ã´
Ġcritic ou
ĠbiÃ³ loga
Ġded icaÃ§Ã£o
ĠMari Ã¢ngela
ĠSoc orro
Ġciber n
Ġconserv antes
Ġfortun a
ĠProvis Ã³ria
ĠSebas ti
Ġinterc Ã¢mbio
3 50
D ia
U n
c N
l ei
m idade
s emos
y ne
Ġd anÃ§a
Ġa gendas
es quer
en ar
de lo
ÃŃ dia
ÃŃ nios
ĠS AL
ĠS mith
Ġre tal
Ġcon duÃ§Ã£o
ĠC os
Ã³ n
ĠM O
ĠM issÃ£o
ĠB ara
Ġum as
Ġpro vam
iz o
Ġdes vio
ĠD av
ĠD oce
Ġas i
gu eiro
ĠF ri
ĠF eira
Ġal iados
Ġfo tÃ³
tra do
Ġex ista
Ġex postas
ĠI D
Ġest ender
Ġdos agem
Ġfa remos
ĠV imos
Ġmen cionou
Ġtem pesta
Ġcas sino
Ġcomp il
ĠJ ack
ĠU l
pa t
Ġmil ho
Ġper forman
Ġmo da
ĠW yllys
Ġcl aros
Ġgra duaÃ§Ã£o
cre as
Ġcompartil hem
Ġcer tas
uma cher
Ġmostra mos
Ġpan demias
Ġestra da
Ġfazer em
Ġvol antes
Ġten tamos
ps tein
Ġlocal idade
Ġ19 94
Ġgan hado
Ġge rados
ĠK en
Ġ13 5
Ġcole tadas
Ġfica rem
Ġgri pais
Ġimpac tante
ĠGu imar
Ġata cando
Ġcal ma
Ġauto med
Ġpal ia
jo gador
ĠBa tista
Ġinteg rante
Ġsust ent
Ġdif un
Ġtur istas
ĠPE D
Ġconcent ram
Ġil ÃŃci
Ġequ ita
ĠPal est
ĠInter med
ĠgrÃ¡ vidas
Ġperigos as
ĠTa tiana
Ġdemonstra m
Ġdemonstra ram
Ġgeneral izada
Ġdaqu ela
Ġestabel eceu
Ġfl uminense
ĠclÃ¡ss icos
Ġemagre cimento
ĠPO DE
ĠPÃº bl
ĠAlgu Ã©m
ĠMi ke
Ġincr ÃŃveis
ĠCAS A
ĠCAS AI
profission al
Ġprocessa dores
Ġconven cer
Ġtriste za
Ġexter nos
ler Ã¢ncia
ĠtÃŃp icas
Ġdram Ã¡tico
Ġprovoc ando
ĠCida dÃ£o
ĠNÃºc leo
Ġdescu mp
Ġterm inal
Ġtru que
Ġchocola te
kin son
olar ing
Ġileg ais
ĠCambor iÃº
! )
M OS
N E
S I
a inda
i um
Ġa i
en Ã¡rio
en dendo
Ġc ica
as ems
Ġs martph
or ial
Ġo tor
Ġf estiv
Ġv ist
ri ta
Ġin cremento
ci dental
ĠC ul
Ġg ab
ĠM IN
sa d
Ġl Ã¡g
Ġl enÃ§o
ĠN es
Ġdes ac
ĠD entro
ec h
ĠT hia
ĠI magem
ed or
Ġinf laÃ§Ã£o
Ġesta dun
Ġter ÃŃamos
pa h
Ġtra iÃ§Ã£o
pl o
pi mento
gra da
ĠAl bu
Ġele g
ĠCom iss
Ġel ite
quer que
Ġch eiro
Ġcont endo
Ġdire cionar
Ġrece ba
ĠCh am
ĠCh ris
Ġdesta caram
Ġra cismo
Ġinvesti gando
ido u
Ġve tor
ĠFa uci
Ġpon de
Ġcri ticar
Ġdesin fe
Ġata cado
Ġquan tia
Ġfunda Ã§Ã£o
ĠCons um
Ġcontr Ã¡rios
Ġindi gna
Ġfabr icar
Ġjul gar
Ġating indo
Ġbo i
ĠRE FOR
Ġcomplex a
ĠOl Ã¡
ĠAL EG
Ġmobil izar
Ġk g
Ġceleb raÃ§Ã£o
Ġempre gos
Ġincorpo rar
Ġartic ulaÃ§Ãµes
Ġnegacion ismo
ĠMac ron
Ġemi tir
Ġluc ros
Ġdomic ÃŃlios
Ġconsolida r
Ġide ologia
ĠCir urg
Ġtorno zel
Ġanalisa do
ĠResol uÃ§Ã£o
Ġespanh ola
Ġmutir Ãµes
Ġbloque ar
ĠtrÃ¡ fego
Ġquil Ã´metros
Ġcomemo rar
ĠSin ga
ĠfilantrÃ³p icas
ĠjurÃŃ dico
Ġdesab af
Ġenx ur
Ġenc aixa
Ġceb olas
Ġlau dos
Ġconfor to
Ġimpulsion ar
ĠcÃ¢ mera
Ġinse tos
Ġadm ira
Ġdistin tas
sus ci
ĠConhe Ã§a
NAS F
ĠJoa quim
Ġassassina to
ĠSimpl es
ĠAtra vÃ©s
Ind ustrial
Ġpeix es
ĠFORTAL EZA
ĠlÃ¡g ri
Ġestadun iden
ĠAlbu querque
1 80
A tÃ©
A DI
C RE
L U
M AR
P r
T Ãį
u ar
y al
Ġd an
Ġd ente
Ġp Ã¢n
Ġc enta
Ġc lare
Ġe ficientes
ta refa
in tra
ic ela
de f
de iro
ar dite
Ġu cran
an in
men tados
ĠS el
Ġre pa
ĠC ad
us s
ras sem
gu Ã¡
Ġser inga
ĠT B
ĠT I
Ġex pe
Ġex tin
ram e
cion ista
ed ba
si tos
ĠU so
ab ana
fic iais
til idade
Ġmes as
ĠCon fer
ĠCon asems
ez es
Ġtrata das
Ġdu bla
Ġor o
ĠprÃ³ tese
Ġli gaÃ§Ãµes
Ġag on
Ġpartic ulares
Ġestu da
Ġrecu sa
Ġsab ÃŃamos
Ġimun os
ĠAss unÃ§Ã£o
vent ude
Ġro ta
Ġsal vo
Ġhom ossex
Ġcole ga
ĠdiagnÃ³s tica
rin olaring
Ġban da
Ġcontam inar
osa mente
Ġtor cida
Ġing est
ĠX a
ĠReg ulaÃ§Ã£o
Ġmeta b
Ġdisponibil izada
Ġsele cionadas
ĠTO DO
Ġce pas
Ġterc eiros
encia r
Ġengan ado
Ġparc eiro
Ã³l ico
SA ES
Ġincorpo ra
Ã©di tos
Ġpreocupa dos
vac inas
Ġdeci dido
Ġfabrica da
ĠAN OS
ĠNu com
ĠInforma tiza
Ġdomic ÃŃlio
ĠPron on
Ġfrau dadas
Ġconcre ta
Ġqualifica dos
ĠavanÃ§a das
Ġvincul ado
Ġagrade cer
Ġalinha das
Ġespalha das
ĠMag named
Ġimuno biolÃ³gicos
Ġdou to
ĠterapÃªu tica
ĠTor re
Ġrespec tivos
ĠQU ER
Ġconce deu
Ġrein troduÃ§Ã£o
Ġprotagon ista
mil ag
ĠINTER NA
Ġmotoc iclistas
SG TES
Po zzebom
Ġpersegu iÃ§Ã£o
Ġreprodu tiva
Ġparas itas
Ġdivid ida
ĠForma Ã§Ã£o
ĠFI FA
anti go
Ġsatisfa tÃ³rio
ĠmuÃ§ul manos
Ġsuscet ÃŃveis
socor ro
Ġreaber tura
Ġtrim estre
Ġpilo tos
aliz Ã£o
ĠHO JE
Ġ991 05
5 610
J U
L HA
R R
S o
W Y
] ,
b en
d enti
l ando
m icas
n y
t inal
Ġ ),
Ġ xeque
Ġd ano
Ġde partamento
qu eiro
te or
Ġqu entes
ic ano
ĠS kol
Ġin tit
Ġt Ã©tano
ĠP si
ei redo
Ġb Ã´nus
iz ante
Ġdes mas
Ġdes av
Ġdes via
ĠD IV
gu er
ĠF r
ĠF ras
Ġfo f
vi Ã§o
Ġex trem
Ġac hou
Ġen comen
Ġfal tar
ĠG RU
ĠJ in
pl icar
Ġper f
Ġper iodicamente
Ġver me
gra fa
it co
ĠLe e
Ġrespon didas
Ġtes tado
Ġpan orama
Ġdesta ques
Ġ8 64
Ġag indo
ju ca
ĠcomeÃ§ amos
Ġra inha
lex idade
ios o
stitu to
Ġcol un
Ġplan e
Ġlocal izaÃ§Ã£o
Ġaplica dos
Ġdetal hou
ĠK T
Ġ14 9
ĠEx peri
ĠDa vi
ĠAma ral
Ġ200 2
Ġmudan do
ĠPar la
fei turas
Ġadequ aÃ§Ã£o
Ġcorre tas
Ġabor dar
Ġfis ioterapia
Ġaci dental
ĠMo un
Ġsanit Ã¡rios
Ġespera va
Ġprevis Ãµes
Ġinde vido
ĠTer mo
Ġvin te
Ġperigos os
Ġfecha da
Ġremo ver
Ġimplan tar
ĠDan ilo
ĠTa ilÃ¢ndia
ĠImun o
Ġlide ra
Ġescon dido
ĠeconÃ´m icos
Ġantic oagul
Ġassus tador
tiza das
Ġmec Ã¢nica
Ġcong el
DES TE
Ġarmaz ena
ĠespÃ© cies
Ġconcor rer
ĠquÃŃm ico
ĠCAS OS
ĠEST ÃĥO
ĠNi pah
Ġgela deira
Ġinterrom pido
Ġlic itaÃ§Ã£o
Ġrus sa
Ġadvo gada
ĠSch umacher
ĠMOR RE
Ġjapon esa
Fo i
ĠEv andro
Ġincom um
Ġcontempl am
Ġdiplom Ã¡tico
bis omem
TAN TE
ĠVira da
ĠNeg ri
Ġviaj ou
Ġmi ti
isse x
Ġaguar dar
Ġaguar dando
Ġsupri mentos
Ġmalicios os
ĠCou tinho
ĠcongÃªn ita
Ġestrang eiras
Ġgrada tiva
Ġterre moto
Ġpatrim Ã´nio
Ġvideocon ferÃªncia
ĠTin na
clas si
ĠSinga pura
! *
I ÃĩÃĥO
P ON
U R
g estores
y ota
Ġ =
Ġc ito
qu eira
00 8
Ġv os
Ġv inho
Ġv elhos
Ġdo ces
ĠA eropor
ri es
Ġes clerose
Ġre el
Ġin Ã©dito
Ġt sun
ĠM UL
Ġb ula
Ġl istas
Ġte Ã³r
Ġan istia
Ġpo d
Ġmen cionada
ga cia
Ġpre to
Ġhist oricamente
na bis
ho je
gen do
Ġinforma dos
Ġmo eda
ĠSe te
ĠW orld
av ante
tor no
Ġconf is
og lo
Ġsegu rando
Ġle gu
Ġle tra
Ã¢n d
Ġman tenha
Ġconte x
ĠLe gal
Ġmar cou
Ġra pidez
ĠDE US
ĠSa fa
Ġ. .
Ġden tal
Ġden unciou
Ġatual izou
Ġus aram
ĠFa Ã§a
Ġ12 1
fe ras
Ġprec edentes
Ġpon tuaÃ§Ã£o
Ġconsi gam
Ġaval iado
Ġcaracter ÃŃstica
Ġreduz iu
Ġcole g
ĠDa tena
Ġconsegu ido
Ġtransmis sibilidade
ĠZ o
Ġsuper visÃ£o
Ġacredi tando
tifica do
17 4
Ġce go
Ġcum pre
Ġavalia da
Ġboa taria
ĠTrans pl
Ġesquer dista
Ġquestion ar
Ġavi Ã¡ria
Ġefe tivo
ĠDef ini
RI TI
Ġsil vest
Ġren Ãºncia
Ġmam ografias
Ġencaminha das
ĠPI B
Ġinv entado
ĠcirÃºrg icos
Ġadulte raÃ§Ã£o
Ġcaix Ã£o
Ġapl icando
ÃŃdu os
Ġgl Ã¢nd
Ġincentiv ando
ĠhipÃ³ teses
ĠCH INA
ĠmÃ³ dulo
Ġcomprovada mente
Ġmanip ulado
Ġevent ual
Ġdesconhe cido
Ġconvida do
Ġtranqu ila
ĠterapÃªu tico
ĠGabri ela
Ġexcel ente
Ġgal era
ĠProfission al
Ġpsi quiÃ¡
Ġagre dido
ĠNeg ro
Ġpis o
ĠHist Ã³ria
Ġpreser var
ĠsÃº bita
ĠAmpl iados
Ġreci pi
Ġtit ular
GRA MA
Ġester il
ĠPESSO AS
Ġcompreen sÃ£o
ĠIdos os
Ġnutri entes
ĠGri pal
ĠTaba tinga
ĠTai wan
ĠHun gria
ĠLeg isla
Ġsec und
ĠAbre u
Ġburo c
Ġenxur rada
ĠKT K
Ġsilvest res
A G
M as
T R
b oatos
f ase
j aro
t Ã¡stico
x an
Ġc em
Ġn Ãºc
Ġm io
Ã§ amos
ro logista
Ġg ros
ĠB oc
ĠO B
ĠO k
gu el
Ġsu ma
ĠF UN
se udo
Ġen demias
Ġca valo
Ġinf la
pa ci
no tificaÃ§Ã£o
cl ique
og ar
Ġdis tantes
Ġdis semos
Ġpu ro
ĠCom igo
Ġma pa
indo ws
Ġcar tÃµes
Ġaponta da
Ġpe Ã§o
ĠLe w
ES F
ĠPOR TO
Ãªm icas
Ġocor ri
201 7
ch es
Ġven didas
Ġta refa
Ġenvol vida
Ġbeb a
IS MO
anc he
Ġgan hos
Ġmon tagens
ĠEx ame
ĠCam inh
Ġ11 6
ĠInd Ãºstria
ĠDa mares
ĠJo vem
ĠMen ezes
Ġfu turos
Ġlim par
Ġfra g
Ġresol veram
Ġdizer es
Ġdar ia
Ġref eiÃ§Ãµes
ĠX avante
Ġsignifica tivos
CA PS
Ġliv res
Ġop tar
Ġestran has
ĠFern Ã¡n
Ġurg entes
Ġcum p
ĠDSEI s
Ġexig ir
Ġefe tivamente
PV A
Ġhi po
ck er
Ġpropor Ã§Ãµes
Ġnatural mente
wn loa
Ġbon eca
Ġanda m
Ġdemonstra ndo
Ġrastre ar
Ġcompe ti
ĠcardÃŃ acas
ĠAC WY
Ġcriminos as
Ġassegu ra
Ġmensal mente
Ġpsic olÃ³gico
ĠLocal iza
Ġanteci par
ĠUBS F
ĠbiolÃ³g ico
Ġexpres sivo
Ġquil os
Ġterror istas
Ġlou cura
Ġconstitu cional
Ġintelig entes
ĠEv ang
Ġirres tri
Ġirm Ã£
ĠBen jam
Ġprolon gada
Ġautom Ã¡tica
Ġresponde mos
ĠMUNICI PAL
Ġinflu entes
Pa ulo
Ġprep aro
ĠcÃ¢ meras
Ġdespe dida
VIS A
acredi tÃ¡vel
Ġdispensa Ã§Ã£o
Ġparas ita
pac abana
ĠImpor tÃ¢ncia
ĠFigu eiredo
Ġinterse torial
Ġteles saÃºde
ĠNU COM
ĠLag oa
ĠhelicÃ³p tero
ĠcoÃ¡g ulos
Ġconserva dores
Ġ994 325
requis ito
ĠPalest ina
ĠALEG RE
ĠlÃ¡gri mas
Ġrepa tria
9 20
A V
G overno
H Ã¡
e is
f ora
p iz
s ic
Ġde cres
in ina
Ġm ent
re fas
te ia
Ġque das
Ã© ia
on aria
ĠA ur
ara da
ĠS Ãĵ
Ġin ib
ĠC are
ĠE pstein
Ã³ b
Ġh ones
ist ung
ĠO dontologia
Ġte tra
ĠD ent
ĠR ez
oc as
se ca
Ġen z
Ġpa po
Ġfa ma
Ġfa diga
ĠV E
ĠL O
ĠL our
tas sem
ĠJ AN
con fira
pi dos
ĠSe de
ĠW ilson
Ġcor iza
tiv ar
ĠCo pacabana
bi que
ĠEm ira
Ġ4 50
ado n
Ġle tras
Ġle gendas
be di
Ġprodu tor
Ġ9 275
per s
Ġcompartil haram
Ġano ma
ĠLe istung
Ġrela tor
Ġocor rida
Ġmar gem
Ġrecu per
Ġsab iam
Ġpra tel
Ġpra ticar
ĠMa t
ĠMa u
ĠLu ana
Ġta refas
Ġindica Ã§Ãµes
Ġsal vou
Ġpol os
Ġconsi ga
Ġrecomenda dos
Ġconside ram
Ġlon gos
ĠNe uro
Ġescol tas
Ġconsegu indo
AN TE
Ġjornal ÃŃsticos
Ġlim pa
Ġprior izar
Ġcal end
rÃ¡ uzio
Ġatribu i
Ġcres cendo
Ãģ RIA
AI X
Ġdiscu tidas
Ġpl acas
Ġcarre gam
Ġapos ta
ĠCent rais
Ġmundial mente
Ġinteg ridade
fal timas
ĠreforÃ§a da
Ġof en
Ġgas tar
Ġexig indo
ĠCON TA
Ġtesta da
Ġcomercial izados
ĠInter gestores
Ġincorpo rado
?? ??
Ġintegral mente
Ġintegral idade
ĠPS DB
ĠSA PS
Ġcic los
Ġclim Ã¡ticos
Ġgeneral izado
ĠPas sa
ĠCir cul
Ġcru el
Ġemergen ciais
Ġarmaz Ã©ns
Ġvig ente
Ġescolh idos
Ġinje Ã§Ã£o
Ġrefle tir
Ġconden aÃ§Ã£o
ĠCab e
Ġviz inho
Ġembar ca
Ġdisp Ãµe
Ġjapon eses
Ġpatroc inados
To dos
Ġdram Ã¡tica
Ġcancel ar
Ġvenezuel ano
Ġdiplom Ã¡tica
Ġconfor midade
Ġexpul so
ĠCida dania
Ġestat ÃŃsticas
ĠCB N
Ġreclama Ã§Ãµes
ĠsuperfÃŃci e
ĠUber lÃ¢ndia
Ġequil ib
Ġnec ro
Ġfict ÃŃcio
ĠTU DO
Ġredob rar
ĠNOR TE
ĠCONF IR
Ġescor pi
ĠÃŃ con
ĠdistÃºr bios
Ġanest Ã©sicos
Ġchum bo
Ġembaixa dor
Ġcircun st
ĠFernÃ¡n dez
Ġ994325 485
piz ol
Ġdecres cente
7 50
G UE
H E
P U
T Ãĵ
b ula
g ru
i rim
l am
m ul
o pera
p rio
w are
x imos
es c
es tado
Ġp ista
en aÃ§Ã£o
Ġde gen
er ia
to ma
ar que
Ġv emos
ro b
ti d
ĠA ÃĩÃķES
ĠS ta
Ġem issÃ£o
Ġre vi
Ġre tina
ĠP DP
Ġno ci
Ġcon gresso
ĠC US
ĠM ON
ĠM Ã³vel
ĠB re
ĠO fer
Ġpro filaxia
ria n
iz Ã¡
ĠN esses
Ġdes o
Ġdes trÃ³i
ĠF IL
ran go
Ġac hando
des ta
Ġpa u
Ġat ras
ĠEs c
Ġres idente
ĠJ avar
Ġtra uma
ĠestÃ¡ gios
cional mente
Ġinforma ram
ĠW agner
ĠW indows
ĠAl ess
Ġvi ven
Ġcons tam
pan ema
fa z
Ġab rindo
ĠAn dra
ĠRe vista
cn icos
Ġsa tÃ©
Ġrela tados
Ġcita mos
Ġtes tou
ĠSan gue
Ġpoder osa
Ġampl o
ĠES SE
âĢ¦ âĢĿ.
Ġcr istÃ£o
ĠMa ju
ĠMa ciel
NA IS
Ġapro funda
Ġidenti ficaram
Ġcol her
ĠAss essor
ĠDire tor
64 0
ĠCar ol
ĠJa to
ĠCa e
ĠTo maz
ĠTo yota
Ġreduz ido
Ġcole tivas
Ġfar Ã£o
Ġsuper lotaÃ§Ã£o
Ġcal am
Ġba tendo
minist raÃ§Ã£o
Ġprocurar mos
24 0
Ġestrutura is
Ġcarre gando
ĠMo der
Ġdiminu indo
Ġobser vada
Ġposi tiva
ean ero
Ġmora dia
Ġbar co
ĠmÃŃn imos
ĠComp lexidade
ĠTer ceiro
Ġtesta das
Ġonc olÃ³gica
Ġadqui re
CI AS
ĠMac hado
Ġcoloca dos
Ġconsolida ndo
ĠgenÃ© ticas
Ġnotic iou
ĠAli mentos
ĠFA KE
Ġinfer no
ĠterapÃªu ticas
Ġpatroc ina
ĠHuma na
Ġital iana
Ġfug ir
Ġfug iu
ĠRoc ha
Ġrodo via
Ġimpl ante
Ġmodifica dos
ĠneurolÃ³g ica
Ġpreca uÃ§Ã£o
Ġconfron to
ĠRÃ¡ dio
Ġenxer gar
ĠGLO BO
Ġfornec edores
ocÃ³ cica
ĠEnfr entamento
ĠcurrÃŃ culo
ĠGuimar Ã£es
ĠpÃ¢n creas
Ġtsun ami
ĠJavar i
6 60
8 62
C OS
D urante
J Ã¡
O r
P EC
Q ual
h man
r Ãµes
s ho
s inos
v Ã©r
y d
Ġp Ã´
Ġm inhas
Ġco bre
de ma
Ġf rus
an s
ĠA er
ĠA bel
ÃŃ cula
Ġes porte
Ġes feras
ĠS Ã©
ĠE bserh
ei xo
ĠD I
Ġap orte
ĠF AM
Ġser tan
ĠI g
ĠI PVA
co vid
Ġtem Ã¡ticas
Ġpre feituras
ĠJ untos
vo ra
ĠH er
Ġmu taÃ§Ãµes
ĠSe gunda
Ġass essores
Ġcontra tar
ĠCo raÃ§Ã£o
Ġvi Ã©s
ĠCon siderando
Ġcons tran
Ġcria tividade
ĠPa p
Ġme xe
Ġcan Ã§Ã£o
Ġav Ã³
Ġvol tam
EN O
EN TES
Ġra tos
Ġ10 9
Ġaconte cimento
Ġcompro vam
ĠMa ur
Ġapro fun
ĠEspecial izados
Ġplan ej
Ġobje tiva
Ġinstitu ÃŃdo
ece ram
Ġbas icamente
ĠCam pe
pro du
ĠCas ca
Ġpou quinho
Ġanti viral
Ġexplica Ã§Ãµes
Ġinten sas
ĠMen os
Ġjornal ismo
ĠAg ente
Ġfra cas
Ġcoloc aram
Ġfunda dor
Ġbol e
Ġconc eitos
Ġcausar ia
Ġreti rou
Ġped Ã³fil
Ġating idos
Ġacompan h
ĠMo Ã§am
Ġlibe rada
ĠCe ar
Ġamb as
Ġsiste m
Ġavalia Ã§Ãµes
Ġparc elas
Ġsolicita ndo
Ġfer imentos
Ġdecre tos
Ġinde vidamente
ĠBo ta
ĠUF S
ĠLi berta
Ġceleb rado
ĠcÃ©l ula
cha t
far i
Ġmin imamente
Ġaumenta ram
ĠNu tri
Ġinaugu ra
ĠPron as
SC TIE
Ġros a
Ġmoder no
tiza dos
Ġafas tado
Ġadver sas
Ġmani pular
our nal
Ġadequada mente
ĠInfec tologia
ĠHel ena
Ġprovoca da
ĠAt l
Fo od
Ġpublic itÃ¡ria
II I
Ġbizar ras
Ġfoc os
ĠINTER MIN
ĠVER DADE
Ġpercebe u
Ġant ÃŃdo
ĠWe intra
Ġprofunda mente
ĠAdolesc ente
Ġfisioterape uta
Ġbrilh ante
ĠespÃŃ rito
ĠPecu Ã¡ria
quel u
Ġexag ero
Ġcheca gens
ĠUnivers al
Ġribeir inhas
Ġmetropolita na
ĠEliza be
ĠCRIA N
ĠretÃ³ rica
ISTER IAL
ĠREFOR ÃĩO
ĠFras Ã£o
ĠMoun jaro
Ġcontex tual
ĠINTERMIN ISTERIAL
ĠWeintra ub
A gora
N esta
c T
d Ã¡vel
g ulo
i tor
l he
m Ã©dicos
r Ã¡tica
Ġ _
is to
in forma
re c
Ġco quelu
te ca
do enÃ§a
Ġf ide
ĠA ju
men tes
ĠS ci
ĠS ur
ĠP ac
ĠC iclo
Ġh id
Ġl iÃ§Ã£o
ĠO ro
us e
Ġpor to
Ġpor tuguesa
Ġte u
ĠâĢ ĭ
oc om
ĠI denti
pe e
pe u
ĠV O
ĠL ance
ed dio
ed rito
Ġinf raÃ§Ã£o
ĠG PS
bl em
Ġres son
ĠH ABILITAÃĩÃĥO
Ġper dida
Ġmu cos
Ġpos tado
Ġass em
ja dos
pp er
Ġdia bÃ©
Ġpres sas
iste mas
ĠDe ve
ĠNo gueira
Ġprodu tivo
ribu iÃ§Ã£o
har d
Ġdire tas
Ġcan tando
ĠÃ³ r
Ġcomun icar
Ġori entam
ĠES SA
Ġve tores
ĠSo b
Ġdesenvol veram
Ġprec oces
Ġsal vamento
iam i
Ġprocu rou
pro me
Ġfra queza
ĠUn icef
Ġauto ra
Ġficar ia
Ġterri torial
Ġuni formes
Ġexperi mental
Ġprof undo
Ġgrav ÃŃssima
ecu tiva
Ġdem Ã´nio
Ġurg Ãªncias
Ġsuspen sos
ĠPe di
Ġfer iado
Ġinde termina
Ġencam inh
ĠmÃ© rito
Ġdescar te
tel ar
ĠInter pol
Ġonc ologista
Ġincid entes
Ġfr entes
ÃĬ S
Ġpotencial mente
ĠRib as
Ġvaz ias
Ġencer rado
Ġcap ilar
ĠEstratÃ©g icos
americ anos
Ġope rar
Ġsou be
Ġtermin ou
Ġverm elhas
Ġvincul adas
Ġconjun tas
ĠDis ney
Ġclassifica das
Ġorto p
Ġhem orra
Ġsor riso
Ġestiver em
ĠGen ebra
Ġdou tora
Ġprem iaÃ§Ã£o
Ġprem iada
ĠJun ior
Ġdestin am
To x
ĠdÃ³l ar
Ġatitu des
Ġenc enaÃ§Ã£o
ðŁĩ §ðŁĩ·
ĠmaÃ§ Ã£
Nos so
Ġexib ida
Ġotim izar
Ġbic ho
Ġfraudul entos
Ġalarman tes
ĠVe jam
Ġcompat ÃŃvel
ĠfÃ¡rma co
ĠtÃ©r mino
ĠIST s
MEC TINA
ĠAven ida
Ġmape ar
ĠObri gado
Ġcarb ono
ĠAraca ju
Ġgab inete
Ġimunos su
Ġdesav isa
ĠDIV UL
Ġirrestri tamente
ĠMoÃ§am bique
0 50
3 80
7 28
B AL
D R
D r
G o
G AR
H F
M AN
S istema
T SE
g ido
h ist
i es
m el
x u
Ġp i
Ġde ten
or i
Ġm one
to ni
Ġf ixo
al gu
Ġdo b
ti ria
ara s
Ġre vis
ĠP io
Ã³ loga
ĠM AI
ĠB au
ĠO ce
Ġpro pos
ĠR em
Ġap tos
le ia
ter ror
Ġal usÃ£o
Ġso taque
se cre
Ġac os
ver dade
Ġpa gou
Ġca pÃŃ
ĠG U
ĠG os
bl io
Ġres susci
iza de
Ġinter ven
Ġver ea
ĠPor tella
tro l
ĠNo vembro
Ġdis par
Ġcons elh
Ġfaz iam
Ġdu vida
dores e
Ġimpor tar
ancia mento
Ġrep rim
Ġrel Ã³g
ensa do
Ġra to
Ġra ios
AS S
Ġrec la
Ġcr on
Ġcr Ã©ditos
ĠDes mentimos
15 2
Ġcol orre
Ġlocal izados
Ġ12 8
Ġsal vas
par tÃŃculas
Ġhom olo
Ġva por
Ġcaracter izada
ĠRa ul
if lu
af io
ĠPo wer
ĠNe onatal
Ġsurg ido
ib ida
Ġgratuita s
Ġfu ra
Ġfu tura
rÃ¡ tico
Ġproduz em
Ġtorn eira
ĠReg i
Ġama relo
ĠCl ima
Ġrou ba
ĠBar ros
Ġating iram
Ġestabele cidas
ĠPR IM
ĠNas a
Ġcomplex as
ĠAu x
ĠAu to
IM O
ĠAd ministra
segu ranÃ§a
Ġconcent rados
Ġbi ologia
Ġesquer do
ðŁ ĳ
ĠInter ministerial
Ġpriorit Ã¡ria
Ġvin dos
che fe
Ġacontecer Ã¡
Ġreconhe cidas
Ġpropor cionar
Ġcapaci tados
vac inados
Ġvulnera bilidades
Ġexecu tar
Ġinscri tos
Ġterr ÃŃvel
Ġraz Ãµes
Ġconcre tos
Ġpensa mento
Ġbloqu eios
ĠorÃ§a ment
ĠjurÃŃ dicas
Ġsusten tam
eau tico
Ġobs te
Ġrom pimento
ĠRoc k
Ġvan tagem
Ġtribu tÃ¡ria
ĠCur so
âģ£âģ£ âģ£
Ġcamis eta
ĠDiver sos
Ġmag ist
Ġbe ts
ĠNE WS
ĠGonÃ§al ves
Ġaque cimento
gol pe
ĠalÃŃ vio
ĠMÃīDIC OS
Ġpata mar
Ġinterromp ida
vÃŃde o
Ġingles a
ĠBomb eiros
ĠDav os
Ġotor rinolaring
ĠXa vier
Ġdesmas cara
ĠLiberta dores
Ġcoquelu che
1 20
: *
C FM
P AR
T Ãī
c ina
c andida
i ten
l cio
n on
u re
en das
Ġe cos
or no
Ġcom bo
ĠA mericana
ĠA IDS
ri dente
ĠS B
Ġin cu
Ġin vent
ĠC ri
ĠE bola
Ã³ rus
Ġb esta
Ġb isco
Ġl indo
Ġdes viar
ĠD C
ĠD esses
ĠD rÃ¡uzio
Ġap e
va gem
Ġsu dorese
ĠF GTS
tra mos
ĠL anÃ§a
ĠL embre
Ġent rado
Ġinf il
ĠG is
Ġmen tir
ĠJ usti
ĠH Ã³rus
ru dente
pa mento
tar Ã©m
ĠIn icia
der s
ĠPor tuguesa
Ġcor tado
Ġdis para
Ġcria douros
ĠCom pan
ess os
Ġab enÃ§o
Ġob tidos
Ġaf ilia
Ġsuger ido
ĠVer ifica
Ġestra das
Ġcomun istas
Ġra cioc
Ġ10 5
Ġrecu perando
Ġfil has
Ġhospital izados
Ġpreven tivos
ĠSa u
ĠSa ud
Ġta ble
Ġautor izado
ĠFo z
Ġge radas
Ġge raram
Ġconsi go
Ġtecn ol
ĠK wai
tin ais
ĠZ u
ĠAg ro
Ġsuper iores
ĠFor d
Ġdefin iÃ§Ãµes
Ġveri fic
Ġtro m
ĠIm pera
Ġsai bam
ĠfÃ¡ ceis
ĠQual ifar
ĠMes sias
ĠprÃ© dios
Ġrelig iÃµes
Ġdetec tado
ĠCE BAS
Ġparc eiras
Ġpessoal mente
98 9
Ġprocess ar
ĠAra gÃ£o
Ġdescar tadas
EC IMENTO
ĠPal mas
Ġhuman itÃ¡ria
Ġjus to
ĠPRO GRAMA
Ġsubstitu ÃŃdo
QU I
Ġdeci diram
ĠameaÃ§a do
Ġmodi ficado
Ġpensa m
Ġreto mar
De pois
ĠHar ris
Ġalinha da
ĠSou sa
Ġexplo ram
Ġmanda to
Ġassass inado
Ġdetalha das
** **
Ġinfer iores
Ġabran gÃªncia
Ġdita dor
ĠelÃ© trico
Ġcompan h
Ġporqu Ãªs
ĠHam ilton
ĠÃĢ s
grÃ¡ fico
ĠConsul ta
Ġpedia tra
Ġabsolu to
Ġimplementa das
ĠHepati te
Ġinven tou
IZA ÃĩÃĥO
ĠBi om
Ġmorce go
Ġtel emedicina
ĠST J
Ġatrapal har
ĠsÃŃn dromes
Ch ina
Ġrino v
Ġdelica do
Ġinim igo
Ġsenh as
Ġoperado ras
ĠAmbi ental
Ġdesnu triÃ§Ã£o
Ġinstan tÃ¢
Ġmultivac inaÃ§Ã£o
Ġsustent Ã¡veis
Ġtornozel eira
ĠFr onte
Ġcolun ista
ĠEmira dos
Ġviven cia
ĠBota fogo
ĠElizabe th
Ġacos tu
? !
D V
D o
G UN
g Ãªnio
l Ã©
p om
p ical
r mico
u dio
ra tiva
as sem
er ro
qu ase
re z
Ġo posi
to no
de pu
Ġf res
Ġdo ou
Ġdo wnloa
ĠA vis
men s
Ġin como
Ġt ente
ĠC us
ĠC IR
ĠC unha
un as
ĠM y
ĠM orro
ĠO fic
Ġpro miss
Ġte rap
ĠD ita
ĠD ina
ĠR us
ĠR ando
oc k
ec ei
Ġac al
la do
cion am
ed cil
Ġpre viu
ĠJ BS
Ġim per
Ġim Ã³vel
Ġpar Ã³
Ġpar tos
ca tru
fic ante
cl ÃŃn
gra do
fica da
Ġconf isco
Ġsegu iu
pon ente
Ġme di
Ġon col
ĠEn vie
Ġel en
Ã¡s ia
it y
ĠQ R
Ġdire cionada
Ġimp r
ĠOu ro
Ġli teral
car ia
Ġutil izaram
Ġcam pos
ĠÃ³ xido
TA VEL
OS A
ch en
Ġ10 6
Ġpromo vem
Ġimun ocom
Ġlu zes
Ġsol tura
ER O
Ġautor izadas
Ġ19 0
Ġ19 80
Ġ19 98
mis mo
Ġapare cido
Ġsinto m
Ġcontinu em
Ġ14 2
Ġ11 3
ĠPo vo
Ġquer idos
ib Ã£
Ġedi Ã§Ãµes
Ġedi tado
ĠPer iodicamente
Ġdig es
Ġrespira dor
Ġisola da
Ġdefin ida
Ġpreocu par
Ġla you
Ġating ida
Ġfavor Ã¡veis
ĠÃģ rabes
Ġquin to
ĠMo inhos
ĠRE PAS
Ġri tuais
Ġce ga
Ġreceb am
Ġobser vou
encia do
Ġder ro
Ġdigital mente
ĠGa za
ĠMe trÃ³poles
Ġanalisar mos
Ġmulti disciplinares
Ġprome tido
Ġflu v
Ġtransmiss or
Ġren uncia
ĠMac edo
Ġluc rar
Ġcredencia das
Ġcorrespon dem
ĠGil berto
Ġalar me
ĠcirÃºrg ica
Ġassus tada
Ġforne cido
Ġfi br
bac ter
ond res
Ġtransfer idos
Ġdefen dido
Ġchoc antes
Ġalinha dos
Ġconcor da
Por tal
Ġhem oc
ĠodontolÃ³g icas
Ġformal de
Ġdefini tivo
Ġrigor osos
Ġnegocia Ã§Ãµes
ĠVic tor
Ġvalida r
ĠSho pee
Ġcrist Ã£
Ġqueb rado
ĠUPA s
Ġultrapas sa
Ġveic ulada
Ġenvel h
ĠYp Ãª
Ġaeropor tos
Ġsatis faÃ§Ã£o
Ġbara ta
ĠConsul tÃ³rio
Ġproteg ido
Ġfuncional idades
ĠMIL HÃķES
Ġvege tal
ĠHist Ã³rias
Ġmex er
Ġirrevers ÃŃveis
Ġdefici Ãªncias
ĠMAS CARA
Ġdissemina dores
ĠDiagn Ã³stico
ĠST M
Ġisrael enses
ĠKal il
Ġeurope u
ĠDiver sas
Ġsangra mento
ĠMad rid
UNA I
pica is
Ġhemorr Ã¡gica
Ġcontagios a
Ġmenstru al
ĠSchw ab
Ġdestila das
tf lix
Ġetique ta
VÃį RUS
opa usa
ĠSebasti Ã£o
Ġperforman ce
Ġdesabaf o
Ġlegu mes
RITI BA
ĠLance t
Ġcolorre tal
iten ci
Ġcompanh ias
* ,
7 60
F a
P res
U Z
g es
g ripe
h l
p Ã³s
Ġ ral
Ġa de
es el
Ġc ro
Ġde vo
er da
or Ã©
te xto
te iros
Ġqu Ã£o
do bra
de mos
Ġf Ã´
Ã© us
on Ã¡u
Ġv istas
an tis
ri tais
Ġem bol
Ġre uma
Ġre daÃ§Ã£o
ul l
cia ta
Ã³ rida
so bre
ĠM enti
Ġpro ve
Ġpro veni
ha t
oc ando
ĠF L
Ġso z
om b
ĠT Ã³
ĠT CU
Ġex itos
ĠI panema
pe ram
Ġfa cial
ĠL ondres
Ġres istentes
Ġpre ta
ĠU til
pa tida
ĠMinist ros
Ġcor rer
Ġpres su
Ġpres ÃŃdio
Ġcontra par
Ġconf ia
ula das
Ġvi rado
og Ãª
ess ar
Ġman sÃ£o
ĠOs eltamivir
ÃŃn hamos
Ġ7 22
Ġsa ia
ES A
ĠSan tarÃ©m
Ġinte lectual
Ġrecu sou
Ġori entou
Ġven tilaÃ§Ã£o
ios e
ios as
ĠSo ciais
pec u
Ġdivul garam
cas t
Ġaju dem
Ġgan he
Ġro edores
par Ãªncia
Ġorgan izados
af fari
eja mento
ĠPre feito
Ġimpac tantes
Ġbusca das
Ġprior iza
Ġsig il
Ġdig amos
Ġreun indo
Ġfec hando
ĠTab ela
tÃ¡ vio
Ġacredi tou
Ġdefin idas
ĠGo v
vil a
Ġmer ca
ĠCl im
Ġmode rados
ĠLei tÃ£o
ĠSal les
17 9
Ġri queza
ĠMes si
ĠNova k
ĠNova mente
Ġof ÃŃcio
ĠAd ministraÃ§Ã£o
Ġdissem inado
Ġarma Ã§Ã£o
Ġcul tivo
ĠPe qu
Ġadminist radas
Ġcoorden ar
ÃŃm ica
eg ro
Ġexpan s
Ġpropa gan
Ġbanc Ã¡ria
Ġaproxima r
cha ve
ĠfarmacÃªu ticas
Ġmilag roso
ĠPRO F
Ġcarta z
Ġregular idade
Con s
ĠCria do
ĠRu b
Ġconv oca
Ġintensi ficaÃ§Ã£o
Ġfabrica das
Ġcredencia dos
Ġcho rar
ĠPas so
ĠBr una
ĠMor talidade
Ġfen il
ĠcirÃºrg ico
ĠgenÃ© ticos
ze patida
toria mente
Ġatua rem
Ġcolate ral
Qu e
Ġcompos tos
ĠMal one
ĠCamp ina
Ġrespei tar
Ġconspira cionistas
Ġeng lo
ĠFac t
Ġsubme tidos
Ġintensa mente
Ġdefini tivamente
Ġverifica das
Ġembas ar
ĠÃ´ nus
Ġfome pizol
DOR ES
ĠRen an
ĠFlÃ¡ via
Ġcomentar ista
Ġvege tais
ht ml
Ġsent indo
Ġpudes sem
ĠHol anda
ĠEqu idade
Ġdiferencia do
ĠmÃºlti pla
Ġconfigu ra
ĠNAS A
BL ICA
ĠPrimeira mente
ĠENT RE
ĠPROTE CAO
Ġmanche te
Ġmanche tes
Ġdeli be
ĠLEI TOS
Ġcontracep tivos
Ġpsiquia tra
ĠparÃ¡ grafo
ĠvÃ´m itos
Ġcoag ulaÃ§Ã£o
ĠDESCAR TAVEL
ĠRepor tagem
Ġpercep Ã§Ã£o
Ġcienti ficamente
ĠRap hael
Ġurban as
Ġagon istas
ĠSafa tle
ĠDefini tivamente
ĠBenjam in
Ġimunocom prome
9 50
U RGENTE
b ina
h or
h ma
i bal
i vados
k ins
l ara
l ina
l um
p ico
p sias
Ġ zap
Ġd il
es ley
Ġp q
Ġs ist
in ite
Ġco pos
te rais
Ġf el
Ġf elizmente
ti vite
ÃŃ fica
ĠP neum
em pic
Ġcon to
ul tores
Ãº or
Ãª nios
ĠM iami
ĠB ac
ĠB iologia
Ġl av
ĠO sas
Ġte las
Ġdes lig
Ġsu cos
ĠF lo
ĠF ach
Ġal gor
vi Ã¡ria
Ġac aso
Ġpa gando
ĠV it
ed der
ĠG ros
ĠH ORA
Ġentre gando
Ġinter nas
Ġinter ministerial
ĠIn quÃ©rito
Ġpos terior
dem oc
ten egro
Ġaten dam
Ġnas cido
vid or
Ġconta da
Ġau dio
Ġne gado
ĠDe ol
Ġdis fun
ĠCon go
rg ia
Ã©d icas
lo bo
Ġti ros
Ġman jada
bil iza
Ġcan nabis
ĠRe forma
ĠRe umatologia
ĠLe al
Ġtu a
Ġli tera
Ġli quida
menta da
ĠÃ³ timo
Ġtele jornal
bo i
tr Ã¡
Ġsus to
Ġsim ulaÃ§Ã£o
ĠMar k
ĠMar y
ĠMar ques
Ġaconte Ã§a
Ġprote gem
Ġdeix em
Ġve jo
Ġsan Ã§Ã£o
Ġdesenvol vem
IS A
Ġro t
Ġdetal hado
Ġorgan izadas
ĠTam iflu
Ġreduz em
Ġquer ido
16 61
ĠNe tflix
Ġescol ares
Ġfra gil
ĠInf ra
Ġpla us
Ġresol ve
Ġresol vido
ĠDO EN
Ġespe ranÃ§as
Ġproduz iu
ĠDu que
ser viÃ§o
Ġconstru indo
Ġsenti u
Ġcola borar
Ġobri gaÃ§Ã£o
Ġobri gados
Ġmelho rando
Ġreceb Ãª
Ġafe tado
ĠVen to
Ġtiv essem
ĠFl Ã³rida
Ġens inar
Ġceleb rar
Ġonc olÃ³gico
tero ide
Ġespan to
Ġregular izaÃ§Ã£o
Ġconv in
Ġinstala dos
Ġapar tamento
Ġcolo que
Ġarre pen
ĠMor re
Ġfl Ãºor
Ġassus tar
ĠTi juca
Ġprinc esa
Ġconcre tiz
Ġmoder nos
ĠSupre ma
Ġposicion ou
ĠMon tenegro
Ġpers istente
Ġesqu ecer
NT ech
Ġadministra tivos
Ġagres sivo
Ġmis sa
Ġcereb rais
Ġcomemo rando
Ġinger ida
ĠTal ibÃ£
Ġnutricion ista
ĠCU RITIBA
Ġflores ta
Ġpedia tria
Ġexage rada
ĠgenÃ©r icas
Ġpip ocar
Ġbic ic
ĠTRA TAMENTO
ĠEqu ador
Ġmalicios o
Ġzo on
Ġhospe da
Ar quivo
Ġclandes tina
ĠTel essa
Ġacons elha
Ġalu guel
Ġgr Ã£os
iclÃŃn ica
Ġsobrecar ga
Ġsinist ros
isf Ã©rio
ĠJin ping
ĠRez ende
Ġpratel eiras
Ġaprofun dar
ĠCasca vel
ĠOsas co
? ).
C C
E RAL
G UA
I ÃĥO
S VS
] .
g lutida
m orte
r en
s ter
Ġ ilha
Ġa tivas
ra dor
en ko
Ġc Ã¢mara
Ġf ul
Ġque brou
ÃŃ so
ĠS ec
Ġem patia
ci ru
Ġcon tenÃ§Ã£o
ĠC P
ĠE U
ĠE lia
ĠE vite
Ġse den
Ġh ol
Ãª x
ĠM EC
ĠB ri
Ġum idade
ĠO tÃ¡vio
ĠD Ã©
ĠD ocu
ĠR ol
gu arda
ĠF inal
ĠF ique
Ġal o
Ġal de
Ġso mando
Ġso cie
ĠT RAN
Ġac r
Ġfal catru
ĠL ira
ed da
ed uca
ĠG ran
Ġres ÃŃduos
Ġcas sinos
Ġim plica
ig as
cu ma
Ġpres as
Ġpres sa
Ġconf us
Ġvi veu
Ġcl ica
Ġ5 64
enh amos
ĠAn derson
Ġapres ente
cis Ã£o
Ġcan to
Ġcompartil ham
Ġmostra da
ĠQu ero
ur ras
ĠMar gare
Ġ10 2
AS E
Ġampl iam
Ġpra zer
âĢ¦ âĢĿ
Ġlin e
Ġcara s
IA R
li das
Ġautor izados
Ġhom olog
77 1
ĠEx cepcionais
Ġpass em
Ġmal es
Ġcus tar
vido u
Ġ11 2
25 2
Ġproce dem
ĠDa ily
Ġativ ista
Ġcirurg iÃ£o
has sem
Ġrepas sando
PI RA
ĠDist rital
Ġcur tidas
Ġpla teia
Ġpergun tou
Ġcorpo rais
ĠAp ocalipse
Ġespec tro
dica is
Ġrem essa
ĠDia betes
Ġmer ecem
Ġacusa da
Ġveri ficado
ĠrÃ¡pi das
Ġvul cÃ£o
su b
Ġinternacional mente
Ġtan ques
Ġengan osas
AC EN
ĠTer esa
Ġestima do
Ġresponsa bilidades
ĠComun ica
Ġconh ecem
Ġmicro chip
Ġadqui rida
In stituto
ĠBRAS ÃįLIA
Ġcapaci ta
Ġassina turas
ĠPr EP
ĠCha pec
Ġencaminha da
ON U
ustria is
ĠPed imos
Ġcontempla do
ÃŃss imas
ĠlÃ³g ico
Ġaudi toria
Ã³di gos
Ġmodi ficar
Qu em
Ġoftalm ol
ITA R
Ġprocessa do
Ġirreg ulares
Ġenf im
Ġcompet entes
Ġlou ca
ĠPode mos
ĠPRE V
Ġchip s
Ġprolon gado
Ġigno ra
Ġinoc ente
Ġinovado ra
Ġfuncional idade
Ġdesinforma Ã§Ãµes
Ġdescul pa
Ġshopping s
Ġexces siva
ĠKar ina
ĠvÃ¡l ido
Des de
Vac ina
sor olÃ³gico
ĠVir tual
Ġdimen sÃ£o
conta to
Ġcorrup to
Ġfict ÃŃcios
Ġeurope us
Ġfib rose
INH EIRO
Ġpredomin ante
Ġsensi bilizar
Ġhidra taÃ§Ã£o
pesso as
ĠCole tiva
ĠIMPOR TANTE
ĠtÃ³ xico
Ġtir zepatida
Ġmira bol
ĠAcolh imento
Ġintro duz
Ġtempesta de
Ġestaduniden se
ĠAeropor to
ĠglÃ¢nd ula
ĠnÃºc leo
ĠCampe onato
ĠOro pouche
ĠDina marca
Ġpropagan das
ĠFach in
Ġlitera tura
1 30
8 50
C entro
I ns
L u
S em
l ulas
m Ã³
u mente
z ol
Ġp ilares
en z
Ġc ÃŃ
Ġc Ã³digos
ta g
er p
in formaÃ§Ã£o
in Ã©is
Ġf ral
Ã© ticas
ar sas
Ã¡ dio
on so
Ġv Ã©s
Ġcom endo
Ġcom umente
Ġdo mina
ti ficar
ti veram
Ġin tima
ĠP on
ĠP ho
ĠP SE
ĠC AN
ĠC aval
Ġg rosso
Ġpor tadoras
ĠN est
Ġdes acredi
ĠD er
ter ou
ita zo
ita riamente
ĠF AC
Ġso mb
Ġso zinha
ĠT ix
ĠT ite
Ġest Ãºdio
ĠL eitos
Ġres trito
ga mentos
ĠJ ournal
qui dos
Ġim er
ru gas
ĠIn cen
est ÃŃ
Ġver ifique
ĠPor chat
Ġnas ce
Âł Âł
Ġcor ona
ĠAl yne
Ġconf ec
ĠCo pas
Ġvi rando
Ġdis cipl
Ġcl am
Ġgra va
Ġcar tas
Ġle vados
Ġacor dar
Ġman jado
Ġch arada
Ġtrans plan
Ġaponta das
ĠAn al
ĠAn dro
cis o
Ġpe go
Ġpe rante
Ġpe garam
Ġcan tos
lin g
Ġpes ad
Ġsa t
Ġrela t
ĠQu in
za da
Ġrep le
ian na
ĠDE F
ch i
Ġgaran tam
Ġapo iam
Ġcr er
Ġven ha
Ġsol ta
Ġdocu mentÃ¡rio
Ġconse cu
NG A
ĠCa iado
ĠRo da
TO U
tin os
84 0
Ã³r cio
AM E
ĠInf Ã¢ncia
Ġgen itais
Ġacess os
Ġba tido
Ġproduto ra
Ġvar ÃŃola
Ġvar icela
Ãģ RIOS
IN TO
Ġla tas
Ġprof un
ĠMA L
Ġnormal idade
Ġafe tando
Ġmic r
Ġfic tÃŃcias
Ġbar ulho
AC IONAL
ĠTrans parÃªncia
Ġinsta u
Ġempre gados
ĠgrÃ¡ fico
Ġadqui rido
Ġapre cia
Ġpne umo
Ġexecu tado
Ġexecu tados
Ġmol ho
Ġdeci de
Ġintensi ficou
34 35
Ġcap taÃ§Ã£o
Ġsuj eitas
Ġestim ulando
Ġprop Ãµe
Ġcompos tas
Ġcurios a
ĠGen til
Ġambul Ã¢ncia
ĠBon ito
ĠSER VI
Ġinfluencia dor
ĠbiolÃ³g icos
Ġenf re
ĠRela tÃ³rio
Ġsubme tido
ĠCAM P
Ġtempor Ã¡rio
Ġginec ologista
Ġtera pe
ej um
Ġina tiva
Ġsens ÃŃvel
Fo to
Ġdent istas
ĠME DIC
pir ona
Ġdel ta
Ġy ou
Ġindis pen
CIO NAL
TAN DO
Ġproprie tÃ¡rio
Ġacessa do
Ġsupri r
Ġequil ÃŃbrio
ĠClu be
Ġengra vida
Ġisrael ense
Ġcorrup tos
ĠCorona Vac
Ġabandona do
ĠMU ITO
Ġhon ra
Ġhormon al
Ġsupervis ion
ĠINFOR MA
Ġaz eite
Ġbro tou
ĠClÃ¡u dio
Ġfuman tes
tolog istas
Au xÃŃlio
ĠnÃ¡ useas
ĠFan tÃ¡stico
Ġnotici Ã¡rio
ĠDani ela
ĠLis boa
Ġpreferencial mente
ĠConsum idor
ĠCirurg ia
xan ida
bedi Ãªncia
ĠCae tano
Ġcalam idade
ĠImpera triz
Ġlayou t
itazo xanida
ĠTix an
* .
9 60
C u
F I
H PV
S esai
T ra
c ind
d ulos
g ro
g no
j ica
p em
t inhos
u Ã§Ãµes
z eno
Ġ Ã³s
Ġd onos
os co
Ġs log
ia t
Ġo k
Ġo culares
Ġf Ã£
al u
Ġv elhas
ti f
Ġes pero
Ġt ÃŃnhamos
ci r
ĠC F
Ãº s
Ġg ado
ĠB ig
Ġpro gresso
Ġte cla
Ġdes dobra
ĠR ie
ĠR DC
ĠF eliz
Ġso pa
se quer
Ġan Ã´nimo
Ġex clusÃ£o
Ġac eito
Ġac entu
ĠEs cu
Ġca ci
Ġca ÃŃdo
Ġca ÃŃram
ĠL ista
Ġent ramos
ed ficos
ĠG an
ce didas
ĠH idro
Ġpr ÃŃncipe
Ġentre vis
Ġpar ente
Ġpar tiu
ĠIn forme
der ivados
Ġver ÃŃ
ĠW it
ja das
ĠAl deia
Ġau mente
Ã³s ia
Ġam pu
Ġsem inÃ¡rio
Ġcar im
bu rg
Ġman ga
Ġch orou
Ġtrans f
Ġaponta dos
ĠAn Ã¡polis
har es
Ġpes ado
Ġcome ter
Ġtr Ã¡gico
Ġela borou
ing e
Ġche guem
za dos
Ġten de
Ġ10 1
Ġpra ta
Ġpra tos
aix Ã£o
Ġlu tando
ĠLu ta
Ġta manha
ĠFo od
ĠSecre tÃ¡ria
Ġpol o
Ġva zamento
Ġprocu rado
Ġ14 5
ĠCas tela
ĠVal ores
Ġgest Ãµes
ĠAr boviroses
ĠPre ta
ĠY e
Ġgri tos
Ġimpac ta
ĠZ affari
10 4
Ġpal ha
Ġconstru iu
Ġevid ente
Ġentrevista das
Ġref lexo
ĠReg ula
Ġsigni ficar
Ġtoma rem
tex tos
ĠhistÃ³r icas
Ġhabilita das
Ġanuncia dos
PA TI
ĠGe t
Ġmode rada
Ġcorre Ã§Ã£o
Ġaci r
AB DI
ĠRE DE
ĠEl isa
Ġatender Ã¡
Ġfinancia do
Ġclassi ficar
Ġgas es
Ġengan oso
ĠPe quim
Ġplaneja da
Ġimpres cind
ome tria
Ã³p ia
Ġconclu ÃŃda
ĠEstra t
99 9
Ġcompor ta
ĠTa xa
Ġcoloca das
ĠAT END
Ġsensacional ismo
fan e
mu itas
Ġope radora
Ġmoder na
Ġaprovei tam
Ġapu rar
Ġnor des
Ġabando no
ĠPen ha
Ġsubme ter
Ġverifica dos
ĠterapÃªu ticos
Ġsepara Ã§Ã£o
ĠavanÃ§ ando
ĠPetro lina
Ġestiv essem
ĠlegÃŃ timas
Ġespor tivas
Ġmanipula das
Ġconqu istas
kk kk
bom ba
Ġelog ios
ĠMelh or
ĠCient ÃŃfico
Ġpris Ãµes
Ġpreserva tivo
Ġevi tem
Ġpad res
comp artil
Ġpeda Ã§o
ĠJac are
Ġreag ir
Ġorig inais
ĠLac erda
ĠPOL Ãį
Ġrecicla gem
Ġaprend izado
Ġpalest ras
ĠOz empic
ĠIndepend entemente
ĠFon seca
ĠVAL OR
Ġflex i
Ġcoto ne
Ġantirretro viral
ĠiPh one
Ġfigur inhas
Ġimagin Ã¡vamos
Ġvist oria
Ġotorrinolaring ologia
ĠRando l
Ġcontrapar tida
Ġalgor it
Ġenfre tamento
A ss
F or
I MA
P OR
P RE
S u
T emos
a qu
a ma
e raÃ§Ã£o
e cimento
i er
m un
w e
x ar
Ð °
Ġ ida
Ġ ram
Ġc Ãºpula
to conta
al l
ti ve
ĠA PA
ĠA tividade
ĠS ustentÃ¡vel
Ġem pol
Ġre vistas
el ina
ĠP MAQ
ĠC aco
cia m
so mos
Ġh es
Ãª go
ĠB ei
Ġl Ãº
Ġl om
Ġpro fer
Ġpro posto
am inina
ĠN ACIONAL
Ġ2 80
ita dos
tra to
tra Ã§Ã£o
Ġou vi
Ġan ormal
ĠT AB
Ġex istente
Ġac h
Ġpo tÃ¡vel
Ġest ÃŃm
ĠEs pec
Ġfa tais
Ġfa vela
cion Ã¡rios
Ġto po
Ġmen cionando
Ġesta tal
pa to
tar ismo
ĠIn troduÃ§Ã£o
fic it
ĠNa cionais
Ġnas cimentos
Ġne ona
ula gem
Ġvi ola
Ġele va
Ġam izade
Ġfaz emos
ven tos
Ġgra vaÃ§Ãµes
Ġme tal
Ġcar idade
Ġti p
Ġarti ficiais
ĠAn tun
Ġpe gando
Ġdire cionadas
ES PI
Ġrep entina
Ġbus cou
Ġ10 8
Ġfil tros
ĠES QUER
Ġpra tic
var tis
Ġven cedor
ĠSa ps
pec tivas
Ġpon tuais
Ġ18 8
ĠCa p
ĠCa pi
Ġrecomenda m
Ġbal as
Ġexplica m
Ġconsegu i
Ġconsul tÃ³rio
ĠPA N
IV O
ĠCor reia
Ġjornal ÃŃsticas
deu a
Ġpergun tando
Ġatribu iÃ§Ãµes
ĠMu jica
Ġ27 0
Ġuni forme
Ġsenti mento
Ġsenti mentos
vor e
bar Ã£o
Ġla dos
Ġla menta
Ġprov ou
Ġanuncia das
Ġagra var
Ġvir tude
Ġfede raÃ§Ã£o
Ġimpe dindo
ĠBan k
Ġsemelh anÃ§a
Ġdecre tado
Ġtom em
ĠLi berdade
iden cial
Ġconh eceu
Ġacontecer ia
Ġremo to
Ġpropor cionou
Ġobriga t
ÃĬ N
Ġintoxica Ã§Ãµes
Ġofere cidas
Ġvaz ia
Ġaut Ãªn
Ġgravi ola
ĠAP ÃĵS
Ġga ys
Ġatuar Ã£o
ĠAB C
Ġapreen didos
Pro adi
Ġbloque ado
ĠConstitu cional
Ġhumor ista
Ġpercent uais
Ġcancela da
dire tor
ĠVAC INAS
Ġparticular mente
Ġgigantes ca
pir ose
Ġmuda ram
Ġnutricion istas
ĠsanguÃŃ neo
Ġfalsi ficaÃ§Ã£o
Ġajus te
Ġconvers ando
Ġingredi ente
Ġinex istente
Ġinse to
Ġsobr en
Ġcansa dos
ĠalcanÃ§a dos
Ġmig ra
Ġinteressa das
amba relli
Ġpot Ãªncia
Ġacelera dores
Ġneu tral
Ġtatu agem
Ġreb orn
ĠVÃį RUS
Ġinadequ ada
Ġapag Ã£o
ĠCOMPARTILH E
ĠrÃ³ tulos
ĠCORONA VÃįRUS
Ġdefens ores
ĠAz iz
ĠPel Ã©
ĠBarcel ona
Ġnucle ar
ĠAndara ÃŃ
Ġinto lerÃ¢ncia
ptos pirose
ĠInfra estrutura
Ġseden tarismo
ĠGentil i
toconta gios
ĠAntun es
F N
F unda
G AS
M M
P e
R Ã¡dio
T ÃĥO
b olsonaro
b ano
c ista
d iz
f ÃŃcios
i vas
l it
s an
u o
w o
Ġa ver
ra que
as h
Ġm l
re vel
Ġo ra
te ter
te io
do na
ic ologia
Ġda das
ĠS OL
Ġre ta
Ġre tro
Ġt enhamos
ĠP Ã¡
ĠP GR
Ġcon so
Ġcon dom
Ã³ teo
Ãª me
ĠM am
ĠM ala
ĠM pox
Ġpor cos
Ġdes enh
ha das
ter Ã¡
oc aÃ§Ã£o
ĠF iat
tes te
Ġdi pirona
Ġest ende
ed lio
Ġinf antis
ĠG i
Ġres um
Ġmen su
gen o
Ġper fei
Ġper feita
cu idado
Ġass istente
Ġi Food
av or
Ġmensa geiro
Ġne ve
Ġne ur
Ġsegu iram
ĠPa gue
Ġcu ram
Ġme tr
Ġma us
fa ia
fa zer
Ġcar nes
Ġind ustriais
Ġle ilÃ£o
Ġarti fÃŃcio
ĠLe tÃŃcia
Ġsa em
Ġpassa geiro
ĠPro duÃ§Ã£o
Ġli tro
Ġdiver g
ene g
EN AS
Ġra dar
Ġra pper
Ġapo iou
ĠMa pa
Ġali viar
Ġviral iza
ĠEspecial izado
Ġespal he
Ġusa va
ĠInterna tional
Ġge raÃ§Ãµes
ĠRo yal
Ġcaracter iza
Ġlo bisomem
Ġmal ef
ĠInstitu iÃ§Ãµes
emb ros
pas sa
pro mo
Ġorienta do
ĠNe u
ĠJo ana
Ġimpac tam
CO E
Ġcal culado
Ġpul ga
Ġajuda ram
Ġespe tÃ¡
Ġressal va
Ġdiscu te
ĠReg inaldo
Ġtoma m
Ġestrutura do
ĠPar kinson
Ġating idas
Ġfavor ece
verm elha
ĠIm plan
ĠÃģ l
Ġventila dor
ĠMed ic
ĠNO ME
Ġobri gada
Ġbrin de
Ġpron tas
Ġpassar Ã£o
Ġri tual
Ġrecor des
Ġlibe rando
ise tas
ĠSE US
ĠOl ho
Ġfacil itando
Ġjog ou
Ġleg i
ĠCol o
Ġquestion ado
Ġestima tivas
Ġprome teu
37 13
Ġtar dio
Ġopera cionais
Ġpne u
ĠPr Ã©
Ġsequ enciamento
Ġmol Ã©
ĠMaran h
Ġprorro gando
Ġameric anas
Ġaut ista
ĠDig nidade
ĠMor tes
Ġvas to
roso ft
Ġfi quei
Ġassegu rando
Ġtranspar ente
Ġsobrevi ve
Ġdemo rar
Ġperten cem
Ġpat riotas
Ġinva dido
Ġdesapare cimento
UBS I
Ġespalha dos
Ġconscienti za
ĠDom ic
ĠTim Ã³teo
Ġrecupera das
ĠKa ya
Ġrefle tem
Ġfos fo
ĠSor ridente
ĠCR IM
ĠPos teriormente
Ġexter nas
Ġembar caÃ§Ã£o
Ġates tar
Ġacum ulados
ĠAng Ã©lica
Ġdedica da
Ġpros segu
Ġimpression antes
ĠCU IDA
ĠIntegra Ã§Ã£o
ĠAdo lfo
Ġbizar ra
ĠONG s
Ġcub ano
ĠmaÃ§ onaria
CN P
ĠTen tamos
gover nador
Ġincon stitucional
Ġrepercu tiu
Ġerra d
Ġmotiva da
ĠZel ens
Ġafric ano
Ġafric anos
ĠsÃº bito
ĠClu bes
qual ifica
raqu ara
ĠjuÃŃ za
Ġgradual mente
ĠgeogrÃ¡ fica
Ġdesencade ar
Ġcogni tivo
Ġmetabol izada
Ġpolu iÃ§Ã£o
Ġprofe cia
Ġbrinque do
ĠMarcel lo
Ġmioc ardite
Ġderi vados
Ġflag rante
Ġcabel os
ĠStra uss
ĠRic hard
Ġautomed icaÃ§Ã£o
ĠThia go
Ġplane jar
ĠTranspl antes
ĠModer na
Ġdesavisa dos
ĠMAI OR
ĠBau ru
ĠSaud Ã¡vel
depu tado
onÃ¡u tica
ĠRub ens
ĠAndro id
Ġslog an
3 64
C NS
E le
c to
c enta
g in
g ito
h ite
l ite
r cio
u bes
v s
v aram
Ð µ
Ġ $
Ġp Ã¡ss
Ġp Ãªnis
Ġc Ã³r
er do
er ou
Ġs entem
qu ista
Ġco g
Ġco lis
ma ior
Ġf ron
an ia
ĠA didas
ĠA bas
ÃŃ sa
Ġem penho
âĢ Ķ
ul tado
Ãº lio
ĠE con
Ã³ logo
ĠM PF
ĠB ur
ĠB AN
ĠB our
ĠD am
ĠR Ãªgo
Ġas ilo
Ġas teroide
oc ola
oc ÃŃdio
Ġal t
Ġal iada
vi ol
Ġser vindo
Ġan tec
ĠT ran
Ġac es
Ġac Ãºmulo
Ġdi Ã¡rios
la ia
ve ras
des se
ver sÃ£o
Ġat mos
Ġat leta
Ġto a
ĠL il
ĠL og
ed das
ĠG or
ĠG la
Ġpar tÃŃculas
Ġper if
Ġmo vido
Ġver duras
ĠW ei
Ġaten u
Ġnas cer
Ġconta gem
ĠAl go
ĠNo tÃŃcia
ĠNo vartis
ĠCon t
Ġcons ol
Ġcl ubes
Ġsegu idas
Ġlei tora
Ġfaz endas
ĠPa t
Ġr inite
Ġcar os
ĠEn gen
Ġman us
Ġfun er
Ġfun gos
ĠQ UA
Ġdire tores
Ġpes ar
Ġsa tan
ES P
one te
Ġdist rital
Ġra dicais
Ġcuida ndo
ch u
ĠMar iel
Ġfil tro
Ġrefor mas
Ġhospital izaÃ§Ã£o
âĢ¦ ..
Ġimun izados
Ġven cida
gua pe
Ġsol tar
Ġautor izada
Ġautor izam
Ġir on
ĠDire toria
Ġsal to
Ġsal iva
ĠCar tÃ£o
Ġ13 3
pas s
Ġcole tados
Ġfoto grafia
Ã³r ico
AM B
Ġrepas sou
ĠIN D
ĠMen sal
Ġfu ro
ĠZ im
ĠZ ema
ĠAg SUS
ĠAma relo
CO OL
Ġcen to
Ġ200 1
Ġbol o
60 8
IN C
IN DO
Ġdefin iu
Ġperman eceu
Ġliv rar
22 2
Ġobri gar
Ġhe ter
ĠPres ente
Ġreceb ida
ĠprÃ© via
ĠDA DOS
ean io
iel d
Ġmobil izou
Ġbi ol
Ġocu par
Ġdro gar
ĠAra raquara
Ġesti pula
Ġincorpo rados
Ġaproxima Ã§Ã£o
ĠIsrael ita
ĠNor ue
Ġpossibil itou
ĠpolÃªm ico
Ġrevol uÃ§Ã£o
ĠCA CON
Ġrealiza rem
Ġencer rou
Ġrepe tiÃ§Ã£o
ĠAP O
Ġconcre to
Ġvulner Ã¡vel
Ġsorte ios
Ġdenuncia do
ĠPO P
Ġespeci fica
Ġconjun tivite
UF RJ
Ġdesl ocar
ĠVol tando
Ġimuno preven
Ġinfluencia r
Ġexpres siva
LO G
ĠAca bou
VE IS
ĠRos ana
Ġacer ca
ĠEmer gen
Ġcondu tas
ĠJun te
ĠMic ro
cefal ite
Ġassist indo
Ġ68 21
Ġbizar ro
ĠQuer emos
Ġproteg idos
prim eira
Ġengen heiro
Ġinven tar
Ġpreser vaÃ§Ã£o
Ġantecipa da
ĠmÃºlti plas
ĠProcu ramos
ĠZel enko
ĠAmeric anas
Ġcampe Ã£o
Ġcamis inha
Ġescolhe u
ĠFi fa
inten dente
ĠAutor idades
ĠfÃ¡rma cos
Ġinspe Ã§Ã£o
Ġalem Ã£
ĠautÃ³ psia
ĠBOM BA
Ġemp ur
Ġacarre tar
ĠAcom pan
CAS AI
Ġcosm Ã©ticos
Ġbila teral
Ġmine rais
ĠTre inamento
lÃ¢m ico
Ġbei jo
ĠLeo pol
ĠBara ck
Ġpalia tivos
Ġcica triz
ĠPsi quia
ĠPedi Ã¡
ĠDita dura
ĠparÃ³ dia
ĠTelessa Ãºde
ĠRie u
ĠWit zel
ĠAbas te
ĠBour la
A IDS
E bserh
F arsas
G V
L ei
L eia
P ron
b eb
d Ãª
e tanol
e AP
f res
n ed
s urg
s tata
Ġd rÃ¡s
Ġa Ã§a
Ġa mo
Ġa gen
Ġp end
Ġc Ã£o
Ġc icl
Ġde vida
Ġde press
Ġe rupÃ§Ã£o
Ã© cio
ar ro
Ġv il
Ġv eias
ĠA di
ĠA CON
ĠA bril
ri ve
Ġem ba
Ġre ca
Ġin al
Ġin des
Ġin clusi
ĠC re
Ġse vera
ĠM ORA
Ġb re
Ġb af
ent ura
am Ã¡
ras ticamente
ĠD INHEIRO
Ġ2 51
di oca
gu ila
ĠF R
ĠF RAN
se gunda
Ġan tiv
ĠT Ã¢nia
Ġj ude
Ġdi visÃ£o
Ġcomo vente
Ġpa inÃ©is
ĠEs t
ĠEs tas
ĠV or
Ġca dÃ¡
Ġca teter
ĠL inha
ĠG aÃº
ĠG ambarelli
tam ira
Ġres istiu
Ġesta bilizaÃ§Ã£o
Ġter res
Ġcas eiro
Ġpre ver
ce ra
ĠH ab
po dendo
Ġtra ma
Ġinter rup
Ġper curso
Ġ3 60
Ġmo edas
Ġpos tar
Ġar trite
Ġass ume
tro fia
Ġcontra ria
Ġmor b
Ġne ta
Ġvi v
Ġvi raram
ĠCom er
tura Ã§Ã£o
Ġcu rado
Ġma tr
ĠPara na
Ġle ptospirose
Ġch urras
Ġ9 50
ĠÃº nicas
lis mo
Ġcan ad
ĠÃī tica
ĠCh r
ĠCh an
ĠPro con
za quistÃ£o
Ġutil idade
ĠMar ca
Ġinfec tocontagios
Ġsin dica
Ġgaran tida
ĠMa uro
NA R
Ġven en
TI VO
Ġresul ta
Ġresul tam
ada r
Ġcol onos
oria no
Ġsal do
ĠGeral mente
Ġfinal izou
ĠCa zaquistÃ£o
Ġvo tou
Ġreduz ida
Ġanti democ
Ġconsul tÃ³rios
Ġban heiros
Ġfac uldade
ĠY o
ĠCor onel
AN S
Ġprior izando
Ġespec tadores
Ġtor tura
Ġreun iram
ĠDu tra
tim idade
Ġficar Ã£o
IN SS
ex istentes
Ġdiscu tido
ĠmÃŃ dias
Ġcola bo
ĠPar ente
Ġadequ aÃ§Ãµes
Ġglo bo
ĠSal es
don da
UL OS
Ġino fen
ĠEl im
Ġreceb emos
ĠCe ilÃ¢ndia
Ġcul min
Ġimpe dido
Ġconcent rar
ĠFl oriano
Ġens ina
Ġinsta bilidade
RI BU
Ġconver sÃ£o
Ġexa ta
Ġdistor Ã§Ãµes
Ġarqui te
Ġju ventude
ĠSC NES
ĠUniversi t
Ġprorro gados
ban ho
Ġsustenta da
Ġparticipa rem
Ġigu ais
Ġconsolida dos
Ġtri go
ĠIr m
Ġgl ic
Ġgar im
Ġagrade Ã§o
ĠPra Ã§a
Ġx ing
UBS s
Ġespi on
Ġmus culares
Ġ53 66
Ġmel ancia
Ġmel anoma
Ġemb aixada
dire ita
ĠGer son
Ġrigor oso
ĠMic rosoft
Ġdram Ã¡ticos
Ġenfa tiza
Ġuniversi tÃ¡rio
ĠExempl os
grÃ¡ fica
Ġdevol ver
Ġrefu tada
Ġincapa ci
Ġhack er
Ġconfun dir
Ġinex istentes
Ġsobr ena
Ġsobr inho
Nos sa
ĠGl Ã³ria
Ġtex tÃ£o
ĠAmeric an
ĠInvesti mento
Ġrepu taÃ§Ã£o
ĠJer us
Ġdesig n
ĠObser va
Ġdepend entes
ĠTri partite
Ġaca demia
ĠMÃ¡r cia
Ã©ss emos
ĠProva velmente
Ġresfria do
ĠHav an
Ġimen sa
Ġirrespon sÃ¡vel
ĠpÃ³l io
Ġnegligencia das
ĠSena dor
Ġcompul s
Ġescul tura
gaz ine
jun ta
Ġdouto rado
ĠCaminh on
Ġanoma lias
Ġembarca Ã§Ãµes
Ġcircunst Ã¢ncias
Ġbole tins
ĠSci ence
Ġfura cÃ£o
Ġliteral mente
ĠMenti ra
ĠTÃ³ quio
Ġsocie dades
erp Ã©rio
ĠZelens ky
ĠAbaste cimento
Ġjude us
ĠcadÃ¡ ver
D AR
E B
H AR
M ENTO
a mentos
d ist
e pi
f one
l ic
l on
l ou
n eiro
t Ã©rio
y o
Ġ ente
Ĺ ī
Ġa mar
en Ã§oa
Ġe co
er i
Ġs Ã³sia
to mas
Ġf icas
ĠA mer
ĠS us
Ġre me
Ġin j
el le
ĠP OS
ĠP edia
ĠP Ãļ
ci forme
Ġcon tor
ĠC ra
ĠC rim
Ã³ bio
Ġse mentes
Ġl enta
Ġpor tos
Ġpor co
ĠD IAS
ĠR A
ĠF rota
ĠF anta
Ġal v
tra r
Ġan Ã´
ĠT EA
Ġest Ã©tica
ram as
des to
des co
Ġen cur
ĠG RI
ĠG andra
du a
Ġmen opausa
Ġpre cep
si Ãª
gen os
Ġper ÃŃcia
que te
enta da
Ġmo tivaÃ§Ã£o
Ġi ran
Ġdis sol
Ġins tÃ¢ncia
Ġman dando
Ġequi vale
bil izadas
esta Ã§Ã£o
lis es
ulo patia
ĠÃī lcio
Ġrela tam
Ġrela tiva
ag esp
Ġtele consul
ensa Ã§Ã£o
Ġbus cado
oca usto
Ġag ricultura
Ġten dem
Ã´n imos
ĠES F
Ġcompro vou
ĠMa ta
ĠLu z
TI CA
Ġsol tos
Ġsol dados
Ġresul taram
Ġlin f
ER J
Ġsan tas
Ġfin an
Ġfin ais
Ġdescon tex
EI RAS
Ġenfr entou
tin e
Ġquer iam
Ã³r nia
Ġescol has
ĠPre c
PI OS
ĠZ eca
ĠDo wn
Ġ200 4
Ġtor ne
Ġjun Ã§Ã£o
DE O
Es ses
Ġla zer
ĠCl ar
Ġdesaf ogar
eas a
Ġenferm idades
Ġtro pas
Ġhe in
ĠMo zar
Ġger enciamento
Ġdiminu iu
ĠreforÃ§a do
ĠCal if
Ġvaga bun
Ġcau tela
29 6
Ġesquer distas
Ġceleb ra
EC E
97 9
Ġconver sou
Ġesque Ã§a
Ġcumpri u
Ġcoordena dores
Ġartic ulada
Ãĵ POLIS
Ġdesem prego
Ġnar co
Ġevita das
Ġarre ca
Ġbomb Ã¡sticas
Ġadap tar
ĠCir Ãºrg
ĠIr mÃ£o
Ġaprovei tou
Ġpers istentes
Ġpers pectivas
Ġagrade cimento
Ġendere Ã§os
ĠFar ias
ĠLabora t
Ġalinha do
Ġadministra tivo
Ġcurios o
ĠodontolÃ³g ica
ĠKa te
Ġeng ol
Ġemisso ras
Ġcontrola do
ULA ÃĩÃĥO
ĠGer ente
Ġcondu tor
Ag SUS
ĠPRE CIS
Ġadmi tido
RN DS
fi quem
Ġmanipula dos
Ġsoro tipos
Ġviaj antes
fac e
Ġfirma do
Ġvende dor
Ġocul to
Ġrecep Ã§Ã£o
Ġadm ite
ĠCIA Tox
Ġantecipa do
Ġine fica
Ġcomprim ido
Ġdivid ir
DEM IA
ĠdomÃ©s ticos
Ġtrafic ante
ĠFigu eira
Ġreplica da
Me trÃ³poles
Ġconsider ou
ĠDec lara
ĠGre en
Ġamaz Ã´nica
Ġmedic inais
Ġmaravil hos
Ġdiscrim inaÃ§Ã£o
Ġanticoagul antes
AV C
sic ha
Ġpropos ital
Ġexitos as
Ġline ares
ĠCAMP ANHA
Ġdesdobra mentos
ĠACON TE
Ġdescontex tual
. )
0 40
A inda
A tual
B ar
C BO
I NG
P ER
T B
T C
T witter
T EIO
V ig
V OS
b ec
d m
d ina
f ou
g ir
i em
o x
y an
Ġd rasticamente
ra be
Ġe c
in em
Ġo este
te iras
Ġf ixa
Ġf Ã³rum
Ġv are
Ġcom it
ĠA MA
Ġes portes
Ġem pen
Ġre bel
il aminina
ĠP om
ul ou
ul inha
ĠC aram
Ãº lti
ol he
Ġb eta
ir Ã¡
tu ber
ha mento
Ġ1 55
Ġal Ã©rg
Ġfo mento
ec ulares
ĠI VIS
Ġpo dia
Ġpa ul
Ġca pi
ĠL AB
Ġres tos
ĠJ Ã©ss
tan al
Ġtra diÃ§Ã£o
iza gem
ca re
pl ic
tal vez
ĠSe tembro
Ġdia log
ĠAl tamira
Ġvi Ã¡vel
ĠCon tas
ĠCon diÃ§Ãµes
Ġam onto
tÃ© r
Ġcar inho
ĠEn do
OR O
Ġti rando
Ġob ede
Ã´ mo
Ġcont ras
Ġfun eral
har ma
br Ã¡s
ĠVer dade
Ġsa ÃŃrem
ĠPro adi
Ġpesqu is
Ġdesta cado
Ġcam isetas
ele raÃ§Ã£o
ene gal
ju ven
gue ra
Ġcompro vados
Ġcr enÃ§a
ios os
Ġconfirma m
ER G
Ġsan cionada
ĠDes tes
ĠEspecial ista
Ġ19 88
ĠFa zer
Ġaplica Ã§Ãµes
IS TAS
Ġpossu ÃŃa
Ġado ta
ĠRo ta
ĠRo blo
Ġ14 4
ĠSu porte
ĠEx pe
ĠEx po
Ġpass eio
25 00
Ġlon gas
ĠCas al
ĠCas tilho
Ġ23 1
AM ENTOS
Ġbom bas
ioc as
Ġale gam
Ġpergun tar
Ġdele gaÃ§Ã£o
ĠMan ter
Ġpal ma
Ġtrabalha va
IN O
Ġz inco
ĠFe bre
Ġidentifica mos
Ġbo tar
su per
Ġchin esas
Ġcarre gar
Ġaquis i
Ġnormal izaÃ§Ã£o
Ġelim inado
Ġsuspen de
Ġviol aÃ§Ã£o
Ġviol Ãªncias
Ġnu trem
ĠTrans torno
Ġcre me
Ġcomplica do
Ġpermi tida
Ġart ÃŃstica
ĠCan al
ĠHor in
ĠcomeÃ§a do
Ġaborda do
Ġcapaci taÃ§Ãµes
Ġapre endeu
Ġren ais
Ġren ome
ĠCha ves
Ġmol eculares
CI T
Ġdemonstra r
ĠÃįn dio
As socia
Ġrastre io
Ġga tos
Ġinaugu rado
ĠDig ite
ĠclÃ¡ss icas
ĠSol id
Ġacele rado
Ġrestri tivas
ĠavanÃ§a dos
Ġtransfer Ãªncias
Ġapr en
Ġescu ro
Ġsac erdo
Ġinva diu
Ġexplo rar
ĠDom ingos
Ġprocessa da
Ġinser Ã§Ã£o
ĠHa va
ĠðŁ ĩ
xi mando
Ġacum ula
ĠMOR TE
eda ca
Ġflagra da
Ġveic ulado
Ġprema turo
Ġincom ple
Ġconvoc ou
ĠIsa bela
Ġigno rar
ĠvÃŃn culos
Ġpega dinha
Ġbarra gem
Ġcond ensado
Ġtox inas
Ġmodern izar
Ġcontabil iza
ĠCB F
ĠneurolÃ³g icos
Ġcruz eiro
Ġrecep tor
Ġdesembar caram
Ġinova dores
Ġala go
ider mÃ³
Ġsangra mentos
Ġhorm Ã´nios
ĠPrÃ³ teses
Ġatro pela
iclÃŃn icas
ĠRespon da
ĠÃ¡r vore
ĠBarre to
ĠSG TES
ĠAplica da
Ġboico te
ĠcatÃ³l icos
Ġmano bra
ĠtransgÃªn icos
ĠFri boi
ĠGRU POS
itco in
Ġburoc racia
ĠJAN EIRO
ĠÃŃcon e
mul her
ĠEsc lare
Ġverea dor
ĠabenÃ§o e
ĠSau dita
ĠNest lÃ©
ĠRandol fe
Funda Ã§Ã£o
ĠPsiquia tria
etanol amina
ĠCalif Ã³rnia
ĠJÃ©ss ica
ĠRoblo x
idermÃ³ lise
4 35
6 51
A b
C P
H ER
I RA
S ecre
b um
f esp
g r
g inal
k el
k it
l ida
p pa
r m
s istas
s ung
y r
Ġa ven
Ġa tivamente
Ġa reia
Ġp ine
ra tivo
Ġde tido
Ġs Ãª
Ġn ico
Ġco var
Ġo rar
do cu
on gas
Ġes va
ĠE MSI
Ġh ero
Ġg re
Ġg ira
ĠM Ã³veis
Ġb ich
Ġb eij
Ġl un
ĠO R
Ġpor centa
Ġdes gra
Ġdes pre
Ġdes mon
im ou
Ġap an
Ġ1 91
va i
ĠF rio
ĠF rente
Ġal inhar
ĠT E
ĠT ral
Ġac hado
ĠI S
pe ba
ed plice
Ġres ist
Ġres ide
co isas
Ġcomp radas
Ġim postas
pa das
Ġtra Ã§Ã£o
tic idas
ig ht
ĠW a
ĠW il
20 6
Ġcor onavirus
Ġconta tar
Ġcontra tando
man dade
ĠDe tran
pres en
ĠEm ÃŃlio
ĠEm manuel
Ġcons tar
Ġcl oro
Ã©d ica
Ġme teor
Ġma tem
pul antes
ĠAn na
ĠAn han
ok o
Ġcome tido
RA ÃĩÃĥO
Ġpaci Ãªncia
Ġcita va
Ġav Ã´
ĠQu ar
ĠQu eiro
Ġpan ela
vas cular
ĠÃ³ tima
tre et
Ġag e
Ġag ric
ĠDi e
EN TAR
Ġpoder oso
ĠRes id
ĠMa gazine
Ġali ment
Ġven cedores
ĠLu tz
TI TU
Ġeu ros
Ġsal arial
ĠCar idade
ana to
Ġvo tado
Ġcontro vÃ©r
emb ol
Ġpou pan
ĠAr te
Ġfac ul
ĠIN C
ĠGu in
Ġcal do
Ġdig no
Ġjun tar
Ġresponder em
Ġgoverna mental
eds ticas
ĠX BB
Ġexperi mento
Ġperce bido
Ġsignifica do
Ãī R
Ġenvia m
ĠHo p
Ġquad rilha
ĠCent er
ĠNO TÃį
Ġobser vando
Ġder rame
Ġof f
ĠTe ve
ĠGa tti
ĠSE GU
Ġtur ismo
Ġcomb inada
ya hu
ĠPlan ejamento
Ġagu do
ribun ais
Ġfer ido
Ġprepara da
Ġdesconfia mos
iden ciais
ĠFre ixo
ĠcomeÃ§a rem
Ġcontar Ã£o
In toxica
Ġremo tos
Ġneg aram
ĠMil ei
Ġpropor cionando
Ġexer ci
cep Ã§Ã£o
Ġdesem pre
Ġbon ita
ĠBra zil
ĠBra hma
Ġlide rado
ces es
ĠESTA D
Ġapar iÃ§Ã£o
Ġpen sou
Ġgesta cional
Ġtri pulantes
Ġestru tural
Ġfran gos
Ġanalisa da
ĠMal Ã¡sia
Ġindepend entes
Ġabaste cidos
ĠFil ip
Ġchoc ou
Ġvig Ãªncia
Ġculpa do
Ġpreval entes
Ġgela deiras
ĠMÃ© todo
ĠSER Ãģ
Ġinser ir
ĠPen ido
ĠPaÃŃs es
Ġinventa das
Ġsepara mos
ĠRos Ã¡rio
Ġacer tou
ĠCOMP LE
Ġcondu tores
pir ina
Ġambula torial
ĠSam pa
Ġadmi tir
Ġdel ongas
ĠChar lie
Ġpuder em
Ġeconom ias
op olÃŃ
Ġgovern antes
ĠTen ho
Ġperi fer
ĠCient istas
PCD T
Ġjan tar
Ġderruba da
ĠsÃŃmbol os
ĠMeta b
Ġaguarda m
vest is
Ġinterfer ir
Ġpression ar
Ġreche ado
Ġfisioterape utas
Ġrino vÃŃrus
Ġhanta v
dei rantes
ĠMUNICÃį PIOS
ĠNaqu ele
Ġauxil iam
Ol ha
Ġconced ida
Ne ws
Ġnano partÃŃculas
Ġdesemp enham
ĠSAI BA
ĠCUS TEIO
Ġplanej ando
Ġinvent or
Ġafilia dos
Ġdownloa d
ĠFL OR
Ġrot ulagem
ĠIncen tivo
ĠCopas a
Ġpneumo patia
ĠNorue ga
ĠVor caro
Ġnico tina
ĠTral li
G ra
I GO
J o
P esqu
R a
S BI
T he
c end
i v
j Ã£o
j amos
k g
m Ã©dico
s aram
t Ã¡rias
v ana
Ġa bate
en ci
en idade
Ġs pike
is sem
Ġco er
Ġo z
Ġo ver
ic ana
on h
Ġv elh
Ġcom iss
Ġdo ze
ĠA i
ĠA dap
ÃŃ mos
Ġin cer
Ġin cor
Ġin tri
ĠP am
ĠP CR
ĠE ri
ĠE gito
Ã³ ticas
Ġse dia
ĠO FIC
ent er
ir inha
tu m
tu to
ĠD j
ĠD iz
ĠD OR
ĠD eix
ĠR aras
ha dos
Ġ1 19
Ġsu pre
Ġsu mi
Ġal cool
ĠâĢľ *
ĠT as
Ġpa tina
Ġpa gas
Ġca em
ĠL una
Ġesta Ã§Ã£o
Ġesta ndo
Ġsobre vida
Ġpre vid
ĠJ A
ĠJ U
vo rada
ĠH uman
ai t
ĠU ganda
Ġper do
Ġper ca
Ġper nambu
ig er
ĠMinist ra
eb a
iste m
ĠDe vemos
bi ra
ĠCon venÃ§Ã£o
Ġam para
pan tes
Ġgra us
Ġma tam
Ġr ica
Ġins umo
ĠEn tidades
Ġti rado
Ġob tenÃ§Ã£o
Ġob teve
Ġch il
Ġforma tos
cre a
Ġcan a
Ġcan eta
Ġpes a
Ġcer e
ĠCh Ã¡
Ġav Ã³s
ĠQu atro
Ġad iante
Ġrep Ãºdio
Ġapresenta va
Ġapresenta dores
EN T
Ġrec eio
TI C
ĠDes te
Ġapro ximando
Ġidenti ficando
Ġir onia
Ġ19 5
ĠCar ta
ĠCar mo
Ġge opolÃŃ
Ġpol ilaminina
Ġtecn olÃ³gicos
log ias
Ġcontinu arÃ¡
Ġprocu ram
ĠSu biu
Ġ11 1
pro te
Ġ23 0
Ġban deiras
Ã©s cimo
Ġfar ma
ĠMen stru
Ġsuper intendente
Ġcontribu iu
dr Ã£o
ĠDo aÃ§Ã£o
ĠMan ual
ĠMan zo
au tor
Ġrepresen tou
Ġvag os
ĠPar te
Ãį S
ĠTO DAS
ĠMo to
Ġexclusi vidade
Ġestran geiro
Ġri dÃŃ
Ġobser vados
Ġconsum idos
emo rando
Ġalte rada
Ġrepor tado
Ġcul to
Ġadminist rar
Ġadminist rado
ĠSem inÃ¡rio
Ġcau so
Ġplaneja do
ĠlanÃ§ aram
Ġocorrer em
far ma
Ġconsta tou
CE O
Ġapre ens
Ġpne us
Ġchega rem
Ġneuro logia
Ġbon ito
Ġmoto ciata
Ġcateg oricamente
Ġescon de
Ġescon dida
Ġcap tar
ĠOr to
ĠOr lando
Ġalar mismo
Ġtransfer ir
Ġlar vic
ĠCH IN
ĠMus eu
Ġinfar tos
Pro ibida
ĠReal mente
Ġprocura dor
Ġinfluencia dora
Ġreaf irmou
Ġdeses perada
prova velmente
ĠelÃ© tricos
ĠSam sung
Ġaspec to
ĠTur ma
pra y
Ġenter rado
Ġcontempl ando
Ġrefu g
ĠMos cou
Ġapa gar
ĠUrg ente
Ġajus tes
Ġfeliz es
Ġmex endo
Ġcomenta dos
Ġemocion antes
Ġdimen sÃµes
Ġacelera dor
Ġdese jam
Ġni Ã³bio
ĠidÃªn tica
Ġtransm ite
Ġzum bi
Ġzum bido
Ġbrilh antes
Pre cisamos
Ġdiscre ta
Ġdesresp eito
Ġalem Ã£es
Ġespon tÃ¢nea
ĠrÃ³ tulo
Rec ursos
ĠObje tivo
ĠObje tivos
ĠMUNICÃį PIO
ĠQuan tos
Ġgastro intes
crin ologia
ĠKen ned
Ġequita tivo
ĠPÃºbl icos
ĠAur Ã©lio
ĠLour enÃ§o
ĠCONFIR MA
ĠAndra de
ĠAer onÃ¡utica
blio teca
Ġverific Ã¡veis
Ġalde ados
Ġtransplan tados
Ġsobren ome
Ġbaf Ã´metro
ĠanÃ´ nima
ĠMozar t
Ġamonto ado
ĠFilip inas
ĠManzo tti
ĠKenned y
) âĢĿ.
0 80
C ES
E VS
H OS
S AS
S IM
S ARS
c essos
g ros
i ficar
o ficial
p ini
w in
Ġ ).
Ġd ila
es sion
Ġp istas
ra za
Ġc Ã³pia
Ġde laÃ§Ã£o
Ġe SF
qu in
qu eiros
re clusÃ£o
Ġf eb
Ã© til
Ġv om
Ġcom ece
ĠA cho
men cla
ĠS tal
Ġem pr
Ġre banho
Ġin via
ĠP it
ĠC Ã¡r
Ãº va
Ġpara ram
Ġpara ben
Ġse veras
Ġ( -
Ġg on
ĠM esa
ĠB erg
Ġl hes
Ġna vios
Ġdes mis
Ġdes gas
Ġdes ass
le go
ita das
ĠF ru
vi Ãµes
Ġto ca
Ġca tar
Ġmen cionar
ĠJ ara
ĠJ us
tan yahu
ĠH OM
Ġim po
Ġinter vir
est ru
pi ranga
Ġpos tada
no te
Ġass essora
um es
ts ky
ĠAl l
ĠAl ana
ĠCo de
ĠEm bra
Ġcl in
Ġme diÃ§Ã£o
Ġ5 40
Ġcar ra
sion istas
Ġman dioca
tÃ³ xicos
Ġch oca
ĠQ UAL
Ġpe tistas
Ġcome Ã§as
bro tou
cn icas
Ġela borar
ĠPro ce
ĠPro gram
Ġrespon dem
Ġli gue
Ġcam inhar
TA DO
Ġinte raÃ§Ãµes
Ġapresenta vam
Ġcha t
ĠDi on
Ġestu p
Ġ10 3
Ġpra Ã§a
Ġcompro vadas
Ġtempo ral
ĠPolÃŃ ticas
Ġven to
Ġenvol veram
Ġsub tipos
Ġ19 99
mis sÃµes
ĠFa usto
Ġespal hada
anc ho
ĠCar la
ĠCar neiro
organ ismos
Ġado tando
Ġfinal izar
Ġbase ados
Ġ18 1
Ġ18 3
cri Ã§Ãµes
ĠCa pita
Ġconhe Ã§a
Ġfe tos
ĠRa dio
ĠNe tanyahu
Ġquar tÃ©is
Ġsur pres
Ġru p
Ġconsegu iria
Ġcoloc aÃ§Ã£o
Ġdecis ivo
ĠNos sas
Ġgen ocÃŃdio
Ġproduz indo
Ġcontr Ã¡rias
Ġconc essÃµes
Ġsof ist
Ġpl ac
Ġpl Ã¡sticos
Ġrou bado
Ġdesaf ia
Ġenferm idade
Ġchegar mos
Ġinsu ficiente
13 6
28 9
Ġgrav ando
Ġgrav ÃŃssimo
ĠAtual izado
Ġpassar ia
ill er
mic rob
Ġfede rativos
Ġviol enta
ĠlÃŃ quidos
ĠPlan os
donto l
Ãĵ RIA
Ġjus ta
Ġmac ar
ĠmÃºs ico
ĠmÃºs icas
Ġneuro l
Ġdemonstra do
ĠAN VISA
ĠAcre dito
Ġreno var
Ġbomb eiros
ĠBas tou
ĠTi ri
Qu er
Ġigual dade
No va
Ġconduz ir
Ġindepend Ãªncia
ĠMus cular
ĠEspe ramos
Ġx inga
Ġgos tar
UF MG
Ġclassifica da
Ġconven cional
Ġcomunit Ã¡rio
Ġeng ano
Ġassass ino
quÃ© ritos
Ġembar que
Ġsepara r
Ġdesper d
Ġdorm indo
ĠtÃŃp icos
ĠSU B
ĠChe ga
Ġprovoc ado
ĠIntegra tivas
Ġendos sa
IG OS
Ġprogres sÃ£o
Ġvide o
Ġvan tagens
ĠPL AN
Ġpresencial mente
ĠtÃ³x icos
Ġjan elas
Ġdepor taÃ§Ã£o
ĠVerm elha
Ġsemanal mente
Ġdesnecess Ã¡rio
ĠtÃ³p ico
Ġend Ãªmicos
ĠVÃį DEO
ĠRepas sem
ĠIsabel la
ĠREG RAS
ĠImag ine
Ġcinema to
ĠCEN ÃģRIO
ĠPris ional
Ġhumilha do
Ġimunode pressÃ£o
Mo vimento
Ġgeno cida
ĠRECE BER
Ġautoimun es
ĠGas par
Ġoro pouche
ĠLegisla tivo
ĠpedÃ³fil os
ĠantÃŃdo to
Ġmucos as
ĠrelÃ³g io
Ġecos sistema
Ġape tite
ĠfÃ´ lego
Ġreple to
Ġyou tuber
ĠÃ³s sea
Ġcaci que
Ġfosfo etanolamina
ĠMariel le
Ġalv oro
Ġarreca dar
3 67
4 24
4 45
7 40
A d
E T
E X
H AS
L V
_ _
b s
c esa
e te
g ran
j i
m us
s ina
t Ã¡s
v imos
y ana
Ġ Ãªn
Ġ ÃŃdo
Ġa ran
Ġa onde
Ġe ter
Ġs ess
or Ã³
or talidade
ic ola
de o
Ġcom ecei
ĠA de
ÃŃ ficos
Ġes tam
ĠS tu
ĠS por
Ġin vÃ©s
Ġt Ãºmulo
ĠP NI
Ġno mencla
Ġcon vir
ĠC I
ĠC easa
ol is
Ġse ver
Ġse pul
Ġh amb
ĠM id
ĠM og
ĠM eneg
ĠB EN
ĠB rit
ist es
ent ros
Ġna o
ĠN an
tu ri
ĠR eb
Ġ2 60
di go
ĠF aro
ĠF AR
Ġal uno
Ġac olher
Ġj ejum
la da
Ã§a das
Ġen cher
Ġfa tura
ĠV OL
ĠL IB
ed be
tam ida
du re
Ġesta n
ĠJ ef
na do
Ġentre gam
iza dor
Ġper missÃ£o
ĠIn terior
ĠIn toxica
eira mente
Ġinforma tivo
Ġmo tiv
Ġcontra indica
Ġdis per
Ġpu erpÃ©rio
Ġele var
ni tsky
Ġme dalha
Ġma tado
ede raÃ§Ã£o
Ġr on
Ġins pira
ws ki
Ġle vadas
bal ho
Ġch eias
ira glutida
Ġfun go
ora do
Ġdire cionados
br in
Ġrela tar
Ġquiser em
ES US
Ġun issex
Ġestra go
Ġval endo
bo ok
Ġag rÃŃ
ĠAm bas
Ġinvesti gamos
ĠMar ta
ĠprÃ³p olis
are mos
Ġimun es
Ġprecis e
TI VA
Ġviral izam
ID AS
Ġinstitu ÃŃda
Ġnome ado
Ġro tin
Ġfortale cido
Ġmon tada
ĠEx pan
.\ "
ĠTo x
Ġ13 9
EM OS
Ġ16 5
ĠNe gra
Ġbal de
erg ia
Ġâ Ĺī
AM ENTE
Ġ17 2
ĠY as
ĠIN VES
ĠGu arda
10 5
ĠSer vidores
Ġvar iados
Ġauto ex
ĠCons elhos
ĠMan ejo
Ġmonito rado
Ġanima Ã§Ã£o
Ġassocia r
sen se
Ġla ta
Ġoportun a
Ġestrutura da
Ġenferm eiras
tta vo
Ġadequ ar
Ġating irem
13 4
duz ido
Ġlevan tadas
Ġabor dou
ĠÃģ udio
Ġrepresenta Ã§Ã£o
Ġlemb rado
ĠNO TA
Ġino vador
ĠCe agesp
Ġvir us
Ġglobal istas
ĠEste la
Ġengan ando
Ġdetec ta
Ġdetec tada
Ġcomb inado
Ġproibi das
Ġmenti rosa
Ġcomplica da
Ġfer idos
ĠPan tanal
ĠTer ri
Ġdescar tÃ¡veis
ĠLo jas
Ġempre ga
Ġweb inÃ¡rio
ĠInte lig
Ġfr Ã¡g
rig or
Ġmam Ã£o
Ġconsci ente
ĠRib eir
Ġintensi vo
Ġmant Ãªm
Ġemi tida
Ġcomprome tido
Ġexis tam
Ġintu baÃ§Ã£o
fan ico
ĠFal ta
Se gundo
ĠvÃ¡ lidos
Ġqualifica das
Ġgar gare
Ġcong ela
Ġmetodo logias
Ġdescre ver
Ġescri tÃ³rio
Ġlimita Ã§Ãµes
Ġadministra tivas
Ġgo tas
ĠMag nitsky
Ġcra ck
Ġmilagros os
Ġmis Ã©ria
Ã³rm ula
Ġemb ria
Di vul
Ġher edi
ĠSho pping
TU RA
Ġcach orros
Ġdemi tida
Ġital ianos
Ġrob Ã´s
Ġdesloca mentos
ĠMos tra
Ġbrit Ã¢nica
Ġimplementa da
Ġhos til
ĠEurope u
ĠVACINA ÃĩÃĥO
ĠdepÃ³ sitos
ĠalcanÃ§a do
Ġevi tÃ¡veis
Ġestrutu rantes
Ġjan ela
Ġacad Ãªmica
Ġsoftw ares
ĠCL T
ĠEsp inhal
Ġmilion Ã¡rio
Ġinci tar
Ġbacter ianas
Ġines perada
Ġcontracep tivo
Ġilum inaÃ§Ã£o
ĠDal la
sex ta
Ġpec ul
ĠPris cil
Ġdespro teg
ĠOlÃŃmp icos
Ġefetu ar
ÃĶ N
ĠApp le
Ġmotocic letas
Bio NTech
Ġdistribuido ra
AT ENÃĩÃĥO
ĠTelef Ã´nico
esquer da
Ġintit ulado
Ġpod cast
cker berg
ĠAless andro
Ġassem elha
Ġindetermina do
ĠInicia tiva
ĠZu ckerberg
ĠinstantÃ¢ neo
Ġoposi tores
Ġral os
Ġdisfun Ã§Ã£o
Ġhomolog aÃ§Ã£o
ĠChapec Ã³
Ġpesad ÃŃssimo
ĠKaya pÃ³
Ġfron tal
Ġheter ogÃª
Ġantiv ÃŃrus
ĠJerus alÃ©m
Vig itel
Ġpine al
ĠAnhan guera
ĠESTAD UAL
ĠSampa io
Ġpernambu c
ĠMenstru al
ĠÃªn fase
ĠJef fer
. "
0 64
5 70
5 92
A rgentina
B a
J esus
L o
L ACEN
S EM
V ale
a ta
a va
d ices
g Ã³cio
i dez
i ficado
i quem
l ider
n g
s Ã¡veis
t enta
u ri
x imas
y esus
y ane
Ã ł
Ġ ic
Ġ rim
Ġ Ãªx
Ġa ro
Ġp om
Ġc is
Ġs tar
Ġs pray
Ġm Ã¡gica
Ġco fres
do is
ic entro
ĠA pos
ĠA gn
ĠA postas
ĠA trofia
ĠS om
ĠS ENDO
ĠS omos
ĠS istemas
Ġre util
Ġin troduÃ§Ã£o
Ġt in
ĠP in
Ġcon osco
Ġh ÃŃ
Ġg rin
ĠM ontes
ĠB IL
Ġdes man
Ġdes titu
Ġdes idra
ĠD R
ĠD U
ĠD IST
ĠR on
Ġsu jo
oc oco
ĠF ala
Ġal f
Ġal ocados
Ġou tono
Ġser vidor
ĠT ou
ĠT au
ĠT RU
oa u
pe ed
Ġdi d
Ġdi esel
Ġest en
Ġen cefalite
bre yesus
ĠV el
ĠV IDA
ĠG he
tas us
vo z
ru g
Ġper io
por que
Ġar s
eb er
je tos
cl ara
cer ias
Ġcontra iu
ĠAl ine
Ġconf iar
Ġvi rada
ĠNo vas
ial gia
bi ol
ĠPa tos
Ġcu re
Ġmas siva
Ġma quia
Ġma triz
vol un
Ġel eitos
Ã¢n tico
Ġman tida
Ġob stru
Ġforma das
Ġprodu tividade
Ġprim or
it Ã©rio
pes qu
mer o
ĠRe for
ĠCh en
Ġrep ou
Ġrep Ãºblica
Ġrep leta
Ġaler gia
Ġvol ante
EN DE
ĠAm bula
Ġofer eceu
ĠES TE
Ġrefor Ã§os
Ġer rou
Ġimun ol
Ġta pe
ĠFo x
Ġtal entos
Ġ19 3
IS O
Ġdifer encial
Ġjo gado
Ġbase iam
Ġ18 5
ĠK e
ĠK y
Ġpare des
oro este
Ġvia bilidade
Ġ16 3
Ġanti microb
Ġban anas
Ġ17 5
Ġlim inar
Ġcur tos
Ġintegra dos
Ġdele gacia
col um
Ġba tida
Ġauto mo
Ġauto cuidado
IN HO
Ġrevel aÃ§Ãµes
Ġacusa dos
Ġsignifica tivas
CA L
ĠBar u
Ġjul gado
Ġfavor ecer
Ġlevan tando
Ġfrequ enta
ĠÃģ guas
su cesso
Ġlemb ram
Ġmanifesta ram
Ġnega tivas
Ġepidem i
ĠMo dal
UN CA
ĠPR Ãĵ
cios as
fo ma
Ġobser vadas
Ġalte rado
ean ita
Ġdissem inada
ĠMe tropolita
Ġparc eira
ĠPe Ã§o
ĠBÃ¡s ico
Ġcomb os
Ġregula doras
ĠCN S
Ġbi ometria
edn dice
48 7
ĠComun ista
ĠNatal ia
Ġremo ta
ĠIta mara
ĠTa peba
Ġconv ic
Ġmin eira
ĠFun cionÃ¡rios
Ġexecu tiva
Ġmol des
ĠCA DAS
Ġcomprome tidos
Ġpen sionistas
Ġaut Ã´n
ĠOr Ã§a
ĠJu az
Ġrepe ti
Ġqueima do
Ġreno vaÃ§Ãµes
Ġfl or
fan cio
ĠSol ic
Ġmodi ficaÃ§Ã£o
Ġjud iciÃ¡rio
Ġsou b
Ġrestri ta
Ġeduca dores
Ġfran ceses
Ġinfluen cer
Ġench ente
Ġbl Ã¡
Ġcra que
ĠpediÃ¡ tricos
Ġpreten dem
Ġlic encia
Ġabando nar
Ġcomem orou
Ġocupa das
Ġ600 1
Ġanalis ando
ĠsÃŃ tio
ĠFede ra
eau ticos
inf elizmente
ĠMara bÃ¡
Ġgal inha
Ãºr guer
Ġproteg idas
ĠcÃ¡l cio
ĠCara cas
Ġimig raÃ§Ã£o
Ġtox ina
plas ia
ĠgenÃ©r ica
ĠIng rid
ĠBeb er
Ġded icar
Ġdistin tos
nes to
ĠDro ga
qual ificaÃ§Ã£o
Ġevidencia ndo
ĠdomÃ©s tico
Ġcondena dos
ĠBenefic ente
Ġcompat ÃŃveis
Ġclandes tinas
Ġparcial mente
ĠLGBT Q
ĠautÃ³ psias
Ġsenh ores
Ġclon ar
PRO ADI
Ġobst Ã¡
Ġdescan so
ĠClÃ¡u dia
ĠgaÃº cho
ĠNaqu ela
ĠParticip aram
ĠAgra de
ĠAgra vos
Ġintermedi Ã¡rios
ĠEmpres as
ĠIC MS
ĠOrienta Ã§Ãµes
ĠAragua ia
Ġmission Ã¡rios
Ġfestiv al
Ġcongel ado
Ġrecuper ou
Ġfide di
ĠGis ele
ĠCompan hia
Ġdeslig ar
ĠPREV ENÃĩÃĥO
Ġneona tais
Ġaver igu
Ġmetr Ã´
Ġmalef ÃŃcios
ĠpÃ¡ss aros
ĠPedia tria
ĠGRI PE
ĠOrto pedia
ĠGhe breyesus
. ),
3 40
7 30
8 72
A F
A pÃ³s
D IAL
L e
L TI
M C
M es
T em
W ha
b ana
c t
c istas
c inas
c esse
d entes
f os
h um
o fer
q Ã¼
r inho
s lider
y on
Ð ¾
Ġ rios
Ġd itas
Ġa edes
Ġa cionar
Ġa zar
es o
Ġp enta
Ġp ezinho
Ġc esta
in ela
Ġco e
Ġco ceira
Ġf on
Ã© lia
ar d
Ã¡ logos
Ġv idente
Ġu ru
Ġdo ula
ĠA GU
ÃŃ ncia
ĠS VS
Ġre ac
Ġre tar
Ġin ta
Ġin quÃ©ritos
il da
ĠP rincipalmente
âĢ ²
Ġno bre
Ġcon vul
Ġcon tida
Ġcon ex
ĠC ron
ĠC enso
ĠE LA
tos a
ĠB ian
ĠB eck
Ġl iraglutida
iz on
ĠN UNCA
Ġap lau
di fica
ter ona
ita res
Ġsu peraÃ§Ã£o
ĠF orte
Ġal ge
tra lia
se gue
ran o
ĠT estes
ĠT ony
ĠI na
Ġdi ria
Ġdi etas
esso u
Ġfa Ã§o
ĠL IM
ed tima
ĠG in
Ġpre feita
Ġcomp u
po ra
po vo
Ġpr endeu
pa rem
Ġtra to
ca u
Ġinter m
con dicion
est Ã¡
Ġmo radora
ĠSe tor
Ġar que
ĠNa ture
Ġcor rem
tor ias
Ġconf inamento
ĠNo el
Ġdis posto
Ġcons istente
Ġsegu rado
Ġam Ã©m
ĠÃ¡ rabe
Ġti tle
Ġprodu Ã§Ãµes
Ġaponta ria
Ġdire tos
Ġdire ciona
Ġcan ab
lin es
Ġcome teu
Ġtr istes
ĠQu ÃŃmica
Ġad jac
Ġrep el
Ġdist ra
EN DA
Ġra di
55 0
ch Ã¡
gn ol
gn Ã³stico
ĠIs lÃ¢mico
Ġsol to
Ġsol dado
IA NO
Ġden sidade
Ġproje Ã§Ã£o
ĠFo tos
via da
Ġpossu a
Ġado ecimento
ĠTra orÃ©
Ġorgan izando
ĠPo int
essa do
ĠAr Ã¡
Ġinten sos
Ãºn cio
Ġgri tar
Ġcal cul
Ġatribu ir
Ġvar iaÃ§Ã£o
Ġjun ta
Ġdiscu tidos
Ġdiscu tindo
Ã´m ico
Ã´m icas
Es sas
Ġrecon stru
ĠMÃ©d ia
ris to
ĠPar cerias
PA C
ĠLa goas
Ġinsu fici
Ġtro cas
cus tom
Ãį VEL
Ġquad rados
Ġbo ba
Ġapos tar
ĠRE AIS
ĠCe gonha
Ġcandida ta
Ġcontinua rem
18 7
ĠVi et
Ġvir Ã¡
ĠMe didas
AC S
!!! âĢĿ.
Ġcos ta
Ġcre den
ins ton
Ġep icentro
Ġbenefic ia
37 3
Ġaborda gens
Ġreconhe cidos
Ġmac ulopatia
Ġtransforma ndo
Ġinterpre tado
Ġencaminha mentos
Ġenerg Ã©tico
Ġbon eco
Ġevita dos
ĠMor reu
Ġmem es
Ġlog ÃŃstico
ĠDou tor
bac tÃ©ria
ĠPO DER
Ġinstal ou
Ġx in
Ġdescre di
ĠSerg io
Ġgo tÃŃculas
Ġbl ocos
Ġnor deste
ĠÃĵ culos
ĠEr nesto
Ġrus sos
Ġprovoca das
Ġinves te
Ġsubme tidas
ĠDel tan
ĠJun dia
Ġconce didas
ĠfÃ³rm ulas
ĠME D
Ġultrapas sou
dom Ã©s
ĠFarm Ã¡cias
Ġsinc ron
Ġaperfei Ã§o
Ġirm Ã£s
Ġcomemora do
ĠRen ner
Ġprovar ia
Ġlas er
Ġdivi dido
ĠescÃ¢nda los
Ġsocio educa
Ġmistu rar
ĠgenÃ©r icos
Ġpaco tes
Ġotim izando
Ġisol ar
ĠMc Car
omo Ã§Ã£o
ĠHol ocausto
Ġparal elo
ĠJÃº lio
Ġdiferencia da
Ġsilen cioso
ĠMEN TI
Ġcorro bora
ĠOnc olÃ³gica
Ġcorrig ir
Ġilustra r
Ġtestemun has
ĠAbra ham
ĠWeb RÃ¡dio
Ġtranquil idade
ĠCou to
ĠCome Ã§ou
ĠsÃ¡ bados
ĠsÃ¡ tira
Ġchocola tes
Ġfedera tivas
Ġenvenena das
ĠClin icas
ĠComple mentares
ĠFAZ ER
Ġidio ma
Ġbrinque dos
ĠcatÃ³l ico
Ġdesf avor
Ġretorn ou
ĠLemb rando
IVER S
ĠAch amos
ĠPrem ium
ĠPh il
ĠMudan Ã§as
ĠObs te
ĠManu ela
Ġsmartph ones
ĠCul tural
ĠMIN IST
Ġrecipi entes
Ġrevi ra
Ġconstran g
ĠMaur ÃŃcio
Ġfracas so
Ġhemorra gia
ĠcapÃŃ tulo
ĠFronte iras
Ġpressu posto
Ġconfia bilidade
lum ina
Ġplaus ÃŃvel
Ġful min
ĠEmergen cial
Ġagen dar
Associa Ã§Ã£o
Ġporcenta gem
ĠHop kins
Ġprevid enci
Ġempr Ã©s
ĠCÃ¡r men
ĠMog i
ĠDalla gnol
Ġstar tu
4 80
B o
D D
E l
F F
S ena
S MS
V eja
b ara
f rologia
g la
g ante
h r
l ico
n ei
n ou
p tica
s tica
v ais
v ina
Ġ Âł
Ġa vermelha
Ġp Ã£o
Ġp ene
Ġp ense
Ġp seudo
Ġc il
Ġc acha
Ġde t
Ġde vendo
er n
in Ã³cio
Ġn itazoxanida
ia Ã§Ãµes
ma gn
Ġf irmou
Ġf iel
Ġf ianÃ§a
Ġf rigor
Ġque ira
Ġcom ecem
ti go
ĠA prov
ĠA Ã©cio
ÃŃ qu
ĠS ac
ĠS enegal
Ġin jus
ĠP ens
ĠP rudente
Ġno velas
ĠC y
ĠC ru
ĠC las
ĠE P
ĠE if
ei t
Ã³ dulo
ĠM EI
ĠB ela
sa bilidade
Ġb ab
Ġum bi
ĠO ly
Ġpor tÃ£o
Ġdes er
ĠR ios
ĠR IS
ou ro
ac ab
se de
ĠT on
ĠT RE
ĠI B
Ġpa tÃ³
ed er
ed culos
ed filis
ĠG un
ĠÃł qu
Ġesta remos
Ġpre ci
ĠJ ames
ĠIn clusÃ£o
con tro
Ġmu dado
ÃŃs seis
Ġmo rar
ĠW hite
Ġass Ã©dio
gra duaÃ§Ã£o
Ġcor ri
Ġcontra ta
ĠDe u
Ġvi ti
Ġvi via
ĠCon exÃ£o
ĠâĢĵ ,
Ġele ger
ess al
Ġcu rou
Ġme de
Ġme ga
Ġma t
vol uÃ§Ã£o
bu ro
ĠEn demias
Ġab enÃ§oa
Ġtrans posiÃ§Ã£o
Ġ6 50
Ġespecial idade
Ġsuger iu
Ġatu ou
Ġrela tivos
Ġrela tivas
ĠCh eck
Ġencon tre
Ġad vers
ĠSan tas
ena gem
Ġcomun icou
ĠCO L
91 0
Ġinvesti gada
ĠMar ing
ĠMar inho
Ġsin te
Ġprecis os
ĠMa k
ĠSa pa
Ġlin ear
Ġta blo
Ġ15 3
27 2
Ġsal sicha
ĠK o
tion s
Ġsocial ista
16 60
IC AR
IC EF
Ġsurg indo
Ġrefer encia
Ġrepas sem
Ġlim pas
Ġata cou
Ġajuda ria
Ġespe ramos
ĠCons olida
Ġhor r
ĠTem po
Ġtraz ido
Ġmonito rando
Ġfre ar
ĠTab aco
Ġtrabalha doras
Ġentrevista do
Ġrevel ada
ĠBar reira
Ġdisponibil izando
Ġquad ril
su cedidas
Ġseguir Ã¡
Ġ28 8
ĠMo desto
ĠPR F
Ġri bos
Ġce ra
Ġfinancia das
Ġconsum ida
Ġdepen dente
Ġposi tivas
Ġsuspen sas
Ġcabe Ã§as
pati as
ĠGa z
ĠMe us
Ġmobil izando
Ġinde vida
68 5
edn imo
Ġtesta dos
Ġtesta ram
Ġcadastra do
67 4
Ã¡ss io
Ġcoordena das
Ġtransmiss ÃŃvel
ĠPesquisa dores
Ġneuro ciru
ĠSegu ran
ĠUniversi ty
Ġcap turar
ĠGab inete
ĠAN TES
TER S
Ġader idos
Ġbomb eiro
Ġadquiri das
ĠMUN DIAL
Ġmilita ntes
Ġmoder nas
Ġdenuncia ndo
53 11
Ġconduz idas
De us
Ġgos tam
ĠHar ry
Ġjur ista
Ġdesapare cidas
Ġlimita da
Ġdescobrir mos
Ġrecupera ram
ĠKa mala
cd ndia
Ġalterna tivos
Ġocupa cional
Ġinser ido
ĠCPF L
Ġinver ÃŃ
Ġelabora da
Ġacum ulado
ĠMulti disciplinar
Ġdirig ente
Ġdent Ã¡ria
Ġretra ta
Ġintes tinal
Ġconvoc ando
Ġfol ia
Ġeconom ista
Ġquim io
Ġorden ou
Ġfoc ado
orre g
Ġcansa Ã§o
Ġrum or
ĠEN V
comp ensa
Ġdisfar Ã§ados
Ġinteress antes
ĠTh ais
Ġnec es
Ġsequest ros
Ġtend Ãªncias
Ġreche ada
ĠsÃŃn tese
ob ede
Ġesco po
Ġincorre ta
Ġeletro domÃ©s
Ġhanta vÃŃrus
pin raza
Ġsimp Ã¡ticas
Ġrecolh ido
ĠGonÃ§al o
Ġmencion amos
Ġmister iosa
ĠPoli ti
Ġmotocic leta
Ġdesatual izada
ĠTes la
ĠequÃŃv ocos
Ġhomenage ar
Ġacu sou
ĠMES MO
ĠPARTI CI
Ġhomossex ual
Ġcoleg iada
Ġocorri dos
Ġenz imas
Ġdeten tos
algu mas
Ġdob rar
Ġliquida Ã§Ã£o
Ġhospeda gem
ĠHidro xicloroquina
ĠEspec tro
Ġimunopreven ÃŃveis
ĠAcompan he
ĠsÃª men
ĠTiri rica
Ġhamb Ãºrguer
ĠINVES TI
ĠJuaz eiro
ĠEif fel
Ġumbi go
! ).
0 16
3 60
5 60
6 50
8 20
8 77
C ol
C CI
H OR
I U
M eu
O rgan
P er
T ÃģVEL
U TERS
a tual
a taque
f olha
i dem
n Ã£
p im
p ublica
p rin
r ero
u mas
ra x
Ġde bil
ta res
Ġn eb
Ġm entes
Ġo ce
Ġo dontologia
te lo
do rado
Ġv ic
Ġu ltima
Ġdo lor
ĠA pa
ĠA QUI
Ġes corre
ĠP harma
Ġcon tudo
ul ce
ul has
ul osa
ĠC IDADE
ĠE MA
ĠM ira
ĠO i
Ġpro pen
Ġdes esta
ĠD ÃŃ
Ġ1 27
ita mente
va ga
tra gem
ĠT ara
Ġac endeu
Ġdi go
ve do
ver de
ĠV AMOS
Ġca fe
Ġca val
ĠL an
ed na
Ġinf in
ĠG EN
Ġres sar
ĠBrasil ia
ĠBrasil eiros
Ġcas eiras
ĠJ OS
ĠU bÃ¡
ĠU bera
ho ras
Ġper didas
ab ara
Ġmo rais
Ġmo rango
ĠSe us
ĠNa tural
ĠW inston
Ġnas cem
Ġcontra tado
ĠAl f
ĠAl cione
ĠCo pp
Ġne o
Ġsegu rar
Ġcu jos
Ġma deira
Ġma jor
Ġins tado
dor o
Ġman uais
Ġob tido
ĠAn ne
Ġpe des
Ġcan tar
Ġatu ado
RA PS
ĠLe van
ĠSUS P
Ġmostra vam
ares ma
aran j
aran gue
Ġmar cos
Ġdist rito
Ġdist ritos
Ġval em
Ġaler tamos
Ġag itou
Ġ10 4
Ġfil ma
Ġori entando
Ġgaran ta
Ġlu a
Ġcr Ã´nicos
ĠMa guila
ĠSo ci
Ġdef la
15 6
Ġsub cu
Ġ15 4
Ġcol ch
Ġsal i
Ġsal ga
Ġacab ando
Ġvalor iza
cal a
Ġfe tal
Ġcaus e
Ġpare de
Ġ11 7
Ġorienta dos
Ġcole tivos
Ġ16 8
84 4
Ġabri gar
ib ir
ĠPA L
30 4
tida mente
Ġfar inha
ĠGu gu
Ġ50 12
col as
gre do
Ġcres ceram
tros e
Ġhor ror
Ġbol has
Ġmonito radas
Ãģ vila
Ġref eiÃ§Ã£o
Ġfuncion Ã¡ria
Ġanima da
Ġrevel aram
pri ma
ĠSi tes
Ã©l ix
ĠFran k
Ġtenta va
Ġlevan tado
Ġabor dando
Ġcarre gado
Ġcarre gada
Ġexclusi vas
Ġdif teria
ass isten
Ġder re
ĠCruz eiro
Ġengan ou
ĠAL IM
ĠAL CAN
Ġlig ou
Ġdecre tada
Ġcompara Ã§Ãµes
Ġps icol
ĠBo as
ĠEM ERG
ðŁ ı
Ġestima Ã§Ã£o
Ġdescar tou
Ġbenefic iada
dicion al
Ġempre gada
HA T
RI GA
Ã©di as
37 33
Ġconclu i
Ġmilag res
ĠDan one
ĠProte tor
ĠPRO DU
Ġespan cado
ĠIta pe
Ġbon ificaÃ§Ã£o
ĠBra z
Ġinscri tas
ĠdÃ© ficit
Ġcho ra
Ġcorrespon dente
Ġqueima r
Ġreno mado
Ġaposenta dorias
Ġassus tadora
Ġadap ta
Ġadap tados
ICA DO
Ġcru ciais
Ġrea pare
Ġson hos
Ġsac ar
ĠfenÃ´men os
Ġinva diram
Ġbran cas
Ġexplo raÃ§Ã£o
Ġexplo diu
ĠResol u
ĠTim e
Ġculpa dos
Ġdou tr
Ġmus ical
Ġmis sÃµes
ĠÃĵ rg
ĠÃĵ BI
Ġreaf irmando
Ġrestau rar
Ġher Ã³i
ĠCAM A
Ġrigor osamente
Ġdesper ce
ĠVic toria
ĠGus ttavo
ĠME TAS
Ġultrapas sar
inf antil
Ġenter rar
ĠEncon tramos
Ġautom Ã¡tico
En tre
Ġespiri tuais
ĠGl oria
Ġpeda g
Ġdisfar Ã§ado
Ġestrutu rar
CL US
ĠCro Ã¡cia
ĠCro hn
talha mento
ĠImpor tante
Ġines perado
ĠPri ma
ĠBenefic entes
Ġhacke ar
ĠrÃŃg idas
Ġtari fa
ĠjuÃŃ zes
ĠNOR DESTE
ÃĤN CER
ĠsintÃ© tico
ĠAven tal
Ġze rar
Ġexten so
Ġguer ras
ĠDei xe
Ġprivil eg
ĠAcom panha
Ġcondicion ado
ĠAmor im
Ġexp Ãµe
ĠKir k
ĠequÃŃv oco
ĠCres cimento
ĠevangÃ©l icos
ĠMem orial
ĠTex tos
Ġvari Ã¡veis
ĠHi per
ĠSuple mentar
ĠNes sas
Ġcenta vos
ĠINTERNA CIONAL
Ġmiti gar
ĠMUL HER
ĠGros sa
Ġbicic leta
Ġcotone te
ĠAPA E
ĠPAN DEMIA
wo od
ĠespetÃ¡ culo
Ġlegi timidade
ĠCUIDA DO
ĠLeopol do
Ġinfectocontagios a
Ġrup tura
Ġsofist ica
Ġmacar rÃ£o
ĠTRU MP
ĠArÃ¡ bia
ĠViet nÃ£
Ġfulmin ante
buro cra
ĠMaring Ã¡
1 44
2 10
3 97
4 26
? )
? âĢĿ,
A qui
D os
D iante
P H
R Ãģ
S ec
U OM
a ju
c Ã¡
c icial
d le
d inhas
f ina
i velmente
l Ã¡
p si
p aram
p ino
r Ã©
t inaÃ§Ã£o
u gu
v ind
w i
w ell
Ġ io
Ġa va
Ġp ir
Ġc Ãª
or reia
in Ã¡
Ġo m
de pois
ma dinho
Ġf ri
Ġf ito
Ġf ocar
al guns
Ġv ocal
ro l
an al
ĠA Ã§Ãºcar
ÃŃ tulo
Ġes s
ĠS EN
Ġre qu
Ġre Ãºn
Ġre posiÃ§Ã£o
il mente
em prego
ul t
ĠC ai
ĠE h
Ã³ rios
ĠM ano
ĠB Ã©l
Ġl os
Ġna z
Ġpor tÃ¡
Ġdes dob
ĠD IZ
ĠR esta
Ġas so
Ġ2 22
di versidade
ĠF ec
ĠF EC
ĠF UNAI
Ġso mar
Ġou vindo
Ġac hei
Ġac usando
ram et
Ġen cara
cion Ã¡rio
cion Ã¡ria
ĠV iro
ĠV itamina
ĠV IVO
ĠL or
ed via
Ġinf lar
ĠG est
ĠG UA
Ġpre parou
Ġcomp Ãµe
po ranga
Ġinter ferÃªncia
Ġper tur
Ġ- \
pi SUS
Ã¢ mi
ĠSe gue
Ġar rit
Ġver dades
20 5
Ġreg res
Ġcor onel
cer ca
Ġpres tando
Ġpres tada
sas se
Ġmor tais
ĠAl er
Ġau ge
ĠCo bertura
ÃŃci us
ĠNo te
Ġcons umindo
ĠCom ponente
tura dos
ĠPa gno
ven to
Ġcu pom
cor e
cor onavÃŃrus
Ġfor no
ĠEn el
Ġtrans portes
ĠOs car
lin ha
ĠRe estruturaÃ§Ã£o
Ġesc ritos
Ġrela tivamente
Ġche f
ĠQu es
bo y
tr Ãªs
Ġpoder ÃŃamos
taria m
Ġprecis avam
ĠMa io
ĠLu ÃŃsa
Ġsol tas
Ġsan itar
ĠSo fia
Ġeste ira
Ġsub notificaÃ§Ã£o
Ġsecre Ã§Ãµes
Ġdivul guem
ss imo
cas os
Ġdocu mental
27 7
ĠCar uar
Ġdescon tinu
Ġva iado
ĠCa ma
cid entais
ĠK fou
Ġ14 6
Ġcerca do
sem pre
Ġ11 8
Ġcole tas
Ġ23 8
Ġâ Ĩ
Ġimpac tar
Ġcura tivos
ĠDist ribuiÃ§Ã£o
Ġdesin fecÃ§Ã£o
ĠAg osto
CO P
Ġatra Ã§Ã£o
Ġdig itar
rÃ¡ ticos
Ġdeclara da
Ġvar iedade
ĠTem por
dios os
26 9
Ġesclare cendo
Es tÃ£o
ĠRec on
Ġcapita Ã§Ã£o
45 4
ĠMÃ©d icas
enda m
OL PE
Ġenvia ram
Ġchegar Ã¡
Ġur so
Ġmode rado
Ġcorre tos
ĠmÃ¡ fia
ĠTO U
UN O
ĠRE CU
ĠRE UTERS
93 6
ĠIns tru
Ġsuspen s
Ġesp inhal
Ġil usÃ£o
Ġnotifica do
Ġregula t
Ġcompara dos
ĠLi ve
edn dices
ĠmÃ© dium
Ġfiscal izar
48 9
Ġdescar tada
Ġdescar tÃ¡vel
Ġ[âĢ¦] .
Ġamplia rem
eam ica
Ġdomin ar
tero ides
Ġartic ular
Ġju ros
vac inaÃ§Ã£o
ĠSC TIE
Ġconv Ãªnios
Ġmin eral
ĠCha mada
ĠBRASIL EIROS
Ġforn ecem
ĠAM IGOS
Ġencer rada
Ġpen itenci
Ġcho rado
ĠJu ru
Ġcorrespon dendo
Ġderru bado
Ġhip oc
ced ida
ĠCuida r
Ġforne cidos
Ġeduca cional
Ġlog in
Ġdom ingos
Ġatende ram
Ġassal tar
ĠPia u
Ġorto grÃ¡ficos
Ġdesapare cido
Ġgo ia
Ġanteci paÃ§Ã£o
Ġinje Ã§Ãµes
ĠBer lim
Ġlic ita
Ġcelebri dade
Ġdeses pera
Ġgor duras
ĠHa ver
ĠSin cicial
ĠMT ST
ĠfilantrÃ³p ico
ĠMulti profissional
ifica da
Ġdestin ar
Ġindustrial izados
ĠMara can
Ġprema tura
Ġsoc or
ĠChe gou
Ġconec tar
und idade
Ġeconom izar
Ġespor tivo
Ġves ti
Ġdivi didos
Ġben ig
Ġben zeno
ĠClau dio
Ġcond izem
ĠHU MAN
Ġmistu ram
Ġcomorb idade
Ġentende mos
TOR IA
ĠtÃ³x icas
Ġpreca uÃ§Ãµes
Ġpeda Ã§os
Ġerra dica
ĠSub sistema
Ġocasion ar
ĠPri or
ĠFin anc
ĠÃ¢n us
ĠidÃªn tico
ĠRepas se
ĠgeogrÃ¡ ficas
Ġfranc esa
ted ral
Ġfib ras
Ġeletro magn
ĠsintÃ© tica
ĠRodo viÃ¡ria
ĠCEN TRO
ĠobstÃ© trica
Ġmalig nas
Ġresili Ãªncia
Ġafer ir
Ġamen izar
ĠApresenta Ã§Ã£o
Ġign or
Ġinsatis faÃ§Ã£o
hman iose
ĠorÃ§ament Ã¡ria
Ġpromiss ores
Ġrenuncia r
Ġsoz inhos
Ġfel icidade
ĠDeol ane
Ġacr Ã©scimo
Ġmirabol antes
ĠGet Ãºlio
Ġdiverg Ãªncias
ĠImplan on
ĠMedic ine
ĠWei be
Ġincor por
icola u
Ġprimor dial
ĠobstÃ¡ culos
Mes mo
Ġfon oau
ĠCron o
ĠSapa tilha
ĠBÃ©l gica
ĠCaruar u
ĠKfou ri
0 25
1 40
1 28
2 94
2 80
4 30
9 93
A m
B AR
C B
C DC
D en
H IV
J a
O x
R o
S Ã³
V AR
a th
b ore
f ru
f ield
j ara
m Ãªs
s in
t entes
t Ãªm
u ku
v estre
Ġd ani
Ġa diÃ§Ã£o
Ġe cl
Ġs anto
Ġm Ã¡s
Ġm erg
Ġm ÃŃsseis
Ġo v
ma x
Ġv itais
Ġv estÃŃ
Ġdo ping
ĠA pro
ÃŃ culos
ÃŃ aco
ÃŃ metros
Ġes quis
ĠS he
ĠS IL
ĠS teve
Ġre classi
Ġin da
Ġt ras
ĠP ok
ĠP rin
ci tos
ci ente
ĠC id
ĠC ÃĤNCER
so mo
ĠÃ© t
Ġl Ãª
ĠO AB
am ou
ĠN estes
Ġdes tinaÃ§Ã£o
Ġap Ã³
Ġsu or
ĠF en
ĠF im
tra dos
ĠT A
ĠT ru
ĠT ES
Ġex pon
Ġpo ema
Ġdi Ã³xido
Ġpa tologia
Ġfal ecer
ĠV Ã£o
Ġca mada
Ġca tÃ³lica
ĠG io
ĠG Ã¡s
bl lo
Ġres surg
du as
Ġmen cionados
ga va
Ġcomp res
ĠJ ur
ĠJ ESUS
ĠH ill
si bil
ĠU sa
tal i
pos iÃ§Ãµes
ig e
por Ã£
enta dos
ĠNa tional
Ġver rugas
eb ral
Ġcor rom
Ġcontra tual
ĠCo in
Ġne gada
Ġvi b
ĠCon quista
ez Ã©
ĠCom it
Ġapon tem
Ġfaz ende
US A
ĠÃ¡ l
Ġme ra
Ġme tro
Ġme tÃ¡
Ġma gna
fa dos
Ġcar iocas
Ġins t
Ġob tiveram
Ġforma ta
Ġforma ndo
Ġcan ibal
lin i
Ġpes ados
Ġcome tidos
ĠRe des
bro m
Ġsa tÃŃ
Ġrela cionar
Ġtr inta
Ġtrabal haram
car os
Ġutil ize
bo pe
ĠAm paro
Ġpoder osos
Ġinvesti gadas
ch ini
ĠMar burg
Ġfil iado
Ġprograma da
Ġprote gendo
Ġimun izado
Ġlu xu
li tes
Ġindica das
Ġindica tivo
and Ã£o
Ġapare cendo
Ġbas tou
Ġcomple tos
ĠTra umatologia
Ġvo v
ĠRo ma
ĠEx cel
Ġlo tados
Ġmal ware
Ġ13 7
UA ÃĩÃĥO
Ġ11 4
ĠPo pula
Ġol hando
Ġru b
Ġcirurg iÃµes
este ira
ĠCor pus
Ġfu zil
PS E
ĠGu i
Ġatra sado
Ġenfrenta do
Ġcontribu inte
ĠDO A
Ġba ga
Ġpubl icando
Ġacredi tamos
ĠReg ionais
Ġfuncion ou
sen sibilidade
Ġmeta is
Ġprov ÃŃncia
ĠâĢĶ ,
Ġhomen agens
ĠPublica Ã§Ãµes
ĠLa je
28 3
ĠHo ras
Ġcorre laÃ§Ã£o
Ġop tou
inos os
Ġimedia tas
ĠSal gueiro
90 7
Ġinteg rando
Ġsen adora
ĠVi e
Ġarma das
ĠCE P
ĠBan didos
Ã³l io
Ġcre che
Ġfru tos
ĠEM PRES
33 6
98 2
ff re
Ġempre en
ĠgrÃ¡ fica
eam ico
Ġbanc Ã¡rio
bel li
37 1
ĠOli ver
ĠRu bio
han g
ĠFun dos
Ġexecu tadas
Ġlide rada
ĠSegu indo
oso fia
americ anas
CIA L
ĠInforma tizaÃ§Ã£o
ĠAb in
Ġbomb Ã¡stico
Ġadulte ra
Ġapl icou
Ġgar gal
Ġcob rado
Ġsac os
Ġoftalm ologista
ĠDis sem
Ġvig entes
ĠquÃŃm icas
Ġprejud icando
Ġexplo rando
Ġdesconhe cidas
ĠNi ke
Ġformal mente
Ġinfluencia dores
IST s
Ġtrag Ã©dias
Ġanticor po
ĠJul ho
Ġmel an
Ġacei tou
Ġinvas iva
Ġviz inha
Ġaman te
Ġlan ch
Ġtrou x
Ġinfunda do
Fo ram
ĠtÃŃp ica
Ġsoc orr
Ġprovoc ou
Ġgal inhas
Ġconec tividade
Ġpedia tras
ĠVin ÃŃcius
Ġdesma iou
ĠRES PIRA
ĠPartic ipa
bai t
Ġtox icidade
Ġrol ando
Ġcensu rado
ĠLÃŃ dia
Ġsegre dos
Ġacome te
Ġsent ia
ĠIncorpo ra
Ġabaca te
ĠPla y
rone gÃ³cio
Ġnam oro
Ġestrutu rante
ĠProcu rando
Ġdescu bra
Ġmilion Ã¡ria
ĠInvesti mentos
Ġatrapal ha
Ġinterse toriais
Ġagro tÃ³xicos
Ġacons elh
inter venÃ§Ã£o
ĠBru madinho
ĠGRA VE
Ġconsider Ã¡vel
Ġhormon ais
Ġcontagios o
Ġrej eiÃ§Ã£o
Ġesca par
ĠImag ina
Ġlis tar
Ġrepara Ã§Ã£o
ĠGuan abara
Ġinden iza
ĠGaran h
ĠSele cione
Ġnamora da
Ġcoto vel
ĠPou co
Ġrestring ir
Ġhigien izar
Ġreite ra
Ġconquis tar
Ġconquis tou
Ġsimb Ã³lico
Ġponde rada
Ġencomen da
Ġacidental mente
Ġescorpi Ã£o
Ġdeso bediÃªncia
ĠClim Ã¡ticas
ĠDomic iliar
Ġaces sibilidade
Ġperif Ã©r
Ġconsol idou
Ġcanad ense
ĠCirÃºrg ica
ĠLAB ORA
ĠEndo crinologia
Ġnomencla tura
ĠMid dle
Ġsocioeduca tivas
ĠRIS CO
ĠGun ther
ĠCopp olla
ĠreÃºn em
0 30
3 14
8 64
B oa
C OR
C adas
E la
E les
L AN
P op
P DP
U nica
b ei
e ff
f ol
f anato
j Ã³
p ina
s ico
v oa
z ios
z umabe
es con
Ġp Ãµe
Ġc arangue
Ġde du
in ense
Ġm ontes
Ġo posto
te le
te mala
do or
ic one
ma ri
ar Ã©
on Ã¢ncia
Ġv inhos
an ima
ti mentos
ĠA JU
ÃŃ am
ÃŃ rio
Ġda vam
ri dÃ£o
ĠS t
ĠS IT
ci Ã³n
Ġcon sa
Ãº zios
ĠE R
ĠE V
ĠM ER
ĠM Ã£e
ĠB AND
ĠO L
ent or
us ea
Ġna tura
ĠN am
tu Ã¡rios
Ġdes is
Ġdes vios
Ġdes burocra
ĠD ado
ĠD ip
ĠR is
ĠR ia
ĠR ica
ĠR om
ĠF INA
ĠF Ã©lix
ec ologia
ĠT Ã£o
ĠT ria
ĠI vo
des cobri
ĠV entura
ĠL os
ĠL ulinha
ĠL ight
ĠG AN
ĠG ERAL
tam ina
ĠÃł queles
ga dores
Ġtem Ã¡ticos
ĠJ en
ĠH um
ĠH Ãģ
ĠH ack
ĠIn dia
19 9
ig ni
pi das
Ġinforma das
Ġmo ver
cu o
ĠCo alizÃ£o
ĠDe vem
ĠNo vos
pres ente
ĠCom Ã©rcio
Ġvacin em
Ġam igas
pan demia
Ã©d son
fa go
Ġdu ro
Ġdu rado
Ġman tenham
Ġpublica m
Ã´ nibus
ĠAn anin
Ġmos tre
Ġcan tores
Ġcome te
Ġcompartil hasse
olog icamente
Ġtu barÃ£o
Ġtu pini
ĠPro blemas
Ġpan crea
Ġtele vis
ĠDi vulgaÃ§Ã£o
EN TAL
Ġestu pra
ch ner
Ġnes tas
Ġsin Ã´nimo
Ġven ho
Ġven cido
ĠLu va
Ġsol ares
ĠDes in
Ġus em
Ġdivul gam
Ġproje tado
Ġ19 96
Ġ19 81
ĠFa cial
bri la
64 4
Ġpol iclÃŃnicas
Ġdescon h
ĠCa paci
ĠK as
ĠK le
Ġmal u
Ġmal as
TO TAL
TE A
Ġcole tado
Ġ16 2
IC IA
ĠJo Ã©dson
Ã©s io
Ġlim itar
ĠZ ezÃ©
Ġsuper ou
Ġdecis iva
Ġcanal ha
Ġdig na
dr ina
Ġespe rada
Ġatribu indo
51 7
Ġvar iando
Ġficar iam
ĠCu rios
Ġbol sÃµes
Ġcontr Ã¡ria
Ġisola das
26 3
ĠX andÃ£o
24 6
Ġz onas
ĠCl aros
Ġentrar Ã¡
13 5
Ġlevar Ã¡
Ġapos entar
Ġrepresenta do
Ġlemb rando
Ġepidem iologia
ly wood
Ġrecor te
ĠEl dorado
Ġmelho ram
fal ta
Ġcum pra
Ġcontinua mente
ĠPol iclÃŃnica
Ġcul tos
ĠOl ga
ĠOl hos
ĠBan gu
Ġnu vens
44 4
44 8
29 7
Ġart ÃŃstico
ĠUF MG
ðŁ ĺ
Ġestima dos
Ġentrega dores
Ġaus tralia
Ġcomercial izado
Ġprotes tar
Ġreper cus
35 2
Ġsexual idade
Ġneg ros
Ġpreocupa das
Ġvisual izaÃ§Ã£o
Ġextra to
Ġsil icone
Ġpoten ciais
Ġneuro logista
Ġexpecta tivas
Ġinstala das
Ġhiper ten
ĠRib eira
ĠCer ilo
Ġ38 53
ĠEstratÃ©g ica
88 8
07 2
ĠAcre di
Ġga to
ĠBas es
Ġope rando
Ġcru zamento
Ġrea prov
Ġfi brom
voca cia
Ġaprovei te
Ġsobrevi ventes
ile psia
Ġmetodo lÃ³g
era tiva
Ġdesapare ceu
PN S
Ġgo ta
Ġinje t
IST ÃĬNCIA
Ġprovoca dos
Di re
Ġcontrola dos
ĠHu go
Ġinventa dos
ĠorÃ§a mentÃ¡rio
Ġsurpre endeu
Ġrespec tivas
Ġdesper tou
ĠFu tebol
Ġirregular idade
ĠWal l
Ġsapa tos
Ġdram Ã¡ticas
Ġpublic itÃ¡rias
Ġuniversi t
Ġprema turidade
Ġsoc orros
ick bait
Ãºr cuma
Ġbarra gens
ĠRen al
Ġabsor Ã§Ã£o
ĠVin ci
Ġrodo vi
Ġexce to
Ġben Ã©
Ġimpulsion ado
ĠMel ania
prim idos
Ġbilion Ã¡rios
Ġduvidos as
ĠVo z
Ġlad rÃµes
ĠbiÃ³ logo
ĠbiÃ³ psia
Ġmig rantes
Ġplena mente
Ġfraudul entas
ĠTRA BAL
ĠHem isfÃ©rio
Ġtraduz ida
Ġtraduz ido
Ġinteressa do
ĠpÃ©s sima
ĠEL ES
ĠMeta de
Ġnave gaÃ§Ã£o
Ġnave gador
Ġguar dar
hu a
ĠGua temala
ĠReceb i
ĠpÃ¡ tio
Ġhorm Ã´nio
Ġanex os
ĠLon drina
Ġenvenena dos
Ġrobus ta
Ġrecolh idos
Ġsum ir
Ġdeb aixo
Ġfris ar
ĠvÃ´m ito
ĠFerra z
Ġresili entes
ĠEscol ar
especial mente
ĠFis cal
ĠGes tante
Ġinvis ÃŃvel
Ġrevisa do
ĠKir chner
Ġtram itaÃ§Ã£o
quar ta
ĠRog er
Ġsimbol iza
ĠACA BA
Ġcibern Ã©tico
Ġasi Ã¡tico
ĠUl tra
Pr EP
Ġconfis car
Ġcem itÃ©rio
ĠVE JA
ĠCircul aÃ§Ã£o
ĠPDP s
Ġreprim ida
ðŁĳ ı
Ġmagist rado
ĠCus teio
Ġdiges tivo
Ġproveni entes
ĠVit tar
trÃ¡ fico
ĠElia na
Ġfral das
ĠQuin tana
Ġimprescind ÃŃvel
lit us
ĠaÃ§a ÃŃ
ĠChr ist
Ġcolonos copia
ĠcadÃ¡ver es
Ġprecep tores
Ġteleconsul ta
Secre taria
oko vic
Ġover dose
ĠOFIC IAL
ĠDj okovic
Ġrefug iados
Ġfeb ril
Ġgon orreia
Ġimpo tÃªncia
ĠcomeÃ§as sem
Ġalvoro Ã§o
ĠMeneg hel
ĠÃªx ito
Ġdesidra taÃ§Ã£o
ĠTou ca
Ġrepou so
ĠBaru fi
ĠModal idade
Wha tsApp
condicion ado
ĠaperfeiÃ§o ar
Ġviti mou
ĠUbera ba
ĠLevan tamento
ĠMiddle ton
Unica mp
) âĢĿ,
2 91
3 70
4 10
9 80
? "]
B ol
F un
G N
I FA
L ac
N DO
S ai
S AMU
T RE
U CO
b ida
e tos
h im
o o
z io
Ì Ĥ
Ġ !!!!
Ġd rive
en tamos
Ġe g
Ġo dor
Ġo li
ma d
ma ma
ma ras
da ram
al dade
on ada
Ġv Ã´
Ġv enham
ĠA I
ĠA per
ĠA ze
ÃŃ timas
men os
men sa
ĠS Ã¡
ĠS un
ĠS tella
ĠS treet
Ġre en
Ġt b
ĠP inh
ĠP ontes
ĠP ublicaÃ§Ã£o
ĠP itan
ci Ã¡veis
Ġcon vidou
ĠC ine
ĠE F
Ã³ grafo
tos terona
ĠM ist
ĠB aixo
ĠB itcoin
ĠB Ãºzios
Ġb ri
Ġb url
ĠO la
Ġpro to
Ġpro misso
ĠN ome
im es
ĠD um
Ġas tro
Ġ1 64
gu ru
ac to
Ġsu f
Ġsu ÃŃ
ĠF ER
ĠF ome
Ġal fab
Ġal ocaÃ§Ã£o
Ġos sos
Ġser iedade
Ġan g
Ġan ten
ĠT ais
ĠT rem
ĠT itan
Ġac am
pe ga
des sem
Ġen car
Ġto cou
ando m
Ġca tas
ĠL ad
Ġent u
ed ram
ĠG OLPE
tam e
Ġcas inos
Ġcomp ac
ĠH ansenÃŃase
ĠU R
Ġentre m
ca o
ca usa
Ġ3 20
ĠestÃ¡ dios
ĠIn form
ÃŃs que
pi k
pi t
por Ã¢
Ġar ra
Ġar ru
Ġar tÃ©rias
Ġreal izamos
Ġaten tar
Ġnas cidas
vid oria
Ġpres cre
Ġpres tadores
Ġcontra tou
ĠAl vorada
ĠAl colum
ĠCo ra
ĠCon venÃ§Ãµes
ĠCon junto
Ġele vadas
Ġcria Ã§Ãµes
ĠPa bllo
ĠÃ¡ caros
Ġmas cara
Ġcar Ãªncia
Ġind ic
Ġind icaram
Ġti re
ĠAn ual
Ġrela tivo
lan o
Ġrespon da
Ġexpl ÃŃci
Ġdist Ã¢ncias
tr ÃŃcia
Ġcha ves
Ġvol tamos
ola ev
Ġra cha
ian ismo
Ġempres Ã¡ria
lex andre
Ġer Ã©til
Ġprecis as
ĠSa dia
Ġsan ta
ĠDes con
ĠDes sas
Ġcol omb
Ġaju dÃ¡
27 0
Ġ24 1
64 6
Ġnome aÃ§Ã£o
Ġsal vando
ĠCar dio
ĠCar ioca
Ġrecomen dÃ¡vel
Ġmedicamentos o
organ ismo
Ġado tados
Ġ18 6
Ġinclu ÃŃdas
Ġmon u
77 8
Ġrecomenda mos
ĠRo xo
Ġnacional idade
Ãĩ OS
TE C
val or
ĠPo Ã§os
Ġ16 7
84 8
ĠNe o
IC AS
Ġban ido
Ġedi tada
Ġfac hada
pu t
ĠreforÃ§ aram
ĠEla ine
Ġatra ves
Ġprior izadas
Ġcal af
Ġcontribu ÃŃdo
Ġcontribu intes
Ġba tal
gre ve
Ġcres cido
Ġcres centes
Ġrealizar Ã¡
ĠGo tinha
Ġdever ÃŃamos
ĠX ingu
Ġmer da
Ã´m icos
ĠsÃ© ries
Ġveri ficou
Ġla gar
Ġla tente
DA H
Ġreti rando
ĠPar k
Ġhabilita do
Ġapos tadores
ĠMo ral
Ġrecor rer
ĠBu eno
Ġemo cionado
Ġw ha
Ġfic ha
Ġengan osos
Ġdetec tando
ĠBan deira
Ġregula tÃ³rio
Ġprepara das
Ġvisita do
Ġep id
98 7
edn uo
03 4
Ġliber tar
Ġonc olÃ³gicas
Ġmac ulosa
Ġbon ec
Ġhiper sensibilidade
ĠBra g
Ġpotencial izar
ĠÃįn dice
ĠCer tificado
Ãļ M
Ġchec amos
Ġinfra verm
Ġbomb ou
ĠAC RE
ĠNA DA
Ġadap taÃ§Ãµes
ICA ÃĩÃĥO
ĠIno vaÃ§Ãµes
Ġrea dequ
Ġnotic ia
Ġafas tada
Ġlegal izaÃ§Ã£o
Ġdescri Ã§Ãµes
Ġpsic ologia
Ġconjun tamente
ĠmÃ³ dulos
ĠFortale cimento
Ġtreina mentos
ĠDaniel la
ĠâĢĿ .
ĠON DE
ĠVol ante
DC NT
ĠMag no
ĠEST RA
ĠHel der
Ġbloque ia
Ġconspira tÃ³ria
Ġinterrom peu
ĠBon sucesso
ĠUBS I
ĠAgu iar
Ġenf raque
ĠArti go
Ġdemoc ra
Ġverifica da
ty le
Ġembar car
ĠGer enciamento
Ġacer tar
ĠNik olaev
Ġcompan heiro
TU BA
ĠMara jÃ³
ĠDepu tado
ĠProdu tivo
ĠCU RA
ĠIntegra da
ĠIl lumina
Ġdemi tir
Ġenter rada
ĠPC DT
Ġcontempl ar
fi brila
ĠVin culado
ĠMos sad
Ġdesma io
gover na
Ġleis hmaniose
ĠPatr icia
Ġexpul sÃ£o
ĠVia gem
ĠMedica mento
Ġmig raÃ§Ã£o
ĠHol lywood
ĠAndre a
ĠLA GO
Ġdese jar
Ġintera gir
Ġcondena da
Ġinfeccios o
ĠBenefic Ãªncia
Ġfoca da
ĠAdolesc entes
Ġanex o
Ġesgo to
Ġinteira mente
Ġestre las
Ġassintom Ã¡ticos
Ġsacri fÃŃcio
Ġfris ou
ĠSele Ã§Ã£o
Mu itas
ĠCoordena dor
ĠMay ra
Ġcare cem
Ġremune raÃ§Ã£o
Ġantirretro virais
ĠpÃ³l vora
ĠDez embro
Ġborra cha
Ġmovimenta Ã§Ãµes
Ġsolid Ã¡ria
Ġautoimun e
ĠProcura doria
Ġclare za
Ġreel eito
TÃĵ RIO
ĠCRIAN ÃĩAS
ĠâĢĭ âĢĭ
Ġrecla mar
Ġimpr Ã³p
Ġfluv iais
Ġfragil idade
Ġfalcatru a
Ins tagram
ĠcÃŃ r
Ġintima Ã§Ã£o
Ġdesacredi tar
ĠestÃŃm ulo
ĠPÃ¡ tria
terÃ¡ picos
Ġatmos fera
Ġatenu ado
ĠPOP ULAÃĩÃĥO
ĠdrÃ¡s tica
Ġglic emia
Ġvagabun do
Ġsacerdo te
onh entos
ĠSUB TOTAL
ĠYas min
Divul ga
ĠheterogÃª neas
ĠJeffer son
Ġcoe ficiente
Ġdesesta bilizar
ĠPrima vera
ĠâĨ Ĵ
. -
2 60
3 17
4 55
5 16
5 63
7 20
7 90
B om
C an
D M
F ER
H IA
I K
M ed
O ESTE
P ix
S al
T ele
X i
Y ou
c antes
c Os
e SB
f ul
f lex
f elizmente
l icos
m ÃŃnio
o ral
r icos
r inha
s endo
t Ãª
u g
y es
Ġa x
Ġa te
Ġa gem
es to
Ġde mos
Ġde gra
ta SUS
Ġs ing
qu inhas
ic iano
ma te
Ġf ir
[...]
