{
  "version": "1.0",
  "truncation": null,
  "padding": null,
  "added_tokens": [
    {
      "id": 0,
      "content": "<s>",
      "single_word": false,
      "lstrip": false,
      "rstrip": false,
      "normalized": false,
      "special": true
    },
    {
      "id": 1,
      "content": "<pad>",
      "single_word": false,
      "lstrip": false,
      "rstrip": false,
      "normalized": false,
      "special": true
    },
    {
      "id": 2,
      "content": "</s>",
      "single_word": false,
      "lstrip": false,
      "rstrip": false,
      "normalized": false,
      "special": true
    },
    {
      "id": 3,
      "content": "<unk>",
      "single_word": false,
      "lstrip": false,
      "rstrip": false,
      "normalized": false,
      "special": true
    },
    {
      "id": 4,
      "content": "<mask>",
      "single_word": false,
      "lstrip": false,
      "rstrip": false,
      "normalized": false,
      "special": true
    }
  ],
  "normalizer": null,
  "pre_tokenizer": {
    "type": "ByteLevel",
    "add_prefix_space": false,
    "trim_offsets": true,
    "use_regex": true
  },
  "post_processor": {
    "type": "ByteLevel",
    "add_prefix_space": true,
    "trim_offsets": false,
    "use_regex": true
  },
  "decoder": {
    "type": "ByteLevel",
    "add_prefix_space": true,
    "trim_offsets": true,
    "use_regex": true
  },
  "model": {
    "type": "BPE",
    "dropout": null,
    "unk_token": null,
    "continuing_subword_prefix": "",
    "end_of_word_suffix": "",
    "fuse_unk": false,
    "byte_fallback": false,
    "ignore_merges": false,
    "vocab": {
      "<s>": 0,
      "<pad>": 1,
      "</s>": 2,
      "<unk>": 3,
      "<mask>": 4,
      "!": 5,
      "\"": 6,
      "#": 7,
      "$": 8,
      "%": 9,
      "&": 10,
      "'": 11,
      "(": 12,
      ")": 13,
      "*": 14,
      "+": 15,
      ",": 16,
      "-": 17,
      ".": 18,
      "/": 19,
      "0": 20,
      "1": 21,
      "2": 22,
      "3": 23,
      "4": 24,
      "5": 25,
      "6": 26,
      "7": 27,
      "8": 28,
      "9": 29,
      ":": 30,
      ";": 31,
      "<": 32,
      "=": 33,
      ">": 34,
      "?": 35,
      "@": 36,
      "A": 37,
      "B": 38,
      "C": 39,
      "D": 40,
      "E": 41,
      "F": 42,
      "G": 43,
      "H": 44,
      "I": 45,
      "J": 46,
      "K": 47,
      "L": 48,
      "M": 49,
      "N": 50,
      "O": 51,
      "P": 52,
      "Q": 53,
      "R": 54,
      "S": 55,
      "T": 56,
      "U": 57,
      "V": 58,
      "W": 59,
      "X": 60,
      "Y": 61,
      "Z": 62,
      "[": 63,
      "\\": 64,
      "]": 65,
      "^": 66,
      "_": 67,
      "`": 68,
      "a": 69,
      "b": 70,
      "c": 71,
      "d": 72,
      "e": 73,
      "f": 74,
      "g": 75,
      "h": 76,
      "i": 77,
      "j": 78,
      "k": 79,
      "l": 80,
      "m": 81,
      "n": 82,
      "o": 83,
      "p": 84,
      "q": 85,
      "r": 86,
      "s": 87,
      "t": 88,
      "u": 89,
      "v": 90,
      "w": 91,
      "x": 92,
      "y": 93,
      "z": 94,
      "{": 95,
      "|": 96,
      "}": 97,
      "~": 98,
      "¡": 99,
      "¢": 100,
      "£": 101,
      "¤": 102,
      "¥": 103,
      "¦": 104,
      "§": 105,
      "¨": 106,
      "©": 107,
      "ª": 108,
      "«": 109,
      "¬": 110,
      "®": 111,
      "¯": 112,
      "°": 113,
      "±": 114,
      "²": 115,
      "³": 116,
      "´": 117,
      "µ": 118,
      "¶": 119,
      "·": 120,
      "¸": 121,
      "¹": 122,
      "º": 123,
      "»": 124,
      "¼": 125,
      "½": 126,
      "¾": 127,
      "¿": 128,
      "À": 129,
      "Á": 130,
      "Â": 131,
      "Ã": 132,
      "Ä": 133,
      "Å": 134,
      "Æ": 135,
      "Ç": 136,
      "È": 137,
      "É": 138,
      "Ê": 139,
      "Ë": 140,
      "Ì": 141,
      "Í": 142,
      "Î": 143,
      "Ï": 144,
      "Ð": 145,
      "Ñ": 146,
      "Ò": 147,
      "Ó": 148,
      "Ô": 149,
      "Õ": 150,
      "Ö": 151,
      "×": 152,
      "Ø": 153,
      "Ù": 154,
      "Ú": 155,
      "Û": 156,
      "Ü": 157,
      "Ý": 158,
      "Þ": 159,
      "ß": 160,
      "à": 161,
      "á": 162,
      "â": 163,
      "ã": 164,
      "ä": 165,
      "å": 166,
      "æ": 167,
      "ç": 168,
      "è": 169,
      "é": 170,
      "ê": 171,
      "ë": 172,
      "ì": 173,
      "í": 174,
      "î": 175,
      "ï": 176,
      "ð": 177,
      "ñ": 178,
      "ò": 179,
      "ó": 180,
      "ô": 181,
      "õ": 182,
      "ö": 183,
      "÷": 184,
      "ø": 185,
      "ù": 186,
      "ú": 187,
      "û": 188,
      "ü": 189,
      "ý": 190,
      "þ": 191,
      "ÿ": 192,
      "Ā": 193,
      "ā": 194,
      "Ă": 195,
      "ă": 196,
      "Ą": 197,
      "ą": 198,
      "Ć": 199,
      "ć": 200,
      "Ĉ": 201,
      "ĉ": 202,
      "Ċ": 203,
      "ċ": 204,
      "Č": 205,
      "č": 206,
      "Ď": 207,
      "ď": 208,
      "Đ": 209,
      "đ": 210,
      "Ē": 211,
      "ē": 212,
      "Ĕ": 213,
      "ĕ": 214,
      "Ė": 215,
      "ė": 216,
      "Ę": 217,
      "ę": 218,
      "Ě": 219,
      "ě": 220,
      "Ĝ": 221,
      "ĝ": 222,
      "Ğ": 223,
      "ğ": 224,
      "Ġ": 225,
      "ġ": 226,
      "Ģ": 227,
      "ģ": 228,
      "Ĥ": 229,
      "ĥ": 230,
      "Ħ": 231,
      "ħ": 232,
      "Ĩ": 233,
      "ĩ": 234,
      "Ī": 235,
      "ī": 236,
      "Ĭ": 237,
      "ĭ": 238,
      "Į": 239,
      "į": 240,
      "İ": 241,
      "ı": 242,
      "Ĳ": 243,
      "ĳ": 244,
      "Ĵ": 245,
      "ĵ": 246,
      "Ķ": 247,
      "ķ": 248,
      "ĸ": 249,
      "Ĺ": 250,
      "ĺ": 251,
      "Ļ": 252,
      "ļ": 253,
      "Ľ": 254,
      "ľ": 255,
      "Ŀ": 256,
      "ŀ": 257,
      "Ł": 258,
      "ł": 259,
      "Ń": 260,
      "Ġd": 261,
      "Ġa": 262,
      "es": 263,
      "Ġp": 264,
      "os": 265,
      "ra": 266,
      "en": 267,
      "Ġc": 268,
      "Ġde": 269,
      "Ġe": 270,
      "ta": 271,
      "as": 272,
      "er": 273,
      "Ġs": 274,
      "is": 275,
      "qu": 276,
      "or": 277,
      "Ã£": 278,
      "in": 279,
      "Ã£o": 280,
      "Ġn": 281,
      "ia": 282,
      "Ġm": 283,
      "re": 284,
      "Ġco": 285,
      "Ġo": 286,
      "te": 287,
      "Ã§": 288,
      "Ġqu": 289,
      "to": 290,
      "do": 291,
      "ic": 292,
      "de": 293,
      "ma": 294,
      "Ġf": 295,
      "Ġque": 296,
      "da": 297,
      "Ã©": 298,
      "ar": 299,
      "00": 300,
      "al": 301,
      "Ã¡": 302,
      "on": 303,
      "Ġv": 304,
      "Ġcom": 305,
      "Ġu": 306,
      "ro": 307,
      "Ġdo": 308,
      "an": 309,
      "ti": 310,
      "ĠA": 311,
      "Ã§Ã£o": 312,
      "ÃŃ": 313,
      "men": 314,
      "Ġda": 315,
      "ara": 316,
      "ri": 317,
      "Ġes": 318,
      "ĠS": 319,
      "Ġem": 320,
      "Ġre": 321,
      "Ġin": 322,
      "il": 323,
      "Ġt": 324,
      "el": 325,
      "ĠP": 326,
      "âĢ": 327,
      "Ġno": 328,
      "ci": 329,
      "em": 330,
      "Ġcon": 331,
      "ul": 332,
      "ĠC": 333,
      "Ãº": 334,
      "ĠE": 335,
      "ei": 336,
      "Ġpara": 337,
      "čĠ": 338,
      "čĠč": 339,
      "cia": 340,
      "ol": 341,
      "ica": 342,
      "Ã³": 343,
      "Ġse": 344,
      "un": 345,
      "tos": 346,
      "so": 347,
      "ĠÃ©": 348,
      "dos": 349,
      "Ġ(": 350,
      "Ġh": 351,
      "Ġg": 352,
      "Ãª": 353,
      "ĠM": 354,
      "ĠB": 355,
      "sa": 356,
      "ida": 357,
      "ist": 358,
      "Ġb": 359,
      "res": 360,
      "Ġl": 361,
      "Ġum": 362,
      "ĠO": 363,
      "ent": 364,
      "Ġuma": 365,
      "Ġpro": 366,
      "ria": 367,
      "us": 368,
      "am": 369,
      "Ġna": 370,
      "mento": 371,
      "iz": 372,
      "ais": 373,
      "ir": 374,
      "ras": 375,
      "ĠnÃ£o": 376,
      "Ġpor": 377,
      "ĠN": 378,
      "tu": 379,
      "aÃº": 380,
      "aÃºde": 381,
      "Ġte": 382,
      "Ãµ": 383,
      "ĠâĢ": 384,
      "Ġdes": 385,
      "Ãµes": 386,
      "im": 387,
      "ĠD": 388,
      "ĠR": 389,
      "Ġas": 390,
      "ou": 391,
      "Ġ2": 392,
      "ha": 393,
      "Ġap": 394,
      "aÃ§Ã£o": 395,
      "le": 396,
      "di": 397,
      "Ġ1": 398,
      "gu": 399,
      "ac": 400,
      "ter": 401,
      "ita": 402,
      "das": 403,
      "va": 404,
      "Ġsu": 405,
      "oc": 406,
      "ĠF": 407,
      "Ġal": 408,
      "Ġso": 409,
      "Ġos": 410,
      "ente": 411,
      "Ġfo": 412,
      "ĠÃ": 413,
      "tra": 414,
      "rio": 415,
      "se": 416,
      "ĠâĢľ": 417,
      "âĢĿ": 418,
      "ec": 419,
      "Ġou": 420,
      "vi": 421,
      "Ġpel": 422,
      "om": 423,
      "Ġser": 424,
      "Ã§Ãµes": 425,
      "Ġan": 426,
      "tes": 427,
      "ina": 428,
      "mente": 429,
      "ran": 430,
      "ĠT": 431,
      "ncia": 432,
      "ĠSaÃºde": 433,
      "oa": 434,
      "Ġex": 435,
      "Ġac": 436,
      "Ġj": 437,
      "ĠI": 438,
      "Ã©m": 439,
      "pe": 440,
      "idade": 441,
      "Ġpo": 442,
      "Ġdi": 443,
      "rasil": 444,
      "Ġcomo": 445,
      "orma": 446,
      "Ġest": 447,
      "la": 448,
      "ve": 449,
      "Ã§a": 450,
      "ram": 451,
      "des": 452,
      "Ġen": 453,
      "ver": 454,
      "Ġmais": 455,
      "Ġpa": 456,
      "Ġat": 457,
      "esso": 458,
      "Ġdos": 459,
      "ĠEs": 460,
      "ico": 461,
      "Ġao": 462,
      "Ġfa": 463,
      "cion": 464,
      "Ġto": 465,
      "bre": 466,
      "ando": 467,
      "Ġfal": 468,
      "ĠV": 469,
      "Ġca": 470,
      "ĠL": 471,
      "go": 472,
      "Ġent": 473,
      "ed": 474,
      "Ġinf": 475,
      "Ãªncia": 476,
      "ĠG": 477,
      "bl": 478,
      "tam": 479,
      "tas": 480,
      "Ġres": 481,
      "du": 482,
      "ores": 483,
      "co": 484,
      "ĠÃł": 485,
      "ros": 486,
      "io": 487,
      "mo": 488,
      "gem": 489,
      "Ġmen": 490,
      "Ġ20": 491,
      "Ġesta": 492,
      "ga": 493,
      "Ġfoi": 494,
      "Ġter": 495,
      "Ġtem": 496,
      "Ġsobre": 497,
      "inist": 498,
      "ĠBrasil": 499,
      "Ġcas": 500,
      "Ġpre": 501,
      "ce": 502,
      "Ġcomp": 503,
      "ĠJ": 504,
      "tan": 505,
      "vo": 506,
      "ĠH": 507,
      "si": 508,
      "qui": 509,
      "Ġhist": 510,
      "ral": 511,
      "ĠhistÃ³": 512,
      "Ġim": 513,
      "ai": 514,
      "ru": 515,
      "Ġdas": 516,
      "ĠU": 517,
      "po": 518,
      "Ġsi": 519,
      "ĠvÃŃ": 520,
      "Ġpr": 521,
      "pa": 522,
      "Ġvac": 523,
      "Ġtra": 524,
      "Ġpesso": 525,
      "Ġmil": 526,
      "cul": 527,
      "Ġpelo": 528,
      "na": 529,
      "isso": 530,
      "org": 531,
      "Ġentre": 532,
      "iza": 533,
      "ho": 534,
      "oatos": 535,
      "gen": 536,
      "Ġpar": 537,
      "ĠsaÃºde": 538,
      "ca": 539,
      "pl": 540,
      "Ġinter": 541,
      "tal": 542,
      "Ġper": 543,
      "pos": 544,
      "ab": 545,
      "tar": 546,
      "Ġ3": 547,
      "Ġnos": 548,
      "),": 549,
      "ĠestÃ¡": 550,
      "ĠhistÃ³ria": 551,
      "id": 552,
      "ĠIn": 553,
      "tic": 554,
      "fic": 555,
      "con": 556,
      "endo": 557,
      "mos": 558,
      "19": 559,
      "ĠjÃ¡": 560,
      "Ġmu": 561,
      "cial": 562,
      "est": 563,
      "ÃŃs": 564,
      "ocÃª": 565,
      "eiro": 566,
      "ig": 567,
      "que": 568,
      "mentos": 569,
      "eira": 570,
      "Ġ-": 571,
      "pi": 572,
      "blica": 573,
      "cional": 574,
      "por": 575,
      "vel": 576,
      ").": 577,
      "Ã¢": 578,
      "entes": 579,
      "ito": 580,
      "me": 581,
      "Ġinforma": 582,
      "Ġcir": 583,
      "gun": 584,
      "Ġpessoas": 585,
      "ĠMinist": 586,
      "der": 587,
      "fer": 588,
      "enta": 589,
      "Ġmo": 590,
      "Ġpos": 591,
      "ĠSe": 592,
      "cu": 593,
      "til": 594,
      "ĠvocÃª": 595,
      "Ġar": 596,
      "Ġreal": 597,
      "Ã©rio": 598,
      "ĠNa": 599,
      "bÃ©m": 600,
      "ista": 601,
      "ne": 602,
      "Ġtam": 603,
      "dade": 604,
      "ĠvÃŃde": 605,
      "no": 606,
      "Ġver": 607,
      "ĠW": 608,
      "ĠPor": 609,
      "eb": 610,
      "sÃ£o": 611,
      "Ġ\\": 612,
      "Ġmun": 613,
      "mas": 614,
      "Ġass": 615,
      "he": 616,
      "rus": 617,
      "dem": 618,
      "tro": 619,
      "je": 620,
      "ĠMinistÃ©rio": 621,
      "ten": 622,
      "Ġaten": 623,
      "20": 624,
      "um": 625,
      "Ġreg": 626,
      "ja": 627,
      "Ã¡rio": 628,
      "Ġi": 629,
      "ĠBoatos": 630,
      "\":": 631,
      "cl": 632,
      "Ġnas": 633,
      "Ġpas": 634,
      "rim": 635,
      "av": 636,
      "Ġmensa": 637,
      "vid": 638,
      "pp": 639,
      "gra": 640,
      "Ġcircul": 641,
      "Âł": 642,
      "Ġcor": 643,
      "Ġdia": 644,
      "idades": 645,
      "cer": 646,
      "tiv": 647,
      "ĠvÃŃdeo": 648,
      "Ġconta": 649,
      "pita": 650,
      "tor": 651,
      "Ġpres": 652,
      "Ġcontra": 653,
      "fica": 654,
      "ĠsÃ£o": 655,
      "Ġmes": 656,
      "ĠtambÃ©m": 657,
      "isa": 658,
      "ts": 659,
      "sas": 660,
      "Ġmor": 661,
      "Ġdoen": 662,
      "iste": 663,
      "Ġsug": 664,
      "Ġcasos": 665,
      "rar": 666,
      "ĠAl": 667,
      "Ġau": 668,
      "man": 669,
      "icos": 670,
      "Ġconf": 671,
      "ĠCo": 672,
      "Ġne": 673,
      "ula": 674,
      "ÃŃci": 675,
      "ĠDe": 676,
      "Ġpela": 677,
      "Ġvi": 678,
      "ĠNo": 679,
      "pres": 680,
      "tica": 681,
      "Ã³s": 682,
      "ial": 683,
      "og": 684,
      "Ġdis": 685,
      "čĊ": 686,
      "bi": 687,
      "ĠCon": 688,
      "ĠEm": 689,
      "rios": 690,
      "Ã§as": 691,
      "ĠâĢĵ": 692,
      "amos": 693,
      "ospita": 694,
      "Ãªs": 695,
      "ĠWha": 696,
      "Ġpu": 697,
      "Ġele": 698,
      "Ġcons": 699,
      "ber": 700,
      "ez": 701,
      "Ġcl": 702,
      ",\"": 703,
      "Ġsegu": 704,
      "Ġcria": 705,
      "ĠCom": 706,
      "tura": 707,
      "Ġisso": 708,
      "ba": 709,
      "Ġapon": 710,
      "Ġqual": 711,
      "rg": 712,
      "ni": 713,
      "estÃ£o": 714,
      "Ġvacin": 715,
      "Ġlei": 716,
      "Ġam": 717,
      "aro": 718,
      "Ġfaz": 719,
      "Ġout": 720,
      "US": 721,
      "ĠPa": 722,
      "ciais": 723,
      "pon": 724,
      "ess": 725,
      "son": 726,
      "oato": 727,
      "ven": 728,
      "ĠpaÃŃs": 729,
      "Ġgente": 730,
      "Ġforam": 731,
      "ĠAs": 732,
      "pecial": 733,
      "Ġcu": 734,
      "ĠÃ¡": 735,
      "Ġanos": 736,
      "inda": 737,
      "pan": 738,
      "Ġmas": 739,
      "tiva": 740,
      "Ġsem": 741,
      "Ã©d": 742,
      "icas": 743,
      "Ġgra": 744,
      "tivo": 745,
      "âĢĿ.": 746,
      "Ġvacina": 747,
      "Ġme": 748,
      "App": 749,
      "Ġma": 750,
      "tsApp": 751,
      "Ġ202": 752,
      "ĠWhatsApp": 753,
      "tÃ©": 754,
      "ede": 755,
      "ke": 756,
      "\":\"": 757,
      "Ġon": 758,
      "Ġpode": 759,
      "ĠCovid": 760,
      "cor": 761,
      "Ġfor": 762,
      "Ġ4": 763,
      "Ġr": 764,
      "indo": 765,
      "eio": 766,
      "ĠatÃ©": 767,
      "ĠhÃ¡": 768,
      "over": 769,
      "veis": 770,
      "Ġ5": 771,
      "pul": 772,
      "vol": 773,
      "Ġteria": 774,
      "fa": 775,
      "ĠPara": 776,
      "Ġmilh": 777,
      "tir": 778,
      "Ġcar": 779,
      "aram": 780,
      "Ġtrata": 781,
      "Ġmensagem": 782,
      "net": 783,
      "xto": 784,
      "gÃªncia": 785,
      "ĠNÃ£o": 786,
      "gens": 787,
      "olÃŃ": 788,
      "Ġaqui": 789,
      "Ġinternet": 790,
      "sos": 791,
      "ospital": 792,
      "Ġins": 793,
      "fis": 794,
      "ado": 795,
      "Ġho": 796,
      "bu": 797,
      "âĢĿ,": 798,
      "Ã§o": 799,
      "Ġind": 800,
      "tado": 801,
      "ĠEn": 802,
      "OR": 803,
      "Ġdu": 804,
      "61": 805,
      "dio": 806,
      "ws": 807,
      "Ġsite": 808,
      "tou": 809,
      "lo": 810,
      "pal": 811,
      "izaÃ§Ã£o": 812,
      "rans": 813,
      "Ġle": 814,
      "onte": 815,
      "rias": 816,
      "Ġmunic": 817,
      "\",\"": 818,
      "Ġel": 819,
      "quer": 820,
      "Ã¡s": 821,
      "dores": 822,
      "dor": 823,
      "Ã¢n": 824,
      "Ġti": 825,
      "Ġdesmen": 826,
      "bal": 827,
      "sion": 828,
      "Ġacor": 829,
      "ias": 830,
      "Ġman": 831,
      "tÃ³": 832,
      "be": 833,
      "istas": 834,
      "Ġainda": 835,
      "Ġab": 836,
      "ves": 837,
      "Ġob": 838,
      "Ġpublica": 839,
      "Ã´": 840,
      "Ġsociais": 841,
      "Ġch": 842,
      "Ġforma": 843,
      "ĠestÃ£o": 844,
      "Ġredes": 845,
      "olson": 846,
      "tores": 847,
      "Ġequi": 848,
      "Ġacordo": 849,
      "bil": 850,
      "lti": 851,
      "Ġprodu": 852,
      "ira": 853,
      "dimento": 854,
      "Ġpopul": 855,
      "eito": 856,
      "Ġaos": 857,
      "ĠmÃ©d": 858,
      "Ġdisso": 859,
      "Ġconte": 860,
      "Ã¡ria": 861,
      "Ġnews": 862,
      "Ġalgu": 863,
      "ĠpÃº": 864,
      "raÃ§Ã£o": 865,
      "ase": 866,
      "Ġprim": 867,
      "Ġaf": 868,
      "Ġtrans": 869,
      "esta": 870,
      "it": 871,
      "Ġcont": 872,
      "ÃŃl": 873,
      "cre": 874,
      "ĠOs": 875,
      "Ġaponta": 876,
      "Ġ9": 877,
      "Ġmed": 878,
      "ĠinformaÃ§Ã£o": 879,
      "olsonaro": 880,
      "usa": 881,
      "Ġtexto": 882,
      "irma": 883,
      "Ġmuito": 884,
      "Ġarti": 885,
      "Ġ6": 886,
      "Ġmesmo": 887,
      "fission": 888,
      "titu": 889,
      "Ġdesmenti": 890,
      "ĠÃº": 891,
      "idente": 892,
      "ix": 893,
      "enh": 894,
      "ÃŃrus": 895,
      "Ġfun": 896,
      "ĠAn": 897,
      "Ġsua": 898,
      "Ġor": 899,
      "for": 900,
      "overno": 901,
      "per": 902,
      "Ġdiz": 903,
      "inal": 904,
      "ĠmilhÃµes": 905,
      "onav": 906,
      "Ġsendo": 907,
      "ĠdoenÃ§a": 908,
      "pes": 909,
      "Ġcaso": 910,
      "Ġmos": 911,
      "Ġapres": 912,
      "ok": 913,
      "Ġbrasil": 914,
      "ora": 915,
      "ĠBolsonaro": 916,
      "ribu": 917,
      "ĠpopulaÃ§Ã£o": 918,
      "ĠprÃ³": 919,
      "Ġposs": 920,
      "tados": 921,
      "cis": 922,
      "com": 923,
      "ĠQ": 924,
      "artil": 925,
      "ĠEsse": 926,
      "Ġmai": 927,
      "har": 928,
      "Ġfake": 929,
      "mer": 930,
      "Ġcontato": 931,
      "Ġpe": 932,
      "lis": 933,
      "enti": 934,
      "Ġprofission": 935,
      "Ġespecial": 936,
      "Ġdire": 937,
      "Ġcan": 938,
      "ticas": 939,
      "vem": 940,
      "Ġregist": 941,
      "ĠSÃ£o": 942,
      "ĠNacional": 943,
      "ĠAlÃ©m": 944,
      "ulo": 945,
      "lin": 946,
      "Ġessa": 947,
      "br": 948,
      "Ġpes": 949,
      "ÃŃvel": 950,
      "grama": 951,
      "rante": 952,
      "onavÃŃrus": 953,
      "gundo": 954,
      "enas": 955,
      "ÃŃn": 956,
      "Ġtema": 957,
      "inha": 958,
      "Ġcome": 959,
      "Ġvai": 960,
      "Ġfalsa": 961,
      "Ġcompartil": 962,
      "Ġsuger": 963,
      "Ġatu": 964,
      "Ġservi": 965,
      "itos": 966,
      "clus": 967,
      "Ġrece": 968,
      "ĠRe": 969,
      "Ãªn": 970,
      "ederal": 971,
      "ĠmunicÃŃ": 972,
      "ebo": 973,
      "acebo": 974,
      "posta": 975,
      "Ġ7": 976,
      "Ġvez": 977,
      "ela": 978,
      "Ġtodos": 979,
      "Ã¡rios": 980,
      "Ġima": 981,
      "Ġano": 982,
      "bro": 983,
      "cn": 984,
      "Ã§os": 985,
      "acebook": 986,
      "iÃ§Ã£o": 987,
      "Ġcer": 988,
      "tico": 989,
      "RA": 990,
      "Ġpaci": 991,
      "Ġtodo": 992,
      "istema": 993,
      "Ġartigo": 994,
      "ĠVer": 995,
      "ip": 996,
      "Ġcrian": 997,
      "000": 998,
      "uma": 999,
      "Ġseja": 1000,
      "eiros": 1001,
      "ĠinformaÃ§Ãµes": 1002,
      "ĠLe": 1003,
      "Ġesc": 1004,
      "Ġprin": 1005,
      "her": 1006,
      "Ġ201": 1007,
      "ĠcoronavÃŃrus": 1008,
      "ĠÃī": 1009,
      "Ġsa": 1010,
      "Ġimp": 1011,
      "ĠAten": 1012,
      "inh": 1013,
      "olog": 1014,
      "cias": 1015,
      "Ġpassa": 1016,
      "ĠRio": 1017,
      "ĠSUS": 1018,
      "Ġrela": 1019,
      "iser": 1020,
      "ĠPs": 1021,
      "eral": 1022,
      "iar": 1023,
      "Ġminist": 1024,
      "gar": 1025,
      "Ġmaior": 1026,
      "Ġmul": 1027,
      "Ġqualquer": 1028,
      "Ġtu": 1029,
      "Boato": 1030,
      "ĠCh": 1031,
      "Ġoutros": 1032,
      "Ġtr": 1033,
      "panha": 1034,
      "pios": 1035,
      "Ġquiser": 1036,
      "ES": 1037,
      "Ġcausa": 1038,
      "Ġela": 1039,
      "ima": 1040,
      "Ã¢ncia": 1041,
      "ĠPro": 1042,
      "Ġmostra": 1043,
      "Ġprofissionais": 1044,
      "lan": 1045,
      "tante": 1046,
      "unto": 1047,
      "Ġimpor": 1048,
      "Ġseu": 1049,
      "Ġverdade": 1050,
      "rem": 1051,
      "Ġtratamento": 1052,
      "Ġcita": 1053,
      "Ġloc": 1054,
      "Ġav": 1055,
      "Ġmeio": 1056,
      "ĠPOR": 1057,
      "Ġesse": 1058,
      "Ġtrabal": 1059,
      "Ġrespon": 1060,
      "demia": 1061,
      "ĠFacebook": 1062,
      "ing": 1063,
      "ĠOu": 1064,
      "ĠUni": 1065,
      "Ġsugerir": 1066,
      "ĠVersÃ£o": 1067,
      "Ġencon": 1068,
      "ÃŃlia": 1069,
      "Ġleitores": 1070,
      "izar": 1071,
      "Ġli": 1072,
      "ĠsugestÃ£o": 1073,
      "Ġche": 1074,
      "ĠQu": 1075,
      "Ãªm": 1076,
      "pre": 1077,
      "ÃŃcio": 1078,
      "Ġtes": 1079,
      "one": 1080,
      "car": 1081,
      "za": 1082,
      "Ġdias": 1083,
      "menta": 1084,
      "Ġpan": 1085,
      "ares": 1086,
      "ĠapÃ³s": 1087,
      "Ġprinci": 1088,
      "Ġpesqu": 1089,
      "Ġutil": 1090,
      "ĠconteÃº": 1091,
      "ĠLula": 1092,
      "Ġocor": 1093,
      "Ġad": 1094,
      "Ã³g": 1095,
      "ciona": 1096,
      "Ġexpl": 1097,
      "Ġdesta": 1098,
      "forma": 1099,
      "Ġdiver": 1100,
      "aran": 1101,
      "vas": 1102,
      "ĠÃºlti": 1103,
      "rado": 1104,
      "Ġcam": 1105,
      "ancia": 1106,
      "ĠSan": 1107,
      "Ġapenas": 1108,
      "cimento": 1109,
      "fade": 1110,
      "ĠÃłs": 1111,
      "ele": 1112,
      "Ġatendimento": 1113,
      "ag": 1114,
      "ĠÃ³": 1115,
      "ĠAgÃªncia": 1116,
      "Ġnenh": 1117,
      "Ġtele": 1118,
      "Ġparte": 1119,
      "ĠsÃ³": 1120,
      "Ġuso": 1121,
      "Ġnada": 1122,
      "TA": 1123,
      "Ġnot": 1124,
      "tre": 1125,
      "rande": 1126,
      "Ġgoverno": 1127,
      "ĠserÃ¡": 1128,
      "ĠmunicÃŃpios": 1129,
      "ĠPaulo": 1130,
      "Ġrep": 1131,
      "gora": 1132,
      "ĠvÃŃrus": 1133,
      "Ġun": 1134,
      "Ġestra": 1135,
      "Ġpresidente": 1136,
      "Ġmar": 1137,
      "Ãºmer": 1138,
      "inu": 1139,
      "Ġdist": 1140,
      "ĠpolÃŃ": 1141,
      "Ã¡veis": 1142,
      "Ġestados": 1143,
      "Ġval": 1144,
      "Ġaler": 1145,
      "ena": 1146,
      "201": 1147,
      "feira": 1148,
      "Ġseria": 1149,
      "ÃŃgen": 1150,
      "ÃŃcias": 1151,
      "bo": 1152,
      "Ġinte": 1153,
      "Ġapresenta": 1154,
      "Ġrel": 1155,
      "ĠÃļ": 1156,
      "Ġ8": 1157,
      "tr": 1158,
      "ensa": 1159,
      "Ã¡vel": 1160,
      "Ġsus": 1161,
      "Ġmedica": 1162,
      "Ġbus": 1163,
      "Ġcomun": 1164,
      "elh": 1165,
      "Ġpandemia": 1166,
      "iu": 1167,
      "Ġestado": 1168,
      "Ġcha": 1169,
      "Ġsim": 1170,
      "vesti": 1171,
      "Ġfazer": 1172,
      "Ġboatos": 1173,
      "Ġvol": 1174,
      "aneiro": 1175,
      "Ġporque": 1176,
      "lica": 1177,
      "oca": 1178,
      "dia": 1179,
      "Ġquando": 1180,
      "ecess": 1181,
      "ĠMas": 1182,
      "ene": 1183,
      "Ġag": 1184,
      "ju": 1185,
      "ĠDi": 1186,
      "ses": 1187,
      "Ġdurante": 1188,
      "ĠAo": 1189,
      "ad": 1190,
      "EN": 1191,
      "Ġoutras": 1192,
      "ĠAm": 1193,
      "Ġpacientes": 1194,
      "Ġmundo": 1195,
      "ola": 1196,
      "ĠcomeÃ§": 1197,
      "Ġpoder": 1198,
      "Ġdados": 1199,
      "ĠnÃºmer": 1200,
      "ĠHospital": 1201,
      "ur": 1202,
      "Ġnovo": 1203,
      "gue": 1204,
      "Ġra": 1205,
      "Ġpartic": 1206,
      "Ġhoje": 1207,
      "Ġestu": 1208,
      "Ġten": 1209,
      "Ġ,": 1210,
      "ian": 1211,
      "Ġnecess": 1212,
      "ps": 1213,
      "55": 1214,
      "ĠCO": 1215,
      "Ġvacinas": 1216,
      "izado": 1217,
      "Ġmuita": 1218,
      "Ġtelef": 1219,
      "91": 1220,
      "ĠconteÃºdo": 1221,
      "agem": 1222,
      "ĠDE": 1223,
      "Ġmomento": 1224,
      "Ġinvesti": 1225,
      "Ġcuida": 1226,
      "ite": 1227,
      "Ġinterna": 1228,
      "Ã´n": 1229,
      "ĠLeia": 1230,
      "tanto": 1231,
      "ĠalÃ©m": 1232,
      "Ġmulher": 1233,
      "Ġempres": 1234,
      "OS": 1235,
      "vos": 1236,
      "ĠFederal": 1237,
      "ch": 1238,
      "ologia": 1239,
      "ĠpÃºbl": 1240,
      "tamente": 1241,
      "rou": 1242,
      "ĠMar": 1243,
      "tando": 1244,
      "uman": 1245,
      "MS": 1246,
      "Ġchama": 1247,
      "line": 1248,
      "Ġ10": 1249,
      "rada": 1250,
      "ficial": 1251,
      "Ġofer": 1252,
      "orn": 1253,
      "Ġrecu": 1254,
      "AS": 1255,
      "gn": 1256,
      "Ġampl": 1257,
      "Ġsab": 1258,
      "Ġinic": 1259,
      "taria": 1260,
      "Ġnes": 1261,
      "Ġris": 1262,
      "envol": 1263,
      "Ġfil": 1264,
      "Ġtelefone": 1265,
      "anto": 1266,
      "Ġori": 1267,
      "ĠaÃ§Ãµes": 1268,
      "ĠES": 1269,
      "Ġinfec": 1270,
      "Ġministro": 1271,
      "tugu": 1272,
      "ĠprÃ³p": 1273,
      "Ġencontra": 1274,
      "itar": 1275,
      "ion": 1276,
      "Ã¢ncer": 1277,
      "ino": 1278,
      "Ġsido": 1279,
      "Ġvis": 1280,
      "Ġrefor": 1281,
      "are": 1282,
      "Ġquem": 1283,
      "mail": 1284,
      "Ġci": 1285,
      "ĠserviÃ§os": 1286,
      "Ġprograma": 1287,
      "Ġpra": 1288,
      "entro": 1289,
      "Ġrec": 1290,
      "Ġacom": 1291,
      "Ġsin": 1292,
      "58": 1293,
      "Ġonline": 1294,
      "les": 1295,
      "Ġcircula": 1296,
      "Ġpesquisa": 1297,
      "izada": 1298,
      "Ġsitu": 1299,
      "iÃ£o": 1300,
      "usti": 1301,
      "Ġhospital": 1302,
      "ido": 1303,
      "tuguÃªs": 1304,
      "Ġcada": 1305,
      "Ġpromo": 1306,
      "lex": 1307,
      "eancia": 1308,
      "Ġaconte": 1309,
      "Ġacesso": 1310,
      "tivos": 1311,
      "ĠAtenÃ§Ã£o": 1312,
      "Ġdesde": 1313,
      "aix": 1314,
      "Ã¡g": 1315,
      "Ãªncias": 1316,
      "Ġer": 1317,
      "Ġgaran": 1318,
      "Ġpodem": 1319,
      "ĠcrianÃ§as": 1320,
      "icar": 1321,
      "ĠEdu": 1322,
      "Ġprote": 1323,
      "âĢ¦": 1324,
      "caÃ§Ã£o": 1325,
      "mou": 1326,
      "Ġapo": 1327,
      "Ġimun": 1328,
      "Ġtipo": 1329,
      "Ġcompro": 1330,
      "cio": 1331,
      "Ġbem": 1332,
      "tina": 1333,
      "Ġtempo": 1334,
      "ĠRes": 1335,
      "tÃ©g": 1336,
      "Ġprecis": 1337,
      "Ġboato": 1338,
      "Ġconfi": 1339,
      "Ġlu": 1340,
      "ĠvacinaÃ§Ã£o": 1341,
      "Ġcr": 1342,
      "Ġdeix": 1343,
      "pen": 1344,
      "Ġgru": 1345,
      "ĠMa": 1346,
      "Ġcompartilha": 1347,
      "rito": 1348,
      "Ġnova": 1349,
      "terna": 1350,
      "NA": 1351,
      "Ġalgumas": 1352,
      "vul": 1353,
      "94": 1354,
      "ĠPolÃŃ": 1355,
      "Ġve": 1356,
      "ĠpublicaÃ§Ã£o": 1357,
      "var": 1358,
      "Ġali": 1359,
      "Ġtudo": 1360,
      "Ġera": 1361,
      "Ġmensagens": 1362,
      "Ġven": 1363,
      "Ġpreven": 1364,
      "clu": 1365,
      "ĠIs": 1366,
      "Ġredu": 1367,
      "ante": 1368,
      "ĠLu": 1369,
      "ĠaÃŃ": 1370,
      "tt": 1371,
      "olÃ³g": 1372,
      "TI": 1373,
      "ĠSa": 1374,
      "ĠComo": 1375,
      "dan": 1376,
      "Ġpessoa": 1377,
      "cesso": 1378,
      "tem": 1379,
      "gua": 1380,
      "bilidade": 1381,
      "Ġfato": 1382,
      "Ġsol": 1383,
      "ios": 1384,
      "Ġconfirma": 1385,
      "ĠnÃºmero": 1386,
      "inas": 1387,
      "iais": 1388,
      "Ġresul": 1389,
      "ior": 1390,
      "Ġviral": 1391,
      "Ġrede": 1392,
      "ĠSegundo": 1393,
      "Ġlin": 1394,
      "ĠcÃ¢ncer": 1395,
      "rais": 1396,
      "Ġfim": 1397,
      "Ġ--": 1398,
      "Ġ-->": 1399,
      "ER": 1400,
      "lu": 1401,
      "ID": 1402,
      "Ġpartir": 1403,
      "guns": 1404,
      "eita": 1405,
      "Ġ.": 1406,
      "Ġsan": 1407,
      "Ġfam": 1408,
      "Ġtodas": 1409,
      "ĠSo": 1410,
      "Ġexiste": 1411,
      "Ġvida": 1412,
      "Ġta": 1413,
      "emos": 1414,
      "Ġfalsas": 1415,
      "fr": 1416,
      "stitu": 1417,
      "ĠMun": 1418,
      "ranÃ§a": 1419,
      "ĠDes": 1420,
      "Ġcara": 1421,
      "Ġapro": 1422,
      "empl": 1423,
      "Ġenvol": 1424,
      "ĠÃ¡u": 1425,
      "omia": 1426,
      "IA": 1427,
      "ustiÃ§a": 1428,
      "Ġid": 1429,
      "Ġmenos": 1430,
      ");": 1431,
      "icaÃ§Ã£o": 1432,
      "Ġdesenvol": 1433,
      "umanos": 1434,
      "ÃŃcia": 1435,
      "Ġeste": 1436,
      "Ġprev": 1437,
      "biente": 1438,
      "vimento": 1439,
      "ttps": 1440,
      "li": 1441,
      "Ġdef": 1442,
      "Ã¡lis": 1443,
      "pois": 1444,
      "ĠJaneiro": 1445,
      "Ġonde": 1446,
      "Ġautor": 1447,
      "tÃ³rio": 1448,
      "Ġden": 1449,
      "pec": 1450,
      "Ġatual": 1451,
      "Ġus": 1452,
      "ticos": 1453,
      "Ġfala": 1454,
      "SUS": 1455,
      "mar": 1456,
      "ecre": 1457,
      "15": 1458,
      "Ġ[": 1459,
      "Ġsub": 1460,
      "\\/": 1461,
      "ular": 1462,
      "ĠrelaÃ§Ã£o": 1463,
      "Ġsecre": 1464,
      "tru": 1465,
      "Ġdivul": 1466,
      "clusi": 1467,
      "ĠEspecial": 1468,
      "ĠpÃºblica": 1469,
      "Ġpri": 1470,
      "Ġdiagn": 1471,
      "Ġdistribu": 1472,
      "ĠtrÃªs": 1473,
      "Ġ15": 1474,
      "ĠpossÃŃvel": 1475,
      "Ġproje": 1476,
      "Ġidenti": 1477,
      "ecagem": 1478,
      "ĠestratÃ©g": 1479,
      "tamos": 1480,
      "Ġrealidade": 1481,
      "ĠSistema": 1482,
      "ultura": 1483,
      "ada": 1484,
      "Ġassunto": 1485,
      "Ġir": 1486,
      "pera": 1487,
      "Ġcol": 1488,
      "Ġrisco": 1489,
      "ĠÃ¡udio": 1490,
      "ĠFo": 1491,
      "ss": 1492,
      "cas": 1493,
      "Ġplan": 1494,
      "antes": 1495,
      "Ġnem": 1496,
      "rando": 1497,
      "Ġafirma": 1498,
      "Ġdocu": 1499,
      "Ġvamos": 1500,
      "Ġdesco": 1501,
      "Ġassim": 1502,
      "tale": 1503,
      "Ġexempl": 1504,
      "elo": 1505,
      "Ġalguns": 1506,
      "Ġnesta": 1507,
      "Ġlocal": 1508,
      "Ġobje": 1509,
      "Ġconse": 1510,
      "dido": 1511,
      "Ġtal": 1512,
      "Ġeu": 1513,
      "ÃŃveis": 1514,
      "Ġaju": 1515,
      "ĠConf": 1516,
      "ĠSecre": 1517,
      "27": 1518,
      "Ġdois": 1519,
      "Ġinstitu": 1520,
      "Ġseus": 1521,
      "Ġcapa": 1522,
      "Ġdeve": 1523,
      "Ġ19": 1524,
      "tivas": 1525,
      "Ãĥ": 1526,
      "Ġgol": 1527,
      "mis": 1528,
      "ĠatenÃ§Ã£o": 1529,
      "Ġbeb": 1530,
      "reu": 1531,
      "ĠJustiÃ§a": 1532,
      "Ġdispon": 1533,
      "ĠPrim": 1534,
      "ĠFa": 1535,
      "Ġtotal": 1536,
      "oria": 1537,
      "Ã©cn": 1538,
      "bri": 1539,
      "Ġaplica": 1540,
      "nico": 1541,
      "ĠdoenÃ§as": 1542,
      "Ġlink": 1543,
      "comen": 1544,
      "Ġ12": 1545,
      "igil": 1546,
      "IS": 1547,
      "Ġespal": 1548,
      "anc": 1549,
      "Ã¡lise": 1550,
      "Ġindica": 1551,
      "fe": 1552,
      "ĠAss": 1553,
      "ĠEducaÃ§Ã£o": 1554,
      "ĠDire": 1555,
      "Ġ24": 1556,
      "Ġprec": 1557,
      "Ġgan": 1558,
      "conomia": 1559,
      "ĠpÃ¡g": 1560,
      "Ġusa": 1561,
      "ÃĥO": 1562,
      "ĠtÃªm": 1563,
      "64": 1564,
      "Ġdifer": 1565,
      "Ġprincipal": 1566,
      "via": 1567,
      "Ġnome": 1568,
      "Ġunidades": 1569,
      "Ġrecur": 1570,
      "vent": 1571,
      "ĠInterna": 1572,
      "Ġmorte": 1573,
      "elho": 1574,
      "Ġro": 1575,
      "ĠquestÃ£o": 1576,
      "NG": 1577,
      "Ġsal": 1578,
      "cido": 1579,
      "and": 1580,
      "ĠConfira": 1581,
      "ĠCar": 1582,
      "Ġestaria": 1583,
      "Ġfin": 1584,
      "dial": 1585,
      "Ġrecomen": 1586,
      "Ġge": 1587,
      "Ġgrande": 1588,
      "Ġ0": 1589,
      "rados": 1590,
      "Ġapare": 1591,
      "icou": 1592,
      "ĠGeral": 1593,
      "Ġpol": 1594,
      "gou": 1595,
      "vers": 1596,
      "Ġprimeira": 1597,
      "ĠsituaÃ§Ã£o": 1598,
      ".:": 1599,
      "ismo": 1600,
      "izados": 1601,
      "!!": 1602,
      "mp": 1603,
      "Ġparticip": 1604,
      "dar": 1605,
      "Ġmedicamentos": 1606,
      "taÃ§Ã£o": 1607,
      "Ġmortes": 1608,
      "ontes": 1609,
      "ĠUma": 1610,
      "Ġ2020": 1611,
      "Ġmelh": 1612,
      "Ġimagens": 1613,
      "gado": 1614,
      "organ": 1615,
      "Ġpossu": 1616,
      "gaÃ§Ã£o": 1617,
      "Ġdescon": 1618,
      "ĠInternacional": 1619,
      "vam": 1620,
      "cidade": 1621,
      "ĠUm": 1622,
      "ĠSul": 1623,
      "didas": 1624,
      "Ġagora": 1625,
      "ece": 1626,
      "arm": 1627,
      "iam": 1628,
      "AR": 1629,
      "Ġaqu": 1630,
      "Ġpon": 1631,
      "izou": 1632,
      "erra": 1633,
      "hou": 1634,
      "Âº": 1635,
      "eitos": 1636,
      "Ġjo": 1637,
      "Ġprimeiro": 1638,
      "Ġsegundo": 1639,
      "clusÃ£o": 1640,
      "par": 1641,
      "Ġfeito": 1642,
      "ficaÃ§Ã£o": 1643,
      "Ġbas": 1644,
      "Ġfortale": 1645,
      "Ġado": 1646,
      "Ġequipe": 1647,
      "ĠIsso": 1648,
      "Ġfinal": 1649,
      "ana": 1650,
      "inho": 1651,
      "Ġhom": 1652,
      "Ġinicia": 1653,
      "imo": 1654,
      "ual": 1655,
      "Ġacompanha": 1656,
      "culos": 1657,
      "Ġdisse": 1658,
      "ĠnotÃŃcia": 1659,
      "Ġexam": 1660,
      "den": 1661,
      "Ġfonte": 1662,
      "Ġcomple": 1663,
      "ĠTra": 1664,
      "Ġimportante": 1665,
      "Ġsegun": 1666,
      "Ġbase": 1667,
      "umo": 1668,
      "ĠJÃ¡": 1669,
      "Ġexemplo": 1670,
      "Ġ18": 1671,
      "ĠmÃ©dico": 1672,
      "ĠindÃŃgen": 1673,
      "Ġinclu": 1674,
      "Ġsinto": 1675,
      "ĠJa": 1676,
      "Ġsistema": 1677,
      "dimentos": 1678,
      "rensa": 1679,
      "ublica": 1680,
      "ruz": 1681,
      "ĠPorÃ©m": 1682,
      "las": 1683,
      "Ġconsi": 1684,
      "ĠtÃ©cn": 1685,
      "ĠmÃ©dicos": 1686,
      "ĠPolÃŃtica": 1687,
      "mana": 1688,
      "cri": 1689,
      "Ġva": 1690,
      "Ġimagem": 1691,
      "Ġcri": 1692,
      "ice": 1693,
      "ĠAmbiente": 1694,
      "Ġsuposta": 1695,
      "Ġduas": 1696,
      "Ġmon": 1697,
      "Ġfontes": 1698,
      "vaÃ§Ã£o": 1699,
      "Ã©r": 1700,
      "ficar": 1701,
      "EI": 1702,
      "Ġacab": 1703,
      "ĠÃ¡re": 1704,
      "abil": 1705,
      "ĠconfiÃ¡veis": 1706,
      "Ġtecn": 1707,
      "Ġdetal": 1708,
      "Ġcirculando": 1709,
      "fici": 1710,
      "Ġaval": 1711,
      "Ġnenhuma": 1712,
      "log": 1713,
      "Ġcontinu": 1714,
      "ĠCa": 1715,
      "Ġcient": 1716,
      "Ġvo": 1717,
      "Ġantes": 1718,
      "Ġis": 1719,
      "orte": 1720,
      "mi": 1721,
      "Ġorgan": 1722,
      "istÃªncia": 1723,
      "tantes": 1724,
      "Ġobjetivo": 1725,
      "Ġprocu": 1726,
      "ceu": 1727,
      "ĠDireitos": 1728,
      "cara": 1729,
      "ĠEconomia": 1730,
      "Ġrepres": 1731,
      "Ġvalor": 1732,
      "77": 1733,
      "cal": 1734,
      "tÃŃcias": 1735,
      "cos": 1736,
      "Ġnossa": 1737,
      "Ġrecomenda": 1738,
      "ĠEle": 1739,
      "cid": 1740,
      "portes": 1741,
      "ble": 1742,
      "ĠTam": 1743,
      "Ġleitos": 1744,
      "ĠRo": 1745,
      "Ġtrabalho": 1746,
      "Ġ33": 1747,
      "Ġrecursos": 1748,
      "pt": 1749,
      "Ġbrasileiros": 1750,
      "ĠHumanos": 1751,
      "Ġmeses": 1752,
      "ĠEntre": 1753,
      "Ġdiversas": 1754,
      "ĠinÃŃcio": 1755,
      "Ġresposta": 1756,
      "imos": 1757,
      "ĠCultura": 1758,
      "Ġempresa": 1759,
      "inaÃ§Ã£o": 1760,
      "Ġconhe": 1761,
      "ĠESP": 1762,
      "Ġfe": 1763,
      "pira": 1764,
      "bitos": 1765,
      "Ġcuidado": 1766,
      "cter": 1767,
      "ĠPrimÃ¡ria": 1768,
      "tÃ¡rio": 1769,
      "ĠK": 1770,
      "Ġequipes": 1771,
      "Ġ14": 1772,
      "ĠSu": 1773,
      "ĠChina": 1774,
      "ĠMeio": 1775,
      "bate": 1776,
      "igilÃ¢ncia": 1777,
      "tÃ£o": 1778,
      "Ã±": 1779,
      "tion": 1780,
      "Ġeles": 1781,
      "Ġ30": 1782,
      "hos": 1783,
      "ĠEx": 1784,
      "Ġcaracter": 1785,
      "ĠNotÃŃcias": 1786,
      "ĠpÃ¡gina": 1787,
      "Ġsegunda": 1788,
      "Ġimprensa": 1789,
      "Ġfez": 1790,
      "ĠEng": 1791,
      "Ġtestes": 1792,
      "Ġ|": 1793,
      "ĠEspa": 1794,
      "ĠRa": 1795,
      "ĠÃļlti": 1796,
      "Ġlo": 1797,
      "Ġnenhum": 1798,
      "Ġenfr": 1799,
      "ĠprÃ³x": 1800,
      "Ġoutro": 1801,
      "Ġpass": 1802,
      "ĠCam": 1803,
      "Ġnacional": 1804,
      "Ġalerta": 1805,
      "Ġmal": 1806,
      "sou": 1807,
      "ĠPortuguÃªs": 1808,
      "Ġsuas": 1809,
      "Ġfalta": 1810,
      "Ã£os": 1811,
      "Ġcaus": 1812,
      "umindo": 1813,
      "ĠENG": 1814,
      "ĠEsportes": 1815,
      "Ãĩ": 1816,
      ".\\": 1817,
      "ĠTo": 1818,
      "Ġsintomas": 1819,
      "Ġhav": 1820,
      "ĠÃļltimas": 1821,
      "Ġ{": 1822,
      "TO": 1823,
      "lish": 1824,
      "ĠEnglish": 1825,
      "vado": 1826,
      "Ã±ol": 1827,
      "('": 1828,
      "ĠEspaÃ±ol": 1829,
      "TE": 1830,
      "visa": 1831,
      "Ġpare": 1832,
      "if": 1833,
      "ornal": 1834,
      "Ġgratu": 1835,
      "pais": 1836,
      "ĠaÃ§Ã£o": 1837,
      "Ġteve": 1838,
      "Ġreduz": 1839,
      "Ġcus": 1840,
      "tual": 1841,
      "Ġcidade": 1842,
      "Ġcontro": 1843,
      "Ġrelaciona": 1844,
      "DO": 1845,
      "af": 1846,
      "Ġdescobri": 1847,
      "Ġcerca": 1848,
      "vido": 1849,
      "ĠInstitu": 1850,
      "Ġvezes": 1851,
      "redi": 1852,
      "ĠResumindo": 1853,
      "Ġhomem": 1854,
      "Ġaumento": 1855,
      "tada": 1856,
      "Ġoficial": 1857,
      "Ġconside": 1858,
      "esse": 1859,
      "Ġ13": 1860,
      "pesar": 1861,
      "ĠÃºltimos": 1862,
      "//": 1863,
      "Ġreceber": 1864,
      "Ġev": 1865,
      "val": 1866,
      "UA": 1867,
      "Ġsupos": 1868,
      "://": 1869,
      "ĠpaÃŃses": 1870,
      "ano": 1871,
      "Ã¡rias": 1872,
      "sem": 1873,
      "tri": 1874,
      "Ġcasa": 1875,
      "emb": 1876,
      "RO": 1877,
      "sal": 1878,
      "iaÃ§Ã£o": 1879,
      "pas": 1880,
      "Ġfalar": 1881,
      "tin": 1882,
      "edade": 1883,
      "Ġ/": 1884,
      "ĠpÃºblico": 1885,
      "cou": 1886,
      "Ġprova": 1887,
      "ĠÃļnico": 1888,
      "ĠTambÃ©m": 1889,
      "oro": 1890,
      "Ġvia": 1891,
      "igos": 1892,
      "Ġ11": 1893,
      "ĠÃ¡gua": 1894,
      "Ġsocial": 1895,
      "Ġmater": 1896,
      "pro": 1897,
      "Ġ2025": 1898,
      "Ġprincipais": 1899,
      "25": 1900,
      "Ġseguin": 1901,
      "Ġapoio": 1902,
      "vendo": 1903,
      "anÃ§a": 1904,
      "ÃŃsticas": 1905,
      "isas": 1906,
      "isÃ£o": 1907,
      "urg": 1908,
      "Ġsex": 1909,
      "Ġproce": 1910,
      "Ġdevem": 1911,
      "Ġprojeto": 1912,
      "ĠPo": 1913,
      "ĠnotÃŃcias": 1914,
      "ÃŃo": 1915,
      "Ġpelos": 1916,
      "Ġdiversos": 1917,
      "Ġlon": 1918,
      "Ġquer": 1919,
      "elas": 1920,
      "arra": 1921,
      "min": 1922,
      "ĠCas": 1923,
      "Ã¡scara": 1924,
      "nam": 1925,
      "Ġsusp": 1926,
      "EM": 1927,
      "Ġeven": 1928,
      "VID": 1929,
      "tima": 1930,
      "Ġorienta": 1931,
      "Ġ2018": 1932,
      "Ġcole": 1933,
      "mentar": 1934,
      "Ġfica": 1935,
      "Ġsemana": 1936,
      "Ġlev": 1937,
      "para": 1938,
      "Ġtoda": 1939,
      "ĠInd": 1940,
      "Ġinc": 1941,
      "ĠdiagnÃ³s": 1942,
      "cida": 1943,
      "Ġestava": 1944,
      "izadas": 1945,
      "mon": 1946,
      "Ġestudo": 1947,
      "ĠperÃŃo": 1948,
      "ĠseguranÃ§a": 1949,
      "Ġ16": 1950,
      "ospitais": 1951,
      "ĠAlex": 1952,
      "Ġprocesso": 1953,
      "st": 1954,
      "Ġ2019": 1955,
      "ĠSecretaria": 1956,
      "16": 1957,
      "tamento": 1958,
      "inheiro": 1959,
      "fil": 1960,
      "tadas": 1961,
      "iÃ§Ãµes": 1962,
      "ĠApesar": 1963,
      "ĠMais": 1964,
      "ĠserÃ£o": 1965,
      "Ġcampanha": 1966,
      "84": 1967,
      "eiras": 1968,
      "rin": 1969,
      "esa": 1970,
      "Ġalarm": 1971,
      "ĠcomeÃ§ou": 1972,
      "gram": 1973,
      "clusive": 1974,
      "Ġhttps": 1975,
      "vida": 1976,
      "Ġestar": 1977,
      "gas": 1978,
      "Ġbene": 1979,
      "ĠDa": 1980,
      "ĠNe": 1981,
      "Ġsempre": 1982,
      "ĠVal": 1983,
      "tido": 1984,
      "Ġrespons": 1985,
      "Ġfoto": 1986,
      "Ġativ": 1987,
      "Ġpou": 1988,
      "Ġbal": 1989,
      "idas": 1990,
      "eno": 1991,
      "Ġquar": 1992,
      "irmou": 1993,
      "uncia": 1994,
      "ĠhistÃ³rias": 1995,
      "pamentos": 1996,
      "Ġhoras": 1997,
      "entemente": 1998,
      "Ġanti": 1999,
      "tun": 2000,
      "Ġdecl": 2001,
      "arÃ¡": 2002,
      "Ġabri": 2003,
      "Ġ23": 2004,
      "Ġprodutos": 2005,
      "Ã³r": 2006,
      "Ġgest": 2007,
      "andre": 2008,
      "ik": 2009,
      "ĠrÃ¡": 2010,
      "socia": 2011,
      "dual": 2012,
      "Ġneste": 2013,
      "Ġcel": 2014,
      "abilita": 2015,
      "Ġdepois": 2016,
      "Ġescol": 2017,
      "IC": 2018,
      "ĠmÃ¡scara": 2019,
      "Ġsur": 2020,
      "erg": 2021,
      "Ġol": 2022,
      "ĠBras": 2023,
      "ĠPrograma": 2024,
      "eja": 2025,
      "Ġâ": 2026,
      "iginal": 2027,
      "Ġcin": 2028,
      "Ġru": 2029,
      "Ã¡tica": 2030,
      "Ġregistro": 2031,
      "Ġexplica": 2032,
      "cado": 2033,
      "Ġtenha": 2034,
      "ndo": 2035,
      "essa": 2036,
      "ĠEsta": 2037,
      "Ġsurg": 2038,
      "Ġmedidas": 2039,
      "Ġhavia": 2040,
      "cionais": 2041,
      "ĠAlexandre": 2042,
      "Ġrefer": 2043,
      "ib": 2044,
      "quanto": 2045,
      "vista": 2046,
      "pio": 2047,
      "ona": 2048,
      "Ġmulheres": 2049,
      "ĠGoverno": 2050,
      "ĠcaracterÃŃsticas": 2051,
      "abora": 2052,
      "Ġcirurg": 2053,
      "ĠAr": 2054,
      "Ġelei": 2055,
      "Ġfederal": 2056,
      "ĠprevenÃ§Ã£o": 2057,
      "formaÃ§Ã£o": 2058,
      "Ġconsegu": 2059,
      "ĠAgora": 2060,
      "este": 2061,
      "site": 2062,
      "Ġrecebe": 2063,
      "Ġdinheiro": 2064,
      "Ġgover": 2065,
      "Ġconsul": 2066,
      "sÃµes": 2067,
      "Ġ3315": 2068,
      "ge": 2069,
      "ĠPA": 2070,
      "Ġban": 2071,
      "rutura": 2072,
      "Ġtransmis": 2073,
      "Ġinten": 2074,
      "Ġmuitas": 2075,
      "rente": 2076,
      "ĠPre": 2077,
      "Ġmelhor": 2078,
      "AM": 2079,
      "rap": 2080,
      "Ġ60": 2081,
      "ĠperÃŃodo": 2082,
      "Ġmuitos": 2083,
      "ĠJo": 2084,
      "ĠInstituto": 2085,
      "30": 2086,
      "Ġedi": 2087,
      "atro": 2088,
      "mentaÃ§Ã£o": 2089,
      "Ġgrupos": 2090,
      "ĠindÃŃgenas": 2091,
      "ĠprÃ³prio": 2092,
      "Ġenfer": 2093,
      "ĠCOVID": 2094,
      "has": 2095,
      "tida": 2096,
      "Ġpelas": 2097,
      "ero": 2098,
      "fia": 2099,
      "wa": 2100,
      "Ġsites": 2101,
      "Ġbrasileira": 2102,
      "Ġbuscar": 2103,
      "Ġrepas": 2104,
      "ea": 2105,
      "IV": 2106,
      "Ã©s": 2107,
      "Ġparcer": 2108,
      "Ġfac": 2109,
      "Ġ*": 2110,
      "Ãºn": 2111,
      "Ġ17": 2112,
      "Ġapresen": 2113,
      "Ġbom": 2114,
      "Ġlista": 2115,
      "ĠY": 2116,
      "Ġcircular": 2117,
      "tÃ©ria": 2118,
      "tagem": 2119,
      "ĠCor": 2120,
      "Ġfar": 2121,
      "ĠIN": 2122,
      "aixo": 2123,
      "ud": 2124,
      "ĠMen": 2125,
      "Ġgratuita": 2126,
      "Ġgri": 2127,
      "Ġhospitais": 2128,
      "Ġimpac": 2129,
      "Ġencontramos": 2130,
      "Ġfu": 2131,
      "610": 2132,
      "AN": 2133,
      "jam": 2134,
      "Ġdesmentiu": 2135,
      "icion": 2136,
      "gada": 2137,
      "PI": 2138,
      "ilha": 2139,
      "Ġjornal": 2140,
      "ĠGrande": 2141,
      "ĠBrasÃŃlia": 2142,
      "portun": 2143,
      "ĠAnÃ¡lise": 2144,
      "Ġidade": 2145,
      "ĠvÃŃdeos": 2146,
      "Ġlocais": 2147,
      "pu": 2148,
      "Ġ100": 2149,
      "Ġcura": 2150,
      "ĠcientÃŃ": 2151,
      "ĠDist": 2152,
      "Ġlim": 2153,
      "Ġbusca": 2154,
      "ĠZ": 2155,
      "Ġalta": 2156,
      "PS": 2157,
      "emas": 2158,
      "gan": 2159,
      "Ġalarmista": 2160,
      "ron": 2161,
      "Ġnovos": 2162,
      "ĠConclusÃ£o": 2163,
      "ĠPer": 2164,
      "Ġdesin": 2165,
      "ĠAtendimento": 2166,
      "Ġessas": 2167,
      "ĠEstados": 2168,
      "ĠIndÃŃgen": 2169,
      "Ġhou": 2170,
      "Ġpasta": 2171,
      "ĠChecagem": 2172,
      "ĠdiagnÃ³stico": 2173,
      "Ġfalso": 2174,
      "osse": 2175,
      "ĠAg": 2176,
      "ĠAma": 2177,
      "Ġexames": 2178,
      "Ġprincipalmente": 2179,
      "Ġgarantir": 2180,
      "Ġdentro": 2181,
      "ĠEssa": 2182,
      "ĠreforÃ§": 2183,
      "Ġsuper": 2184,
      "CO": 2185,
      "Ġcontam": 2186,
      "ques": 2187,
      "ĠGu": 2188,
      "Ġdestacou": 2189,
      "Ġfra": 2190,
      "ĠÃ³bitos": 2191,
      "619": 2192,
      "ecer": 2193,
      "ĠlÃ¡": 2194,
      "ĠJair": 2195,
      "iÃµes": 2196,
      "izando": 2197,
      "deu": 2198,
      "Ġqualidade": 2199,
      "Ġdoses": 2200,
      "tÃ³rios": 2201,
      "Ġcoloc": 2202,
      "dendo": 2203,
      "ĠPad": 2204,
      "ĠMundial": 2205,
      "ĠEla": 2206,
      "9164": 2207,
      "9177": 2208,
      "Ġcur": 2209,
      "10": 2210,
      "ioc": 2211,
      "Ġale": 2212,
      "link": 2213,
      "gmail": 2214,
      "Ġdez": 2215,
      "ĠFam": 2216,
      "ĠInf": 2217,
      "ĠHÃ¡": 2218,
      "Ġgrupo": 2219,
      "Ġpla": 2220,
      "Ġresol": 2221,
      "ĠRep": 2222,
      "55610": 2223,
      "55619": 2224,
      "2755610": 2225,
      "556192755610": 2226,
      "Ġdecis": 2227,
      "Ġ2022": 2228,
      "ital": 2229,
      "ĠNos": 2230,
      "ĠUS": 2231,
      "luen": 2232,
      "iro": 2233,
      "Ġdizer": 2234,
      "orme": 2235,
      "Ġata": 2236,
      "presidente": 2237,
      "Ġatra": 2238,
      "Ġcinco": 2239,
      "âĢĻ": 2240,
      "Ġoutra": 2241,
      "Ġnosso": 2242,
      "Ġquatro": 2243,
      "Ġcondi": 2244,
      "Ġdeste": 2245,
      "ĠUn": 2246,
      "Ġpergun": 2247,
      "Ġgen": 2248,
      "Ġerros": 2249,
      "Ġbil": 2250,
      "radas": 2251,
      "ment": 2252,
      "aÃ§Ãµes": 2253,
      "ĠVocÃª": 2254,
      "ĠFake": 2255,
      "Ġcen": 2256,
      "Ġcorpo": 2257,
      "Ġprecisa": 2258,
      "Ġdar": 2259,
      "rido": 2260,
      "terior": 2261,
      "ender": 2262,
      "berto": 2263,
      "Ġprior": 2264,
      "Ġcal": 2265,
      "Ġdessa": 2266,
      "Ġpul": 2267,
      "Ġsig": 2268,
      "ĠproduÃ§Ã£o": 2269,
      "Ġbrasileiro": 2270,
      "ĠregiÃ£o": 2271,
      "ĠAtÃ©": 2272,
      "Ġenfrenta": 2273,
      "ĠvocÃªs": 2274,
      "Ġcanal": 2275,
      "ĠvÃ£o": 2276,
      "Ġiniciativa": 2277,
      "unda": 2278,
      "Ġanal": 2279,
      "los": 2280,
      "Ġesses": 2281,
      "Ġdig": 2282,
      "Ġequipamentos": 2283,
      "Ġintegra": 2284,
      "anÃ§": 2285,
      "Ġgolpe": 2286,
      "Ġtemos": 2287,
      "rÃ¡": 2288,
      "unca": 2289,
      "Ġajuda": 2290,
      "bora": 2291,
      "Ġtamb": 2292,
      "Ġ50": 2293,
      "ĠSobre": 2294,
      "blemas": 2295,
      "Ġquan": 2296,
      "Ġrespira": 2297,
      "bertura": 2298,
      "igu": 2299,
      "rgan": 2300,
      "Ġdele": 2301,
      "isten": 2302,
      "Ġacess": 2303,
      "Ġparceria": 2304,
      "enÃ§a": 2305,
      "ĠEu": 2306,
      "ĠFamÃŃlia": 2307,
      "ĠVamos": 2308,
      "king": 2309,
      "Ġcontribu": 2310,
      "ĠUnidos": 2311,
      "dida": 2312,
      "osa": 2313,
      "cidos": 2314,
      "ĠDO": 2315,
      "col": 2316,
      "dr": 2317,
      "Ġespe": 2318,
      "Ġidos": 2319,
      "Ġdelas": 2320,
      "Ġba": 2321,
      "inar": 2322,
      "Ġproduto": 2323,
      "ĠDo": 2324,
      "ĠFoto": 2325,
      "50": 2326,
      "Ġmanif": 2327,
      "ĠfamÃŃlia": 2328,
      "Ġdeclara": 2329,
      "Ġressal": 2330,
      "pula": 2331,
      "Ġatribu": 2332,
      "ĠAp": 2333,
      "Ġalgum": 2334,
      "Ġcapacidade": 2335,
      "ĠSil": 2336,
      "Ġquali": 2337,
      "51": 2338,
      "ĠveÃŃ": 2339,
      "hes": 2340,
      "Ġespec": 2341,
      "vada": 2342,
      "580": 2343,
      "gre": 2344,
      "ĠassistÃªncia": 2345,
      "ĠOrgan": 2346,
      "Ġestamos": 2347,
      "Ġ200": 2348,
      "Ġresp": 2349,
      "Ġproblemas": 2350,
      "Ġfunda": 2351,
      "Ġcres": 2352,
      "Ġmesma": 2353,
      "Ġgestores": 2354,
      "ĠprÃ³pria": 2355,
      "Ġevento": 2356,
      "pida": 2357,
      "ĠSer": 2358,
      "Ġpubl": 2359,
      "arampo": 2360,
      "ĠforÃ§a": 2361,
      "Ġcent": 2362,
      "Ġalgo": 2363,
      "idos": 2364,
      "Ġvar": 2365,
      "Ġtor": 2366,
      "Ġauto": 2367,
      "Ġreun": 2368,
      "lig": 2369,
      "Ġpossui": 2370,
      "uÃ§Ã£o": 2371,
      "Ġlabora": 2372,
      "hando": 2373,
      "ĠCons": 2374,
      "Ġgraves": 2375,
      "dica": 2376,
      "Ġafirmou": 2377,
      "Ġusu": 2378,
      "Ġevitar": 2379,
      "ĠMan": 2380,
      "bito": 2381,
      "Ġinclusive": 2382,
      "Ġjun": 2383,
      "mes": 2384,
      "peraÃ§Ã£o": 2385,
      "DE": 2386,
      "ĠclÃŃn": 2387,
      "dÃ£o": 2388,
      "ĠtÃ£o": 2389,
      "eliz": 2390,
      "iocruz": 2391,
      "ĠAnvisa": 2392,
      "Ġofic": 2393,
      "embro": 2394,
      "Ġproduz": 2395,
      "Ġplata": 2396,
      "hia": 2397,
      "ine": 2398,
      "minist": 2399,
      "ĠDu": 2400,
      "Ġampliar": 2401,
      "ser": 2402,
      "Ġdesse": 2403,
      "Ġestab": 2404,
      "ĠserviÃ§o": 2405,
      "tim": 2406,
      "ĠFer": 2407,
      "Ġfeita": 2408,
      "Ġcirculam": 2409,
      "Ã¡cia": 2410,
      "Ġresponder": 2411,
      "age": 2412,
      "TF": 2413,
      "tros": 2414,
      "Ġcontrole": 2415,
      "au": 2416,
      "porte": 2417,
      "ocu": 2418,
      "ÃŃdo": 2419,
      "quina": 2420,
      "Ġficar": 2421,
      "ĠUTI": 2422,
      "ĠCu": 2423,
      "Ġpal": 2424,
      "Ġhor": 2425,
      "ĠportuguÃªs": 2426,
      "lare": 2427,
      "Ġfec": 2428,
      "IL": 2429,
      "Ġquase": 2430,
      "ĠTem": 2431,
      "Ġdengue": 2432,
      "versidade": 2433,
      "Ġbol": 2434,
      "fico": 2435,
      "Ġdesenvolvimento": 2436,
      "osto": 2437,
      "ĠMu": 2438,
      "Ġrem": 2439,
      "Ġpaciente": 2440,
      "icina": 2441,
      "Ġterri": 2442,
      "Ġ2021": 2443,
      "Ġcontr": 2444,
      "ĠPadilha": 2445,
      "ilo": 2446,
      "Ġconstru": 2447,
      "Ġ2024": 2448,
      "Ġdetalhes": 2449,
      "peri": 2450,
      "jo": 2451,
      "ens": 2452,
      "Ġnovas": 2453,
      "Ġrealizar": 2454,
      "blema": 2455,
      "Ġ27": 2456,
      "Ġet": 2457,
      "Ġindi": 2458,
      "Ġtomar": 2459,
      "zo": 2460,
      "Ġreduzir": 2461,
      "cam": 2462,
      "vio": 2463,
      "Ġresultado": 2464,
      "Ġnota": 2465,
      "rump": 2466,
      "ucal": 2467,
      "ĠVale": 2468,
      "Ġconc": 2469,
      "edia": 2470,
      "60": 2471,
      "ĿĮ": 2472,
      "Ġmedicamento": 2473,
      "Ġchamado": 2474,
      "ĠAssim": 2475,
      "Ġproblema": 2476,
      "Ġtraz": 2477,
      "Ġmonito": 2478,
      "Ġcoisa": 2479,
      "Ġnunca": 2480,
      "Ġfre": 2481,
      "ĠTab": 2482,
      "Ġsarampo": 2483,
      "Ġing": 2484,
      "Ġ2023": 2485,
      "ĠLuiz": 2486,
      "ĠSÃ³": 2487,
      "ĠmatÃ©ria": 2488,
      "Ġprocurar": 2489,
      "zes": 2490,
      "Ġmedida": 2491,
      "como": 2492,
      "ĠâĿĮ": 2493,
      "Ġhouve": 2494,
      "mais": 2495,
      "ĠBa": 2496,
      "tidade": 2497,
      "Ġatendimentos": 2498,
      "pea": 2499,
      "Ġclaro": 2500,
      "Ġcitada": 2501,
      "rer": 2502,
      "tÃ¡": 2503,
      "Ġuni": 2504,
      "Ġ#": 2505,
      "Ġsuposto": 2506,
      "Ġevid": 2507,
      "Ġcombate": 2508,
      "Ġsof": 2509,
      "Ġenquanto": 2510,
      "dios": 2511,
      "Ġtecnologia": 2512,
      "ĠSanta": 2513,
      "Ġisola": 2514,
      "ĠdesinformaÃ§Ã£o": 2515,
      "Ġnarra": 2516,
      "Ã©dio": 2517,
      "ĠTrump": 2518,
      "Ġacredi": 2519,
      "Ġdesmentido": 2520,
      "Ġespecialmente": 2521,
      "pidem": 2522,
      "ĠeleiÃ§Ãµes": 2523,
      "Ġfinanc": 2524,
      "ĠÃ¡rea": 2525,
      "Ġquanto": 2526,
      "Ġtrabalha": 2527,
      "Ãģ": 2528,
      "Ġtorn": 2529,
      "IN": 2530,
      "ex": 2531,
      "ĠmÃªs": 2532,
      "ĠSim": 2533,
      "ciedade": 2534,
      "ĠmarÃ§o": 2535,
      "ĠEUA": 2536,
      "cop": 2537,
      "26": 2538,
      "ĠFor": 2539,
      "Ġresultados": 2540,
      "Ġdesses": 2541,
      "Ġdefin": 2542,
      "Ġgoverna": 2543,
      "Ġcompra": 2544,
      "Ġentrevista": 2545,
      "Ġref": 2546,
      "ĠGo": 2547,
      "Ġchecagem": 2548,
      "ĠDistrito": 2549,
      "rapia": 2550,
      "eds": 2551,
      "AI": 2552,
      "vil": 2553,
      "Ġpedido": 2554,
      "didos": 2555,
      "ĠEstado": 2556,
      "ĠTrata": 2557,
      "Ġdever": 2558,
      "Ġcoor": 2559,
      "ĠX": 2560,
      "Ġsimpl": 2561,
      "Ġ40": 2562,
      "24": 2563,
      "80": 2564,
      "Ġemer": 2565,
      "Ġgripe": 2566,
      "ĠSP": 2567,
      "ĠDia": 2568,
      "Ġdesmentimos": 2569,
      "Ġadul": 2570,
      "ĠVigilÃ¢ncia": 2571,
      "ĠGlo": 2572,
      "Ġdiscu": 2573,
      "iolÃ³g": 2574,
      "Ġempresas": 2575,
      "Ġmer": 2576,
      "dequ": 2577,
      "ĠIndÃŃgena": 2578,
      "Boatos": 2579,
      "Ġdiferentes": 2580,
      "RE": 2581,
      "gos": 2582,
      "lia": 2583,
      "tifica": 2584,
      "Ã´m": 2585,
      "Ġimport": 2586,
      "Ġcomer": 2587,
      "lesc": 2588,
      "ĠproteÃ§Ã£o": 2589,
      "ĠReg": 2590,
      "Ġfuncion": 2591,
      "Ġsigni": 2592,
      "ramento": 2593,
      "Ġfosse": 2594,
      "ĠsÃ©": 2595,
      "ĠmÃŃ": 2596,
      "tubro": 2597,
      "Ġcontexto": 2598,
      "ĠmÃ¡scaras": 2599,
      "Ġanima": 2600,
      "Ġperman": 2601,
      "Ġvem": 2602,
      "Ġesclare": 2603,
      "Ġunidade": 2604,
      "Ġpopula": 2605,
      "Ġrevel": 2606,
      "Ġacusa": 2607,
      "tÃ³ria": 2608,
      "ĠtÃ¡": 2609,
      "gal": 2610,
      "pri": 2611,
      "Ġrepresen": 2612,
      "duais": 2613,
      "Ġdescobrimos": 2614,
      "Ġsenti": 2615,
      "Ġpossi": 2616,
      "ĠpolÃŃtica": 2617,
      "tia": 2618,
      "tora": 2619,
      "Ġtoma": 2620,
      "tex": 2621,
      "ĠAinda": 2622,
      "Ġgrave": 2623,
      "ĠÃºltima": 2624,
      "9458": 2625,
      "IO": 2626,
      "Ġsaber": 2627,
      "8494": 2628,
      "tarias": 2629,
      "sapp": 2630,
      "mando": 2631,
      "ĠSi": 2632,
      "vidas": 2633,
      "vor": 2634,
      "tsapp": 2635,
      "Es": 2636,
      "Ġaux": 2637,
      "Ġamigos": 2638,
      "Ġenvolvendo": 2639,
      "nas": 2640,
      "nica": 2641,
      "Ġpossa": 2642,
      "Ġbilh": 2643,
      "Ġproc": 2644,
      "ĠRec": 2645,
      "Ġenfrentamento": 2646,
      "pol": 2647,
      "Ġnorma": 2648,
      "Ġcapita": 2649,
      "Ġexperi": 2650,
      "Ġoferta": 2651,
      "ĠSTF": 2652,
      "criÃ§Ã£o": 2653,
      "Ġdisponi": 2654,
      "ÃĩÃĥO": 2655,
      "Ġcadas": 2656,
      "ĠmunicÃŃpio": 2657,
      "MA": 2658,
      "Ġcola": 2659,
      "Ġlugar": 2660,
      "11": 2661,
      "ĠanÃºn": 2662,
      "Ġocorreu": 2663,
      "Ġsangue": 2664,
      "Ġpreocu": 2665,
      "ml": 2666,
      "imento": 2667,
      "ĠdÃ¡": 2668,
      "Ġassocia": 2669,
      "Ãºblica": 2670,
      "gencia": 2671,
      "Ġsegue": 2672,
      "ĠsecretÃ¡rio": 2673,
      "Ġabs": 2674,
      "Ġnecessidade": 2675,
      "oroquina": 2676,
      "Ġcausar": 2677,
      "ublicaÃ§Ã£o": 2678,
      "45": 2679,
      "Ġz": 2680,
      "ĠCentro": 2681,
      "=\"": 2682,
      "sen": 2683,
      "deia": 2684,
      "Ġrecon": 2685,
      "ĠMÃ©d": 2686,
      "ĠWhatsapp": 2687,
      "Ġincen": 2688,
      "Ġvag": 2689,
      "oco": 2690,
      "ose": 2691,
      "ĠCi": 2692,
      "Ġef": 2693,
      "Ġgeral": 2694,
      "Ġveri": 2695,
      "cil": 2696,
      "Ġpl": 2697,
      "ĠÂ": 2698,
      "Ġquest": 2699,
      "bar": 2700,
      "ken": 2701,
      "Ġla": 2702,
      "Ã©l": 2703,
      "ĠFe": 2704,
      "dy": 2705,
      "Ġconfirmados": 2706,
      "luenza": 2707,
      "Ġfunciona": 2708,
      "Ġlongo": 2709,
      "Ġ25": 2710,
      "ĠBrasileira": 2711,
      "Ġmeta": 2712,
      "Ġapontava": 2713,
      "turas": 2714,
      "Ġfatos": 2715,
      "tanol": 2716,
      "ĠcrianÃ§a": 2717,
      "ĠinstituiÃ§Ãµes": 2718,
      "poca": 2719,
      "Ġperce": 2720,
      "3580": 2721,
      "ĠnÃ³s": 2722,
      "ĠcontrÃ¡rio": 2723,
      "Ġsimples": 2724,
      "Ġalimentos": 2725,
      "xa": 2726,
      "UE": 2727,
      "mina": 2728,
      "Ġprov": 2729,
      "dades": 2730,
      "Ġama": 2731,
      "Ġoportun": 2732,
      "tox": 2733,
      "ris": 2734,
      "veu": 2735,
      "40": 2736,
      "Ġmudan": 2737,
      "enda": 2738,
      "Ãªu": 2739,
      "ĠCl": 2740,
      "vemos": 2741,
      "Ġviralizou": 2742,
      "Ġidentifica": 2743,
      "ĠâĢĶ": 2744,
      "Ġextre": 2745,
      "Ġmorreu": 2746,
      "eta": 2747,
      "brasil": 2748,
      "ĠentÃ£o": 2749,
      "Ġhomen": 2750,
      "Ġtanto": 2751,
      "ingu": 2752,
      "Ġprof": 2753,
      "Ġabril": 2754,
      "DA": 2755,
      "Ġreti": 2756,
      "Ã¡ticas": 2757,
      "Ġestrutura": 2758,
      "Ġatividades": 2759,
      "ĠUniversidade": 2760,
      "Ġconforme": 2761,
      "Ġpassado": 2762,
      "Ġrou": 2763,
      "SEI": 2764,
      "ude": 2765,
      "Ġdessas": 2766,
      "Ġjaneiro": 2767,
      "veram": 2768,
      "Ġconsumo": 2769,
      "Ġelas": 2770,
      "ĠPar": 2771,
      "OL": 2772,
      "ĠrepublicaÃ§Ã£o": 2773,
      "Ġfalando": 2774,
      "elizmente": 2775,
      "Ġsignifica": 2776,
      "Ġdor": 2777,
      "ĠPublica": 2778,
      "Ġdesaf": 2779,
      "Ġorigem": 2780,
      "ĠpublicaÃ§Ãµes": 2781,
      "ĠhistÃ³r": 2782,
      "cool": 2783,
      "Ġhabilita": 2784,
      "ĠOrganizaÃ§Ã£o": 2785,
      "ulas": 2786,
      "ĠestratÃ©gia": 2787,
      "timas": 2788,
      "Ġapontam": 2789,
      "Ġanuncia": 2790,
      "PA": 2791,
      "https": 2792,
      "Ġadolesc": 2793,
      "Ġbalela": 2794,
      "Ãī": 2795,
      "Ġefic": 2796,
      "Ġtre": 2797,
      "ipal": 2798,
      "Ġsolic": 2799,
      "tch": 2800,
      "ĠEqui": 2801,
      "Ġestudos": 2802,
      "oce": 2803,
      "Ġenvia": 2804,
      "ĠMunic": 2805,
      "CA": 2806,
      "Ġdeu": 2807,
      "anos": 2808,
      "Ġoficiais": 2809,
      "ĠdistribuiÃ§Ã£o": 2810,
      "Ġbastante": 2811,
      "ĠtransmissÃ£o": 2812,
      "base": 2813,
      "eas": 2814,
      "rate": 2815,
      "ĠÃ³rg": 2816,
      "ĠRadi": 2817,
      "tras": 2818,
      "Ġfabr": 2819,
      "Ġgu": 2820,
      "Ġalguma": 2821,
      "ĠveÃŃculos": 2822,
      "Ġdeter": 2823,
      "ĠÃ©poca": 2824,
      "ĠOMS": 2825,
      "Ġped": 2826,
      "ĠGe": 2827,
      "app": 2828,
      "issÃ£o": 2829,
      "Ġprovas": 2830,
      "ĠgestÃ£o": 2831,
      "Ġ21": 2832,
      "Ġmaio": 2833,
      "url": 2834,
      "Ġentrar": 2835,
      "Ġisolamento": 2836,
      "gados": 2837,
      "Ġpassou": 2838,
      "ĠDesde": 2839,
      "Ġenferm": 2840,
      "Ġdestina": 2841,
      "Ġjunto": 2842,
      "Ġpartici": 2843,
      "fei": 2844,
      "tta": 2845,
      "Ġadequ": 2846,
      "ĠBar": 2847,
      "ĠVac": 2848,
      "ĠpolÃŃticas": 2849,
      "Ġfebre": 2850,
      "Ġdito": 2851,
      "ĠHIV": 2852,
      ":\\/": 2853,
      "Ġ99458": 2854,
      ":\\/\\/": 2855,
      "tts": 2856,
      "Ġ00": 2857,
      "Ġcidades": 2858,
      "ipais": 2859,
      "ilia": 2860,
      "Ġespecialistas": 2861,
      "Ã¡ter": 2862,
      "Ġreais": 2863,
      "Ġsubst": 2864,
      "logia": 2865,
      "Ġnossos": 2866,
      "ĠRadioa": 2867,
      "ction": 2868,
      "wit": 2869,
      "Ġhuma": 2870,
      "ebc": 2871,
      "ique": 2872,
      "Ġdeles": 2873,
      "icando": 2874,
      "Ġjul": 2875,
      "Ġsurgiu": 2876,
      "23": 2877,
      "lcool": 2878,
      "Ġclas": 2879,
      "Ġchegou": 2880,
      "ĠimportÃ¢ncia": 2881,
      "itas": 2882,
      "ĠLa": 2883,
      "ĠFeed": 2884,
      "ados": 2885,
      "Ġperm": 2886,
      "ĠmÃ©dica": 2887,
      "Ġdocumento": 2888,
      "ĠresponsÃ¡vel": 2889,
      "ĠPublicado": 2890,
      "ĠRadioagÃªncia": 2891,
      "male": 2892,
      "ĠInÃŃcio": 2893,
      "ĠDepois": 2894,
      "Ġincluindo": 2895,
      "Ġating": 2896,
      "Ġdesmentida": 2897,
      "Ġliv": 2898,
      "add": 2899,
      "Ġdocument": 2900,
      "Ġfavor": 2901,
      "ĠcarÃ¡ter": 2902,
      "',": 2903,
      "event": 2904,
      "Ġacontece": 2905,
      "text": 2906,
      "original": 2907,
      "eitas": 2908,
      "gender": 2909,
      "name": 2910,
      "ĠMenu": 2911,
      "gando": 2912,
      "Ġchegar": 2913,
      "body": 2914,
      "Event": 2915,
      "agencia": 2916,
      "Ġ}": 2917,
      "guage": 2918,
      "code": 2919,
      "voice": 2920,
      "enet": 2921,
      "Ġpreciso": 2922,
      "ĠGlobo": 2923,
      "\"}": 2924,
      "');": 2925,
      ".');": 2926,
      "Listen": 2927,
      "spea": 2928,
      "wav": 2929,
      "{\"": 2930,
      "},\"": 2931,
      "Ġ\",\"": 2932,
      "token": 2933,
      "ĠRss": 2934,
      "pitch": 2935,
      "\":-": 2936,
      "\":{\"": 2937,
      "Ġinsu": 2938,
      "Ġfunction": 2939,
      "language": 2940,
      "Ġalert": 2941,
      "tembro": 2942,
      "ssml": 2943,
      "Ġ{\"": 2944,
      "ĠrÃ¡pi": 2945,
      "ĠTabelas": 2946,
      "copy": 2947,
      "addEvent": 2948,
      "agenciabrasil": 2949,
      "Ġ});": 2950,
      "Listener": 2951,
      "speaking": 2952,
      "wavenet": 2953,
      "addEventListener": 2954,
      "tis": 2955,
      "Ġedu": 2956,
      "13": 2957,
      "Ġponto": 2958,
      "28": 2959,
      "Ġur": 2960,
      "ĠquestÃµes": 2961,
      "ĠÃ¡reas": 2962,
      "ĠÂ©": 2963,
      "Ġtinha": 2964,
      "Ġdisponibil": 2965,
      "Ġvagas": 2966,
      "Ġpouco": 2967,
      "ĠFran": 2968,
      "Ġperfis": 2969,
      "Ġfazendo": 2970,
      "verm": 2971,
      "gres": 2972,
      "iado": 2973,
      "duz": 2974,
      "Ġmode": 2975,
      "ĠpÃºblicas": 2976,
      "ĠAmaz": 2977,
      "Ġtro": 2978,
      "ĠHo": 2979,
      "ÃŃcios": 2980,
      "entila": 2981,
      "cus": 2982,
      "Ġabaixo": 2983,
      "Ġbenef": 2984,
      "entar": 2985,
      "vembro": 2986,
      "ĠpromoÃ§Ã£o": 2987,
      "Ġlevar": 2988,
      "Ãį": 2989,
      "Ġquad": 2990,
      "Ġvul": 2991,
      "Ġseis": 2992,
      "Ġoutubro": 2993,
      "ĠIm": 2994,
      "witter": 2995,
      "isar": 2996,
      "Ġtenta": 2997,
      "Ġges": 2998,
      "uta": 2999,
      "Ġglo": 3000,
      "Ġcorre": 3001,
      "Ġmaioria": 3002,
      "Ġlevan": 3003,
      "ibi": 3004,
      "Ġabor": 3005,
      "cem": 3006,
      "ÃŃda": 3007,
      "Ġtese": 3008,
      "Ġ>": 3009,
      "Ġfis": 3010,
      "Ġfrequ": 3011,
      "Ġseguinte": 3012,
      "Ġperguntas": 3013,
      "tiu": 3014,
      "Ġcompartilhar": 3015,
      "Ã³rter": 3016,
      "culo": 3017,
      "ĠÃģ": 3018,
      "ĠSanit": 3019,
      "ĠtÃŃ": 3020,
      "Ġbo": 3021,
      "Ġventila": 3022,
      "ĠregiÃµes": 3023,
      "su": 3024,
      "Ġrespeito": 3025,
      "nos": 3026,
      "Ġquin": 3027,
      "ĠQuando": 3028,
      "iante": 3029,
      "ĠcenÃ¡rio": 3030,
      "Ġop": 3031,
      "Ġfora": 3032,
      "Ġautoridades": 3033,
      "22": 3034,
      "tria": 3035,
      "Ġchin": 3036,
      "Ġsele": 3037,
      "Ġdeixou": 3038,
      "ĠMA": 3039,
      "Ġalc": 3040,
      "Ġcuidados": 3041,
      "bol": 3042,
      "ham": 3043,
      "Ġcarre": 3044,
      "Ġimuniz": 3045,
      "Ġrealmente": 3046,
      "Ġgrav": 3047,
      "Ġsetembro": 3048,
      "inguÃ©m": 3049,
      "Ġsai": 3050,
      "ĠmÃŃdia": 3051,
      "pel": 3052,
      "Ġcobertura": 3053,
      "Ġaparece": 3054,
      "mac": 3055,
      "Ġapos": 3056,
      "Ġchamada": 3057,
      "ligÃªncia": 3058,
      "ĠCent": 3059,
      "talidade": 3060,
      "EL": 3061,
      "Ġeta": 3062,
      "ĠmÃ£": 3063,
      "ciou": 3064,
      "ecu": 3065,
      "Ġrepresenta": 3066,
      "Ġ>>": 3067,
      "Ġsexta": 3068,
      "Ġgran": 3069,
      "ĠMed": 3070,
      "Ġlemb": 3071,
      "Ġpaga": 3072,
      "Ġregistros": 3073,
      "bra": 3074,
      "iliar": 3075,
      "ĠNO": 3076,
      "ĠTV": 3077,
      "Ġresumo": 3078,
      "Ġobri": 3079,
      "Ġseguir": 3080,
      "ĠJoÃ£o": 3081,
      "dro": 3082,
      "Ġpovo": 3083,
      "Ġfortalecer": 3084,
      "ĠeficÃ¡cia": 3085,
      "Ġsabe": 3086,
      "magem": 3087,
      "Ġhe": 3088,
      "Ġmarca": 3089,
      "Ġocorre": 3090,
      "Ġprocedimentos": 3091,
      "Ġdem": 3092,
      "ĠmÃ¡": 3093,
      "ÃŃdos": 3094,
      "Ġbrin": 3095,
      "ĠTO": 3096,
      "postas": 3097,
      "Ġmanifesta": 3098,
      "Ġaci": 3099,
      "Ġ28": 3100,
      "Ġpron": 3101,
      "aixa": 3102,
      "Ġinternacional": 3103,
      "Ġcuste": 3104,
      "end": 3105,
      "Ġ26": 3106,
      "ĠlanÃ§a": 3107,
      "Ġnega": 3108,
      "Ġseman": 3109,
      "ĠversÃ£o": 3110,
      "Ġmetanol": 3111,
      "Ġserem": 3112,
      "ĠCOM": 3113,
      "Ġferra": 3114,
      "Ġlinks": 3115,
      "ĠversÃµes": 3116,
      "Ġnarrativa": 3117,
      "vir": 3118,
      "mental": 3119,
      "ĠFiocruz": 3120,
      "Ġacompan": 3121,
      "ĠdÃº": 3122,
      "Ġprecoce": 3123,
      "Ġpulmon": 3124,
      "ĠSilva": 3125,
      "Ġnovembro": 3126,
      "Ġencontro": 3127,
      "Ġexistem": 3128,
      "izaÃ§Ãµes": 3129,
      "venÃ§Ã£o": 3130,
      "Ġsentido": 3131,
      "inos": 3132,
      "Ġconj": 3133,
      "ĠLei": 3134,
      "Ġimedia": 3135,
      "Ġpoderia": 3136,
      "ĠreduÃ§Ã£o": 3137,
      "Ġmostram": 3138,
      "Ġseguintes": 3139,
      "ĠApÃ³s": 3140,
      "th": 3141,
      "ĠSal": 3142,
      "Ġmundial": 3143,
      "don": 3144,
      "Ġfiz": 3145,
      "Ġ90": 3146,
      "ixa": 3147,
      "Ġaconteceu": 3148,
      "99177": 3149,
      "Ġpequ": 3150,
      "Ġepidem": 3151,
      "Ġidosos": 3152,
      "ĠampliaÃ§Ã£o": 3153,
      "lique": 3154,
      "ĠdecisÃ£o": 3155,
      "xtos": 3156,
      "dora": 3157,
      "12": 3158,
      "Ġcida": 3159,
      "vermec": 3160,
      "Ġcrim": 3161,
      "ĠAtual": 3162,
      "ĠMora": 3163,
      "Ġdiretor": 3164,
      "onal": 3165,
      "tec": 3166,
      "vermectina": 3167,
      "Ġdando": 3168,
      "ĠfÃŃs": 3169,
      "icial": 3170,
      "Ġcomum": 3171,
      "ĠNorte": 3172,
      "eric": 3173,
      "genda": 3174,
      "Ġrealizado": 3175,
      "Ġestabele": 3176,
      "ĠMo": 3177,
      "ardo": 3178,
      "Ġaquis": 3179,
      "Ġquarta": 3180,
      "Ġacessar": 3181,
      "ĠvigilÃ¢ncia": 3182,
      "Ġintox": 3183,
      "Ġavan": 3184,
      "AB": 3185,
      "UN": 3186,
      "ĠRE": 3187,
      "Ġ22": 3188,
      "Ġger": 3189,
      "Ġdireito": 3190,
      "Ġinvestimento": 3191,
      "17": 3192,
      "Ġfrente": 3193,
      "onas": 3194,
      "ĠPR": 3195,
      "ĠClique": 3196,
      "Ġexclusi": 3197,
      "SE": 3198,
      "Ġfase": 3199,
      "Ġfazem": 3200,
      "Ġprofissional": 3201,
      "Ġplataforma": 3202,
      "ly": 3203,
      "Ġteriam": 3204,
      "ĠfÃ¡": 3205,
      "ton": 3206,
      "rie": 3207,
      "cios": 3208,
      "Ġimple": 3209,
      "Ġestran": 3210,
      "Ġpadr": 3211,
      "edrus": 3212,
      "UL": 3213,
      "Ġino": 3214,
      "ĠâĢĺ": 3215,
      "Ġha": 3216,
      "ulaÃ§Ã£o": 3217,
      "Ġpublicada": 3218,
      "Ġacompanhamento": 3219,
      "Ġpassar": 3220,
      "iram": 3221,
      "Ġmotivo": 3222,
      "ĠSiga": 3223,
      "ĠparticipaÃ§Ã£o": 3224,
      "iminu": 3225,
      "Ġpois": 3226,
      "ĠFern": 3227,
      "fo": 3228,
      "tiz": 3229,
      "Ġcompartilhamento": 3230,
      "Ġdezembro": 3231,
      "Ġri": 3232,
      "Ġ[/": 3233,
      "orro": 3234,
      "Ġescre": 3235,
      "diu": 3236,
      "vereiro": 3237,
      "cionado": 3238,
      "taram": 3239,
      "inhos": 3240,
      "Ġrecor": 3241,
      "Ġajudar": 3242,
      "uro": 3243,
      "AL": 3244,
      "Ġbucal": 3245,
      "ĠRede": 3246,
      "Ġimpacto": 3247,
      "ĠnÂº": 3248,
      "ĠDeus": 3249,
      "ĠQual": 3250,
      "Ġespalhou": 3251,
      "cidente": 3252,
      "ĠPres": 3253,
      "90": 3254,
      "Ġsejam": 3255,
      "Ġinfor": 3256,
      "bado": 3257,
      "ĠcondiÃ§Ãµes": 3258,
      "ono": 3259,
      "ĠEntÃ£o": 3260,
      "ĠespecÃŃ": 3261,
      "ĠMS": 3262,
      "Ġfevereiro": 3263,
      "ĠemergÃªncia": 3264,
      "ende": 3265,
      "Ġentanto": 3266,
      "Ġeletr": 3267,
      "Ġrecebeu": 3268,
      "ĠanÃ¡lise": 3269,
      "Ġdiminu": 3270,
      "ĠMes": 3271,
      "Ġinteg": 3272,
      "Ġagosto": 3273,
      "Ġtan": 3274,
      "ĠBu": 3275,
      "ĠÃºnica": 3276,
      "cel": 3277,
      "ance": 3278,
      "Ġdose": 3279,
      "ĠcomeÃ§ar": 3280,
      "ĠDurante": 3281,
      "Ġextrema": 3282,
      "ĠBahia": 3283,
      "Ġlibe": 3284,
      "iando": 3285,
      "Ġce": 3286,
      "Ġverdadeira": 3287,
      "adas": 3288,
      "ĠNas": 3289,
      "rosso": 3290,
      "idÃªncia": 3291,
      "Ġcirurgias": 3292,
      "Ġsen": 3293,
      "Ġespa": 3294,
      "ĠTu": 3295,
      "RAS": 3296,
      "Ġteste": 3297,
      "Ġpesquisas": 3298,
      "Ã´nia": 3299,
      "Ġprecisam": 3300,
      "ĠinfecÃ§Ã£o": 3301,
      "Ġmanter": 3302,
      "Ġnormal": 3303,
      "tocol": 3304,
      "ĠEl": 3305,
      "Ġatender": 3306,
      "unciou": 3307,
      "icl": 3308,
      "Ġemo": 3309,
      "Ġfilho": 3310,
      "Ġdizia": 3311,
      "TAL": 3312,
      "Ġfinancia": 3313,
      "posiÃ§Ã£o": 3314,
      "ĠformaÃ§Ã£o": 3315,
      "Ġganhar": 3316,
      "Ġmelho": 3317,
      "ĠalguÃ©m": 3318,
      "ĠcomunicaÃ§Ã£o": 3319,
      "fal": 3320,
      "vis": 3321,
      "Ġcompartilhada": 3322,
      "Ġusar": 3323,
      "Ġperfil": 3324,
      "93": 3325,
      "iras": 3326,
      "esus": 3327,
      "Ġreceb": 3328,
      "Ġcelular": 3329,
      "Ġadolescentes": 3330,
      "ill": 3331,
      "ĠCe": 3332,
      "Ġcomplex": 3333,
      "Ġagra": 3334,
      "ĠprÃ©": 3335,
      "ĠIns": 3336,
      "Ġ2026": 3337,
      "ĠMaria": 3338,
      "tural": 3339,
      "Ġgrandes": 3340,
      "%)": 3341,
      "cimentos": 3342,
      "Ġurg": 3343,
      "Ġdeman": 3344,
      "ferÃªncia": 3345,
      "ĠnecessÃ¡rio": 3346,
      "ional": 3347,
      "Ġquantidade": 3348,
      "Ġcandida": 3349,
      "nÃ£o": 3350,
      "Ġpublicado": 3351,
      "Ġsust": 3352,
      "Ġocas": 3353,
      "ĠNova": 3354,
      "Ġelim": 3355,
      "Ġcum": 3356,
      "todo": 3357,
      "ĠTwitter": 3358,
      "ezu": 3359,
      "Ġobser": 3360,
      "Ġpesquisadores": 3361,
      "Ġconsum": 3362,
      "Ġpodemos": 3363,
      "enham": 3364,
      "ĠPolÃŃcia": 3365,
      "ĠreferÃªncia": 3366,
      "ĠhistÃ³rico": 3367,
      "Ġdepen": 3368,
      "ĠninguÃ©m": 3369,
      "plan": 3370,
      "ĠMoraes": 3371,
      "ach": 3372,
      "Ġparece": 3373,
      "Ġterc": 3374,
      "mic": 3375,
      "ĠAu": 3376,
      "emo": 3377,
      "2025": 3378,
      "ĠEspecialistas": 3379,
      "Ġbac": 3380,
      "Ġpapel": 3381,
      "Ġmaiores": 3382,
      "ĠUniÃ£o": 3383,
      "Ġalte": 3384,
      "ĠanÃºncio": 3385,
      "Ġ\"": 3386,
      "Ġessen": 3387,
      "betes": 3388,
      "Ġrepassa": 3389,
      "IM": 3390,
      "terapia": 3391,
      "Ġinformou": 3392,
      "SP": 3393,
      "cendo": 3394,
      "Ġsob": 3395,
      "mea": 3396,
      "dena": 3397,
      "ĠconfiÃ¡vel": 3398,
      "Ġdific": 3399,
      "Ġventiladores": 3400,
      "ĠDA": 3401,
      "Ġmenor": 3402,
      "raÃ§Ãµes": 3403,
      "Ġdevido": 3404,
      "Ġposi": 3405,
      "ĠÃ¡lcool": 3406,
      "Ġquinta": 3407,
      "Ġsuspen": 3408,
      "encia": 3409,
      "Ġ29": 3410,
      "Ġrealizada": 3411,
      "Ġcontinua": 3412,
      "Ġcoisas": 3413,
      "inado": 3414,
      "18": 3415,
      "ĠVi": 3416,
      "ĠJos": 3417,
      "ĠMato": 3418,
      "Ġrelacionadas": 3419,
      "igo": 3420,
      "Ã©re": 3421,
      "ĠRepÃ³rter": 3422,
      "ĠGrosso": 3423,
      "ĠnÃºmeros": 3424,
      "ĠEntretanto": 3425,
      "Ġsinal": 3426,
      "Ġminha": 3427,
      "ĠNeste": 3428,
      "tasse": 3429,
      "Ġacabou": 3430,
      "ĠmilhÃ£o": 3431,
      "bun": 3432,
      "Ġvir": 3433,
      "Ġdif": 3434,
      "Ġtratar": 3435,
      "Ġafe": 3436,
      "Ġinsumos": 3437,
      "ger": 3438,
      "vados": 3439,
      "Ġmunicipais": 3440,
      "ficiÃªncia": 3441,
      "ass": 3442,
      "hado": 3443,
      "Ġquais": 3444,
      "ĠMinas": 3445,
      "gramas": 3446,
      "ĠMande": 3447,
      "xima": 3448,
      "Ġhab": 3449,
      "ĠFunda": 3450,
      "Ġdemais": 3451,
      "eles": 3452,
      "Ġdiretamente": 3453,
      "Ġplano": 3454,
      "ficas": 3455,
      "Ġfortalecimento": 3456,
      "iliares": 3457,
      "\",": 3458,
      "Ġfotos": 3459,
      "ĠtÃ©cnica": 3460,
      "Ġw": 3461,
      "Ġfalou": 3462,
      "Ġclassi": 3463,
      "misso": 3464,
      "utas": 3465,
      "Ġamb": 3466,
      "Ġregistrados": 3467,
      "ĠreforÃ§a": 3468,
      "ĠcrÃŃ": 3469,
      "Ġder": 3470,
      "Ġof": 3471,
      "ĠAd": 3472,
      "Ġ2017": 3473,
      "Ġacima": 3474,
      "ean": 3475,
      "ise": 3476,
      "Ġivermectina": 3477,
      "Ġdigital": 3478,
      "iel": 3479,
      "Ġsiste": 3480,
      "OMS": 3481,
      "Ġfoco": 3482,
      "ĠDSEI": 3483,
      "ĠVen": 3484,
      "Ġcabe": 3485,
      "Ġsaud": 3486,
      "ĠCal": 3487,
      "Ġgerar": 3488,
      "Ġdificul": 3489,
      "Ġgovernador": 3490,
      "Ġhomens": 3491,
      "esqu": 3492,
      "Ġsanit": 3493,
      "ĠprisÃ£o": 3494,
      "ĠUSF": 3495,
      "Ġamea": 3496,
      "Ġminu": 3497,
      "Ġdissem": 3498,
      "Ġpontos": 3499,
      "Ġpermite": 3500,
      "Ġtiv": 3501,
      "Ġmic": 3502,
      "Ġrepor": 3503,
      "Ġtextos": 3504,
      "ĠrealizaÃ§Ã£o": 3505,
      "grafia": 3506,
      "Ġrelig": 3507,
      "Ġavalia": 3508,
      "ĠTe": 3509,
      "Ġganhou": 3510,
      "dou": 3511,
      "Ġesfor": 3512,
      "Ġinfluenza": 3513,
      "Ġespera": 3514,
      "ĠQUE": 3515,
      "ĠQuem": 3516,
      "Ġglobal": 3517,
      "ĠEste": 3518,
      "vens": 3519,
      "corpo": 3520,
      "inhas": 3521,
      "Ġanterior": 3522,
      "Ġarma": 3523,
      "Ġcriar": 3524,
      "Ġaplicativo": 3525,
      "Ġlogo": 3526,
      "Ġpulmonares": 3527,
      "ĠMandetta": 3528,
      "Ġefica": 3529,
      "Ġestavam": 3530,
      "Ġmeu": 3531,
      "Ġcapital": 3532,
      "cidas": 3533,
      "esar": 3534,
      "ĠPol": 3535,
      "ĠParan": 3536,
      "ĠÃºltimo": 3537,
      "ficiente": 3538,
      "ĠÃŃn": 3539,
      "Ġcomunica": 3540,
      "Ġriscos": 3541,
      "ĠCruz": 3542,
      "Ġmora": 3543,
      "ĠexplicaÃ§Ã£o": 3544,
      "ĠAtualmente": 3545,
      "pati": 3546,
      "Ġcirculou": 3547,
      "ĠConselho": 3548,
      "aca": 3549,
      "gresso": 3550,
      "Ġfede": 3551,
      "antil": 3552,
      "Ġgas": 3553,
      "deira": 3554,
      "ĠGa": 3555,
      "ologias": 3556,
      "Ã´nicas": 3557,
      "ner": 3558,
      "Ġlado": 3559,
      "izam": 3560,
      "ĠcomeÃ§aram": 3561,
      "Ġsuspeitos": 3562,
      "Ġjunho": 3563,
      "ĠusuÃ¡rios": 3564,
      "ĠMul": 3565,
      "ĠPesso": 3566,
      "Ãºncia": 3567,
      "ÃŃlio": 3568,
      "Ġnesse": 3569,
      "Ġidentificar": 3570,
      "Ġbebidas": 3571,
      "Ġparticipar": 3572,
      "Ġsequer": 3573,
      "Ġhumanos": 3574,
      "ĠorientaÃ§Ãµes": 3575,
      "Ġpublicou": 3576,
      "ĠmÃ£e": 3577,
      "Ġfic": 3578,
      "Ġbar": 3579,
      "ncer": 3580,
      "tulo": 3581,
      "Ġartificial": 3582,
      "Ġconsultas": 3583,
      "Ġades": 3584,
      "Ġcul": 3585,
      "ĠSE": 3586,
      "ĠMe": 3587,
      "ĠOl": 3588,
      "gues": 3589,
      "Ġengan": 3590,
      "Ġcirurgia": 3591,
      "AC": 3592,
      "ĠdoaÃ§Ã£o": 3593,
      "Ġboa": 3594,
      "ĠDr": 3595,
      "vidos": 3596,
      "ĠJesus": 3597,
      "Ġexame": 3598,
      "21": 3599,
      "Ġdetec": 3600,
      "idro": 3601,
      "macÃªu": 3602,
      "ĠCE": 3603,
      "Ġalto": 3604,
      "tle": 3605,
      "wer": 3606,
      "Ġentender": 3607,
      "Ġficou": 3608,
      "Ġcaminh": 3609,
      "dra": 3610,
      "segu": 3611,
      "Ġviol": 3612,
      "Ġexplicou": 3613,
      "rique": 3614,
      "Ġtenham": 3615,
      "Ġsociedade": 3616,
      "Ġimpe": 3617,
      "nte": 3618,
      "Ġtur": 3619,
      "BS": 3620,
      "aco": 3621,
      "ĠTec": 3622,
      "ĠvÃŃtimas": 3623,
      "Ġdiabetes": 3624,
      "ĠpÃºblicos": 3625,
      "70": 3626,
      "dir": 3627,
      "Ġfalamos": 3628,
      "ENTO": 3629,
      "Ġestariam": 3630,
      "ĠGerais": 3631,
      "pou": 3632,
      "ĠVeja": 3633,
      "amento": 3634,
      "vidual": 3635,
      "Ġparc": 3636,
      "!!!": 3637,
      "Ġcos": 3638,
      "ĠPe": 3639,
      "Ġapesar": 3640,
      "Ġoriginal": 3641,
      "Ġpossuem": 3642,
      "Ġefeitos": 3643,
      "drome": 3644,
      "ĠBan": 3645,
      "ĠBÃ¡s": 3646,
      "deste": 3647,
      "Ġrecebi": 3648,
      "Ġmaterial": 3649,
      "Ġmist": 3650,
      "Ġcomb": 3651,
      "Ġproibi": 3652,
      "pidamente": 3653,
      "Ġteor": 3654,
      "ĠAL": 3655,
      "tÃ¡ria": 3656,
      "Ġnu": 3657,
      "Ġesp": 3658,
      "Ġcompromisso": 3659,
      "ĠMesmo": 3660,
      "Ġfigu": 3661,
      "ĠlÃŃ": 3662,
      "Ġmobil": 3663,
      "Ġdeixar": 3664,
      "ĠestratÃ©gias": 3665,
      "ĠcriaÃ§Ã£o": 3666,
      "Ġsistemas": 3667,
      "95": 3668,
      "CR": 3669,
      "SS": 3670,
      "lÃ³g": 3671,
      "rÃªncia": 3672,
      "ĠPE": 3673,
      "Ġfundamental": 3674,
      "Ġconcent": 3675,
      "ya": 3676,
      "deias": 3677,
      "conÃ´m": 3678,
      "Ġadminist": 3679,
      "Ġrapidamente": 3680,
      "ĠpromoÃ§Ãµes": 3681,
      "Ġprojetos": 3682,
      "Ġfuncionamento": 3683,
      "ĠprÃ¡tica": 3684,
      "Ġil": 3685,
      "Ġmental": 3686,
      "Ġcusteio": 3687,
      "ĠmÃŃn": 3688,
      "Ġ2351": 3689,
      "Ġnotifica": 3690,
      "Ġvacinal": 3691,
      "Ġnessa": 3692,
      "Ġques": 3693,
      "Ġutiliza": 3694,
      "tais": 3695,
      "pla": 3696,
      "Ġexig": 3697,
      "Ġrelacionados": 3698,
      "ĠsÃ©rie": 3699,
      "Ġmenti": 3700,
      "Ġestaduais": 3701,
      "Ġespalhar": 3702,
      "ĠatuaÃ§Ã£o": 3703,
      "Ġ70": 3704,
      "Ġsemelh": 3705,
      "Ġaprov": 3706,
      "Ġhumano": 3707,
      "ila": 3708,
      "ĠbÃ¡s": 3709,
      "ĠHen": 3710,
      "Ġtipos": 3711,
      "Ġcheg": 3712,
      "Ã³l": 3713,
      "Ġvacinar": 3714,
      "vÃ©s": 3715,
      "Ġdepu": 3716,
      "teg": 3717,
      "dez": 3718,
      "ĠinvestigaÃ§Ã£o": 3719,
      "Ġtaxa": 3720,
      "Ġrecente": 3721,
      "Ġusado": 3722,
      "Ġanalisar": 3723,
      "iou": 3724,
      "ĠFl": 3725,
      "ĠTrans": 3726,
      "Ġ80": 3727,
      "Ġjovens": 3728,
      "ube": 3729,
      "Ġlig": 3730,
      "gaÃ§Ãµes": 3731,
      "Ġcarro": 3732,
      "ĠseÃ§Ã£o": 3733,
      "Ġfacil": 3734,
      "aldo": 3735,
      "ĠPlan": 3736,
      "Ġregula": 3737,
      "ĠinteligÃªncia": 3738,
      "mara": 3739,
      "Ġmonitoramento": 3740,
      "Ġagu": 3741,
      "Ġcre": 3742,
      "Ġprotocol": 3743,
      "Ġjog": 3744,
      "olÃ³gico": 3745,
      "ĠCasa": 3746,
      "ĠMÃ©dicos": 3747,
      "Ġsolicita": 3748,
      "ĠaquisiÃ§Ã£o": 3749,
      "ĠJosÃ©": 3750,
      "RJ": 3751,
      "ins": 3752,
      "Ġmenores": 3753,
      "Ġsupostamente": 3754,
      "ĠUnidades": 3755,
      "ribun": 3756,
      "Ġcomplica": 3757,
      "Ġvivo": 3758,
      "ĠpolÃŃtico": 3759,
      "Ġprevis": 3760,
      "Ġfer": 3761,
      "ĠSem": 3762,
      "versi": 3763,
      "Ġocorrido": 3764,
      "Ġvale": 3765,
      "ntes": 3766,
      "ĠconteÃºdos": 3767,
      "Ġvaga": 3768,
      "tudo": 3769,
      "Ġvago": 3770,
      "ĠAle": 3771,
      "Ġanunciou": 3772,
      "sito": 3773,
      "berta": 3774,
      "ĠComp": 3775,
      "Ġtiveram": 3776,
      "Ġprazo": 3777,
      "ĠHenrique": 3778,
      "44": 3779,
      "rso": 3780,
      "Ġdecre": 3781,
      "ĠÃ¢": 3782,
      "Ġleg": 3783,
      "ĠreforÃ§ar": 3784,
      "ĠbilhÃµes": 3785,
      "Ġcau": 3786,
      "ĠdeclaraÃ§Ã£o": 3787,
      "Ġjulho": 3788,
      "Ġarro": 3789,
      "Ġimpos": 3790,
      "SA": 3791,
      "paÃ§Ã£o": 3792,
      "tidos": 3793,
      "Ġcompara": 3794,
      "BA": 3795,
      "tagram": 3796,
      "ĠPesqu": 3797,
      "ĠCol": 3798,
      "ĠavaliaÃ§Ã£o": 3799,
      "Ġprepara": 3800,
      "nambu": 3801,
      "Ġps": 3802,
      "Ġfru": 3803,
      "Ġdata": 3804,
      "ĠCN": 3805,
      "Ġpresente": 3806,
      "ĠtÃ©cnicos": 3807,
      "ĠPT": 3808,
      "Ġprogramas": 3809,
      "osta": 3810,
      "orou": 3811,
      "Ġsucesso": 3812,
      "Ġpermi": 3813,
      "Ġutilizado": 3814,
      "ĠTecn": 3815,
      "ĠPan": 3816,
      "rantes": 3817,
      "Ġtratamentos": 3818,
      "ĠCON": 3819,
      "Ġbastasse": 3820,
      "Âª": 3821,
      "ĠmÃº": 3822,
      "Ġinde": 3823,
      "Ġbi": 3824,
      "vadas": 3825,
      "ĠFoi": 3826,
      "iores": 3827,
      "ĠmÃ©dia": 3828,
      "partamento": 3829,
      "ĠFrancis": 3830,
      "68": 3831,
      "ĠpresenÃ§a": 3832,
      "rael": 3833,
      "ĠSantos": 3834,
      "onald": 3835,
      "ĠcientÃŃfica": 3836,
      "ĠepidemiolÃ³g": 3837,
      "ĠBo": 3838,
      "meras": 3839,
      "Ġvisita": 3840,
      "ĠremÃ©dio": 3841,
      "Ġtom": 3842,
      "ĠterritÃ³rio": 3843,
      "eram": 3844,
      "29": 3845,
      "Ġagenda": 3846,
      "Ġep": 3847,
      "Ġesquer": 3848,
      "ĠTer": 3849,
      "Ġmenina": 3850,
      "ĠPARA": 3851,
      "Ġjornalista": 3852,
      "Co": 3853,
      "ĠEM": 3854,
      "Ġcriado": 3855,
      "ĠdisponÃŃveis": 3856,
      "Ġsurto": 3857,
      "Ġcolocar": 3858,
      "Ġart": 3859,
      "xo": 3860,
      "Ġmorre": 3861,
      "dando": 3862,
      "ĠHoje": 3863,
      "cussÃ£o": 3864,
      "ĠmÃ£os": 3865,
      "Ġproposta": 3866,
      "Ġgestantes": 3867,
      "jas": 3868,
      "Ġplaneja": 3869,
      "Ġquestion": 3870,
      "Ġmateriais": 3871,
      "):": 3872,
      "Ġavi": 3873,
      "ĠvÃ¡rios": 3874,
      "Ġimpres": 3875,
      "Ġforte": 3876,
      "Ġcoorden": 3877,
      "velmente": 3878,
      "Ġsimil": 3879,
      "rup": 3880,
      "ĠUF": 3881,
      "Ġhospitalar": 3882,
      "bio": 3883,
      "ðŁ": 3884,
      "esidade": 3885,
      "tagens": 3886,
      "Ġestima": 3887,
      "Ġencam": 3888,
      "Ġanimais": 3889,
      "ENTE": 3890,
      "ĠFrancisco": 3891,
      "Ġdela": 3892,
      "tificaÃ§Ã£o": 3893,
      "Ġcompletamente": 3894,
      "ĠÃ³rgÃ£os": 3895,
      "bas": 3896,
      "Ġocu": 3897,
      "tantan": 3898,
      "Ġtotalmente": 3899,
      "tÃ¡rios": 3900,
      "Ġcovid": 3901,
      "ficos": 3902,
      "ĠprÃ³ximo": 3903,
      "ns": 3904,
      "entina": 3905,
      "Ġpessoal": 3906,
      "%.": 3907,
      "33": 3908,
      "tindo": 3909,
      "Ġdecor": 3910,
      "rela": 3911,
      "Ġiria": 3912,
      "Ġk": 3913,
      "ÃŃde": 3914,
      "ĠLi": 3915,
      "itou": 3916,
      "Ġdesconfia": 3917,
      "Ġcontamina": 3918,
      "ĠCan": 3919,
      "Ġentrega": 3920,
      "Ġeleito": 3921,
      "tidas": 3922,
      "olh": 3923,
      "essor": 3924,
      "Ġconhecido": 3925,
      "Ġmercado": 3926,
      "feitura": 3927,
      "ric": 3928,
      "Ġdro": 3929,
      "Ġequ": 3930,
      "Ġfamos": 3931,
      "ĠinÃº": 3932,
      "Ã³ria": 3933,
      "Ġdivulgado": 3934,
      "Ġgolpes": 3935,
      "14": 3936,
      "hÃ£": 3937,
      "Ġaus": 3938,
      "ome": 3939,
      "Ġmulti": 3940,
      "Ġmosqui": 3941,
      "Ġpalav": 3942,
      "98": 3943,
      "Ġul": 3944,
      "ÃŃstica": 3945,
      "Ġmortalidade": 3946,
      "Ġresponsa": 3947,
      "ĠTrabal": 3948,
      "ff": 3949,
      "ĠAPS": 3950,
      "ulos": 3951,
      "Ġprevenir": 3952,
      "66": 3953,
      "ĠAmÃ©r": 3954,
      "ĠdisponÃŃvel": 3955,
      "ĠindÃŃgena": 3956,
      "ĠInstagram": 3957,
      "iden": 3958,
      "Ġmodelo": 3959,
      "aria": 3960,
      "Ġprimeiros": 3961,
      "Ġoportunidade": 3962,
      "table": 3963,
      "Ġideia": 3964,
      "edn": 3965,
      "ĠSanto": 3966,
      "âĢ¦]": 3967,
      "ĠprÃ³xima": 3968,
      "Ġsemanas": 3969,
      ".âĢĿ": 3970,
      "Ġcitar": 3971,
      "ĠCarlos": 3972,
      "ĠpadrÃ£o": 3973,
      "ĠmÃŃnimo": 3974,
      "posi": 3975,
      "Ġbrasileiras": 3976,
      "ĠYou": 3977,
      "ĠmÃ©": 3978,
      "Ġpele": 3979,
      "Ġvoltou": 3980,
      "Ġdemon": 3981,
      "Ġvidas": 3982,
      "Ã¢nico": 3983,
      "ĠreforÃ§o": 3984,
      "Ġtran": 3985,
      "05": 3986,
      "teza": 3987,
      "ÃŃm": 3988,
      "Ġesto": 3989,
      "ĠpolÃŃcia": 3990,
      "ĠPernambu": 3991,
      "Ġsetor": 3992,
      "Ġens": 3993,
      "Ġmilitar": 3994,
      "tens": 3995,
      "Ã¢ncias": 3996,
      "ĠParanÃ¡": 3997,
      "ura": 3998,
      "pare": 3999,
      "ĠpolÃŃticos": 4000,
      "Ġprocess": 4001,
      "Ã³p": 4002,
      "bater": 4003,
      "Ġcrescimento": 4004,
      "Ġtrabalhadores": 4005,
      "Ġfalsos": 4006,
      "Ġambiente": 4007,
      "ESAI": 4008,
      "Ġpagamento": 4009,
      "ribunal": 4010,
      "iÃ¡s": 4011,
      "Ġdiferente": 4012,
      "et": 4013,
      "feito": 4014,
      "Ġqueda": 4015,
      "izer": 4016,
      "cular": 4017,
      "Ġnoite": 4018,
      "Ġfaixa": 4019,
      "ezuela": 4020,
      "An": 4021,
      "eg": 4022,
      "raram": 4023,
      "title": 4024,
      "Ġpreju": 4025,
      "tivamente": 4026,
      "drawer": 4027,
      "Ġefe": 4028,
      "icon": 4029,
      "ĠAra": 4030,
      "ĠCongresso": 4031,
      "berculos": 4032,
      "rÃ£o": 4033,
      "Ġtesta": 4034,
      "ĠDef": 4035,
      "fam": 4036,
      "ĠterÃ¡": 4037,
      "Ġclose": 4038,
      "Ġpromover": 4039,
      "endeu": 4040,
      "Ġdestaca": 4041,
      "Ġfiscal": 4042,
      "ĠPernambuco": 4043,
      "48": 4044,
      "Ġceleb": 4045,
      "ĠButantan": 4046,
      "ĠcÃ©l": 4047,
      "Ġcomercial": 4048,
      "ĠterÃ§a": 4049,
      "Ġinternacionais": 4050,
      "ĠinstituiÃ§Ã£o": 4051,
      "mbito": 4052,
      "elha": 4053,
      "ĠOficial": 4054,
      "ĠFre": 4055,
      "Ġfatores": 4056,
      "ĠNÃĥO": 4057,
      "ecem": 4058,
      "estrutura": 4059,
      "Ġpais": 4060,
      "Ġdescar": 4061,
      "Ġtransmi": 4062,
      "Ġ[âĢ¦]": 4063,
      "ĠadesÃ£o": 4064,
      "03": 4065,
      "tel": 4066,
      "Ġfras": 4067,
      "ril": 4068,
      "Ġteoria": 4069,
      "Ġrealizados": 4070,
      "ĠTodos": 4071,
      "ĠevidÃªncias": 4072,
      "ĠlanÃ§": 4073,
      "Ġ\\\"": 4074,
      "Ġ99177": 4075,
      "Ġcompartilhado": 4076,
      "Ġbenefic": 4077,
      "ĠAmazonas": 4078,
      "ĠVenezuela": 4079,
      "EC": 4080,
      "ĠPal": 4081,
      "entena": 4082,
      "igi": 4083,
      "Ġpossam": 4084,
      "ipe": 4085,
      "piraÃ§Ã£o": 4086,
      "ĠComun": 4087,
      "Ġocorrer": 4088,
      "ĠcomprovaÃ§Ã£o": 4089,
      "Facebook": 4090,
      "Ġprotes": 4091,
      "blico": 4092,
      "tÃ³rias": 4093,
      "Ġimag": 4094,
      "ĠEduardo": 4095,
      "ĠRoberto": 4096,
      "Ġexpan": 4097,
      "Ġabsur": 4098,
      "iana": 4099,
      "Ġesti": 4100,
      "Ġ31": 4101,
      "ĠInter": 4102,
      "ĠcirculaÃ§Ã£o": 4103,
      "siva": 4104,
      "Ġpostos": 4105,
      "Ġinsta": 4106,
      "ĠDesenvol": 4107,
      "Ġetapa": 4108,
      "Ġamplia": 4109,
      "Ġproteger": 4110,
      "ĠDados": 4111,
      "Ġfraude": 4112,
      "Ġparticipan": 4113,
      "ĠdifÃŃ": 4114,
      "uais": 4115,
      "ĠParÃ¡": 4116,
      "Ġpropa": 4117,
      "ĠDepartamento": 4118,
      "Ġcerteza": 4119,
      "fizer": 4120,
      "Ġprome": 4121,
      "Ġambi": 4122,
      "Ġcurso": 4123,
      "Ġdemons": 4124,
      "dicion": 4125,
      "Ġpriorit": 4126,
      "Ġconh": 4127,
      "ĠLo": 4128,
      "Ġvin": 4129,
      "tenÃ§Ã£o": 4130,
      "Ġempre": 4131,
      "usÃ£o": 4132,
      "Ġaumentar": 4133,
      "Ġcomunidades": 4134,
      "tins": 4135,
      "ĠeducaÃ§Ã£o": 4136,
      "berculose": 4137,
      "Ġreper": 4138,
      "ĠDoria": 4139,
      "duÃ§Ã£o": 4140,
      "ids": 4141,
      "Ġquadro": 4142,
      "Ġmicro": 4143,
      "ĠinÃºmeras": 4144,
      "ĠprÃªm": 4145,
      "entre": 4146,
      "Ġdesmentir": 4147,
      "ĠMunicipal": 4148,
      "Ġminutos": 4149,
      "Ġacidente": 4150,
      "Ġfamiliares": 4151,
      "ĠdenÃºncia": 4152,
      "Ġadultos": 4153,
      "iano": 4154,
      "ĠgrÃ¡": 4155,
      "Ġescrito": 4156,
      "Ġextremamente": 4157,
      "etim": 4158,
      "ĠnÃŃvel": 4159,
      "cito": 4160,
      "Ġconsequ": 4161,
      "Ġquarentena": 4162,
      "eam": 4163,
      "iciais": 4164,
      "ĠatravÃ©s": 4165,
      "ĠreuniÃ£o": 4166,
      "PV": 4167,
      "Ġhi": 4168,
      "Ġsete": 4169,
      "ĠHor": 4170,
      "ĠcomeÃ§a": 4171,
      "Ġliber": 4172,
      "donto": 4173,
      "Ġdomin": 4174,
      "Ġhuman": 4175,
      "Ġonc": 4176,
      "Ġobesidade": 4177,
      "Ġadqui": 4178,
      "Ġcomuns": 4179,
      "ich": 4180,
      "bit": 4181,
      "Ġleite": 4182,
      "Ġinternautas": 4183,
      "Ġhabita": 4184,
      "Ġsensa": 4185,
      "tero": 4186,
      "gadas": 4187,
      "Ġmovi": 4188,
      "ĠrecomendaÃ§Ã£o": 4189,
      "AgÃªncia": 4190,
      "che": 4191,
      "xe": 4192,
      "Ġblo": 4193,
      "Ġbanc": 4194,
      "Ġperigos": 4195,
      "Ġmaneira": 4196,
      "HA": 4197,
      "RI": 4198,
      "ck": 4199,
      "ĠdÃ£o": 4200,
      "racidade": 4201,
      "Ġdado": 4202,
      "ĠPfizer": 4203,
      "ĠNatal": 4204,
      "Ġsair": 4205,
      "Ġacontecer": 4206,
      "ĠconstruÃ§Ã£o": 4207,
      "97": 4208,
      "Ġdebate": 4209,
      "ĠSai": 4210,
      "ĠAntes": 4211,
      "Ġatividade": 4212,
      "Ġincorpo": 4213,
      "Ġhidro": 4214,
      "Ġapresentar": 4215,
      "Ġcadastra": 4216,
      "pÃŃ": 4217,
      "Ġras": 4218,
      "Ġsho": 4219,
      "Ġconver": 4220,
      "Ġcontar": 4221,
      "ĠEles": 4222,
      "Ġvolta": 4223,
      "ĠimunizaÃ§Ã£o": 4224,
      "Ġveracidade": 4225,
      "Ġaproxima": 4226,
      "bel": 4227,
      "dri": 4228,
      "Ġig": 4229,
      "ÃŃndrome": 4230,
      "67": 4231,
      "ĠCr": 4232,
      "Ġdiante": 4233,
      "ĠinfecÃ§Ãµes": 4234,
      "SO": 4235,
      "Ġaldeias": 4236,
      "Ġexa": 4237,
      "Ġatuam": 4238,
      "Ġdistor": 4239,
      "35": 4240,
      "hamos": 4241,
      "Ã©di": 4242,
      "Ġenvi": 4243,
      "Ġseriam": 4244,
      "cha": 4245,
      "eceu": 4246,
      "Ġfecha": 4247,
      "Ġpossibilidade": 4248,
      "ĠtÃŃtulo": 4249,
      "In": 4250,
      "Ġesque": 4251,
      "Ġinfantil": 4252,
      "ĠGO": 4253,
      "ĠprÃ¡ticas": 4254,
      "ĠDiÃ¡rio": 4255,
      "Ġorganismo": 4256,
      "Ġcoletiva": 4257,
      "enÃ§as": 4258,
      "cados": 4259,
      "Ġarqui": 4260,
      "Ġhora": 4261,
      "Ġsexual": 4262,
      "ĠRepÃºblica": 4263,
      "ĠDesenvolvimento": 4264,
      "ĠAssocia": 4265,
      "Ġdesafios": 4266,
      "ide": 4267,
      "Ã¡cio": 4268,
      "Ġcumpri": 4269,
      "Ġeficaz": 4270,
      "Tube": 4271,
      "Ġdesmentidos": 4272,
      "ĠresponsÃ¡veis": 4273,
      "ĠsubstÃ¢ncia": 4274,
      "Ġnorte": 4275,
      "Ġflu": 4276,
      "Ġremo": 4277,
      "tividade": 4278,
      "Ã¡ss": 4279,
      "ense": 4280,
      "Ġcomunidade": 4281,
      "Ġfinanciamento": 4282,
      "cho": 4283,
      "ÃŃdas": 4284,
      "ack": 4285,
      "Ġmovimento": 4286,
      "Ġcoordena": 4287,
      "Ġimunizante": 4288,
      "ximo": 4289,
      "respon": 4290,
      "Ġgravado": 4291,
      "Ġmedo": 4292,
      "Ġordem": 4293,
      "meric": 4294,
      "Ã´nica": 4295,
      "ĠMedicina": 4296,
      "ĠnÃ©": 4297,
      "Ġpagar": 4298,
      "Ġartic": 4299,
      "Ġneg": 4300,
      "37": 4301,
      "Ġimplan": 4302,
      "Ġcanais": 4303,
      "Ġindicava": 4304,
      "Ġcoment": 4305,
      "ĠMil": 4306,
      "ĠDonald": 4307,
      "trica": 4308,
      "ĠrÃ¡pida": 4309,
      "ĠrÃ¡pido": 4310,
      "Ġreligios": 4311,
      "DOS": 4312,
      "ĠMG": 4313,
      "embre": 4314,
      "ocal": 4315,
      "eca": 4316,
      "ticamente": 4317,
      "rgentina": 4318,
      "Ġirre": 4319,
      "Ġdescontos": 4320,
      "Ġtecnologias": 4321,
      "ĠorganizaÃ§Ã£o": 4322,
      "Ġaborda": 4323,
      "Ġconjunto": 4324,
      "Ġconclu": 4325,
      "Ġreconhe": 4326,
      "Ġpropor": 4327,
      "Ġinicial": 4328,
      "ĠdÃºvidas": 4329,
      "ĠFundaÃ§Ã£o": 4330,
      "ĠEstra": 4331,
      "Ġpreso": 4332,
      "Ġvisto": 4333,
      "visÃ£o": 4334,
      "Ġemerg": 4335,
      "ĠfarmacÃªu": 4336,
      "Ġlivre": 4337,
      "ĠÃ¢mbito": 4338,
      "Ġmilag": 4339,
      "Ã¢mara": 4340,
      "Ġcrime": 4341,
      "Ã©rcito": 4342,
      "Ġdesconfiados": 4343,
      "Ġcentro": 4344,
      "reve": 4345,
      "ĠPÃºblica": 4346,
      "ramos": 4347,
      "Ġ45": 4348,
      "Ġweb": 4349,
      "Ãĵ": 4350,
      "Ã¡bado": 4351,
      "Ġincid": 4352,
      "Ġmama": 4353,
      "ĠcabeÃ§a": 4354,
      "ĠBRAS": 4355,
      "Ġrealizadas": 4356,
      "Ġsinais": 4357,
      "ĠRodri": 4358,
      "mentas": 4359,
      "Ġbaixa": 4360,
      "Ġjus": 4361,
      "ĠPorto": 4362,
      "Ġcantor": 4363,
      "Ġpassando": 4364,
      "Ġhepati": 4365,
      "ĠBA": 4366,
      "Ġclicando": 4367,
      "Ã´nico": 4368,
      "ĠsituaÃ§Ãµes": 4369,
      "Ġdetermina": 4370,
      "ĠTudo": 4371,
      "Ġcausou": 4372,
      "ulares": 4373,
      "lama": 4374,
      "Ġagentes": 4375,
      "ĠprÃ³ximos": 4376,
      "Ġpreocupa": 4377,
      "Ġcoo": 4378,
      "Ġconfer": 4379,
      "Ġju": 4380,
      "nera": 4381,
      "ĠQue": 4382,
      "ĠDan": 4383,
      "Ġ37": 4384,
      "CON": 4385,
      "Ġdesa": 4386,
      "Ġexer": 4387,
      "torial": 4388,
      "ĠProte": 4389,
      "Ġjoga": 4390,
      "DF": 4391,
      "dÃŃ": 4392,
      "Ġeram": 4393,
      "ĠcoraÃ§Ã£o": 4394,
      "cada": 4395,
      "Ġregistrou": 4396,
      "Ġutilizada": 4397,
      "%,": 4398,
      "hÃ£o": 4399,
      "ple": 4400,
      "Ġtar": 4401,
      "ĠInte": 4402,
      "Ġapontar": 4403,
      "Ġtransmiss": 4404,
      "ĠVÃŃde": 4405,
      "ĠprevisÃ£o": 4406,
      "trizes": 4407,
      "ĠlaboratÃ³rio": 4408,
      "??": 4409,
      "ĠMer": 4410,
      "Ġenga": 4411,
      "trou": 4412,
      "Ġvalores": 4413,
      "Ġvenda": 4414,
      "Ġcapaci": 4415,
      "ĠEquipes": 4416,
      "ĠYouTube": 4417,
      "far": 4418,
      "Ġmac": 4419,
      "adora": 4420,
      "olÃ³gica": 4421,
      "Ġcomunicado": 4422,
      "edvel": 4423,
      "Ġconsta": 4424,
      "RAG": 4425,
      "ĠhorÃ¡rio": 4426,
      "ĠcÃ©lulas": 4427,
      "CE": 4428,
      "Ġfr": 4429,
      "icamente": 4430,
      "Ġhigi": 4431,
      "Ġcausada": 4432,
      "Ġenvolve": 4433,
      "Ġsalvar": 4434,
      "damente": 4435,
      "ĠPRO": 4436,
      "ĠTribunal": 4437,
      "Ġcloroquina": 4438,
      "ĠpoderÃ£o": 4439,
      "ĠIsrael": 4440,
      "Ġetc": 4441,
      "Ġverificar": 4442,
      "ĠdistribuÃŃdos": 4443,
      "ĠespaÃ§o": 4444,
      "ĠocasiÃ£o": 4445,
      "RIA": 4446,
      "Ġlinha": 4447,
      "fablica": 4448,
      "Ġvisual": 4449,
      "pecta": 4450,
      "Ġobriga": 4451,
      "INA": 4452,
      "xicl": 4453,
      "Ãºst": 4454,
      "Ġcrise": 4455,
      "ĠPois": 4456,
      "vidade": 4457,
      "Ġassina": 4458,
      "ÃŃlias": 4459,
      "Ġvisa": 4460,
      "ĠalimentaÃ§Ã£o": 4461,
      "Ġintegral": 4462,
      "Ġfederais": 4463,
      "Ġparticipantes": 4464,
      "Ġperda": 4465,
      "Ġmassa": 4466,
      "Ġmatar": 4467,
      "Ġdemanda": 4468,
      "xicloroquina": 4469,
      "31": 4470,
      "99": 4471,
      "vac": 4472,
      "iada": 4473,
      "ĠvÃ¡rias": 4474,
      "ĠNor": 4475,
      "Ġextra": 4476,
      "Ġjogo": 4477,
      "ĠServi": 4478,
      "Ġpossibil": 4479,
      "Anvisa": 4480,
      "rig": 4481,
      "Ġapre": 4482,
      "Ġpopular": 4483,
      "Ġinvestimentos": 4484,
      "Ġenfermeiros": 4485,
      "500": 4486,
      "ĠdoaÃ§Ãµes": 4487,
      "ĠRS": 4488,
      "Ġcarta": 4489,
      "ĠPS": 4490,
      "ĠFÃ¡": 4491,
      "Ġja": 4492,
      "ĠtranscriÃ§Ã£o": 4493,
      "Ġ2014": 4494,
      "reira": 4495,
      "ÃŃna": 4496,
      "Ġespan": 4497,
      "Ġ2015": 4498,
      "Ġvulnera": 4499,
      "ĠdifÃŃcil": 4500,
      "Ġsil": 4501,
      "Ġopera": 4502,
      "ĠSA": 4503,
      "Ġsubstitu": 4504,
      "Ġdiagnos": 4505,
      "ĠalegaÃ§Ã£o": 4506,
      "Ġpoten": 4507,
      "cep": 4508,
      "Ġcompor": 4509,
      "Ġesclarecer": 4510,
      "Ġprocessos": 4511,
      "Ġpne": 4512,
      "Ġdesem": 4513,
      "ĠIta": 4514,
      "Ġtempera": 4515,
      "Ġpeso": 4516,
      "ika": 4517,
      "Ġfinanceiro": 4518,
      "Ġlembrar": 4519,
      "ĠSC": 4520,
      "Ġregular": 4521,
      "Ġleva": 4522,
      "ĠOutro": 4523,
      "ĠCatar": 4524,
      "ikun": 4525,
      "ĠSaiba": 4526,
      "Con": 4527,
      "dico": 4528,
      "viar": 4529,
      "Ã¡tico": 4530,
      "ĠPelo": 4531,
      "Ġsomente": 4532,
      "Ġren": 4533,
      "Ġapoiar": 4534,
      "Ġamarela": 4535,
      "ĠPesquisa": 4536,
      "QU": 4537,
      "veira": 4538,
      "ĠArgentina": 4539,
      "Ġsuficiente": 4540,
      "Ġseguem": 4541,
      "Ġtransforma": 4542,
      "Ġreportagem": 4543,
      "ĠausÃªncia": 4544,
      "Ġresponsabilidade": 4545,
      "Com": 4546,
      "Ġmam": 4547,
      "Ġcontas": 4548,
      "ĠCria": 4549,
      "Ġchega": 4550,
      "Ġesteja": 4551,
      "Ġincentivo": 4552,
      "Ġferramentas": 4553,
      "ĠÃį": 4554,
      "gunya": 4555,
      "Ġ2016": 4556,
      "Ġenfermagem": 4557,
      "ikungunya": 4558,
      "kes": 4559,
      "ĠcÃ¡": 4560,
      "aste": 4561,
      "ĠPr": 4562,
      "Ġeventos": 4563,
      "Ġepis": 4564,
      "Ã§am": 4565,
      "olida": 4566,
      "Ġsuporte": 4567,
      "ĠmÃºs": 4568,
      "Ġevol": 4569,
      "dal": 4570,
      "ĠOli": 4571,
      "Ġcirculado": 4572,
      "Ġconsci": 4573,
      "Ã¢nia": 4574,
      "quis": 4575,
      "ĠTa": 4576,
      "ficou": 4577,
      "Ġcic": 4578,
      "ÃĬ": 4579,
      "riamente": 4580,
      "Ġporta": 4581,
      "ĠRu": 4582,
      "Ġapontou": 4583,
      "Ġressaltou": 4584,
      "Ġrepresentantes": 4585,
      "ĠDefesa": 4586,
      "ĠOb": 4587,
      "Ġnatural": 4588,
      "ĠNesta": 4589,
      "Ġressaltar": 4590,
      "Ġperceber": 4591,
      "rÃ¡s": 4592,
      "jamento": 4593,
      "ĠfamÃŃlias": 4594,
      "ĠmudanÃ§as": 4595,
      "pouco": 4596,
      "Ġinterpre": 4597,
      "Ġperson": 4598,
      "Ġpostagem": 4599,
      "Ġrealizou": 4600,
      "Ġneuro": 4601,
      "Ġbrindes": 4602,
      "Ġexclusiva": 4603,
      "Ġcaminhon": 4604,
      "Ġconv": 4605,
      "izaram": 4606,
      "ixo": 4607,
      "Ġitens": 4608,
      "38": 4609,
      "wn": 4610,
      "Ġcombater": 4611,
      "Ġchance": 4612,
      "ĠbebÃª": 4613,
      "Ġrotina": 4614,
      "Ġintoxica": 4615,
      "dis": 4616,
      "han": 4617,
      "Ġmin": 4618,
      "ĠCha": 4619,
      "Ġnossas": 4620,
      "olsonar": 4621,
      "Ġencaminha": 4622,
      "ĠPI": 4623,
      "Ġvacinados": 4624,
      "Ġconhecimento": 4625,
      "ĠImun": 4626,
      "ĠAna": 4627,
      "naval": 4628,
      "Ġcriada": 4629,
      "Ġcerto": 4630,
      "Ġedital": 4631,
      "Ġplanejamento": 4632,
      "Ġvimos": 4633,
      "ĠGra": 4634,
      "mentares": 4635,
      "tidades": 4636,
      "remos": 4637,
      "Ġfeitas": 4638,
      "Ġenerg": 4639,
      "Ġfarsa": 4640,
      "dre": 4641,
      "iados": 4642,
      "inham": 4643,
      "ĠpÃ¡ginas": 4644,
      "ĠpolÃªm": 4645,
      "Ġdiscurso": 4646,
      "ĠFun": 4647,
      "Ġtermos": 4648,
      "Ġtempos": 4649,
      "ĠBrasileiro": 4650,
      "Ġaumenta": 4651,
      "Ġvacinadas": 4652,
      "Ġrelato": 4653,
      "Ġnecessidades": 4654,
      "Ġgarante": 4655,
      "Ġusando": 4656,
      "ĠediÃ§Ã£o": 4657,
      "ON": 4658,
      "PR": 4659,
      "Ġbon": 4660,
      "Ġexecu": 4661,
      "Ġexpecta": 4662,
      "ĠCopa": 4663,
      "tÃ©rios": 4664,
      "polis": 4665,
      "PAS": 4666,
      "Ġrevol": 4667,
      "Ġsequ": 4668,
      "Ġinstru": 4669,
      "Ġespecializada": 4670,
      "Ġofere": 4671,
      "Ġprocede": 4672,
      "Ġesquerda": 4673,
      "Ġinstala": 4674,
      "Ġativa": 4675,
      "Ġpede": 4676,
      "Ġmol": 4677,
      "ĠAV": 4678,
      "ĠCA": 4679,
      "Ġpassam": 4680,
      "Ġguerra": 4681,
      "ust": 4682,
      "Ġvolun": 4683,
      "Ġsolu": 4684,
      "Ġhiper": 4685,
      "ĠBra": 4686,
      "Ġcham": 4687,
      "Ġtentar": 4688,
      "ĠprevÃª": 4689,
      "dencia": 4690,
      "Ġescolas": 4691,
      "Ġapresentam": 4692,
      "Ġhabitantes": 4693,
      "ĠBRASIL": 4694,
      "Ġdeci": 4695,
      "Ġmedicina": 4696,
      "Ġgolp": 4697,
      "Ġmoto": 4698,
      "Ġmunicipal": 4699,
      "Ġtransporte": 4700,
      "Ġlide": 4701,
      "ĠMaran": 4702,
      "Ġinfelizmente": 4703,
      "2026": 4704,
      "Ġfizeram": 4705,
      "ĠCearÃ¡": 4706,
      "Ġessencial": 4707,
      "Ġpotencial": 4708,
      "CI": 4709,
      "hei": 4710,
      "ĠSegu": 4711,
      "Ġcarne": 4712,
      "Ġfilhos": 4713,
      "ĠCatarina": 4714,
      "04": 4715,
      "ustria": 4716,
      "turo": 4717,
      "imas": 4718,
      "Ġanda": 4719,
      "vador": 4720,
      "Ġ35": 4721,
      "jeto": 4722,
      "ĠaplicaÃ§Ã£o": 4723,
      "ĠtÃ©cnico": 4724,
      "portunidades": 4725,
      "Ġdemonstra": 4726,
      "PE": 4727,
      "edes": 4728,
      "ala": 4729,
      "Ġretor": 4730,
      "ĠII": 4731,
      "ĠEsses": 4732,
      "ficado": 4733,
      "Ġinternado": 4734,
      "ĠbenefÃŃcios": 4735,
      "Ġdomingo": 4736,
      "Ġhidroxicloroquina": 4737,
      "ĠÃįn": 4738,
      "ĠPed": 4739,
      "ĠNesse": 4740,
      "ĠÃºnico": 4741,
      "Ġdeixa": 4742,
      "Ġdemorou": 4743,
      "ĠfÃŃsica": 4744,
      "ĠRib": 4745,
      "Ġpapa": 4746,
      "Ġ34": 4747,
      "Ġforn": 4748,
      "Ġtuberculose": 4749,
      "Ġtrabalhar": 4750,
      "Ã´nio": 4751,
      "Ġrecentemente": 4752,
      "Ġiniciativas": 4753,
      "Oportunidades": 4754,
      "Ġnomes": 4755,
      "teriores": 4756,
      "Ġautoria": 4757,
      "Ġvaz": 4758,
      "Ġcomplexidade": 4759,
      "ĠCer": 4760,
      "Ġacaba": 4761,
      "Ġmorreram": 4762,
      "bÃ©": 4763,
      "boato": 4764,
      "ces": 4765,
      "mÃ£o": 4766,
      "sar": 4767,
      "ĠAM": 4768,
      "Ġpresentes": 4769,
      "formas": 4770,
      "Ġrepro": 4771,
      "ĠpoderÃ¡": 4772,
      "Ġintensi": 4773,
      "Ġhaver": 4774,
      "olhimento": 4775,
      "08": 4776,
      "Ġnovamente": 4777,
      "Ġsecretarias": 4778,
      "Ġnegacion": 4779,
      "MG": 4780,
      "cando": 4781,
      "icidade": 4782,
      "Ġhum": 4783,
      "Ġcateg": 4784,
      "Ġcitado": 4785,
      "ĠAmÃ©rica": 4786,
      "200": 4787,
      "Ġescon": 4788,
      "ĠMac": 4789,
      "cionar": 4790,
      "Ġclim": 4791,
      "ĠqualificaÃ§Ã£o": 4792,
      "Ġator": 4793,
      "Ġrealiza": 4794,
      "Ġregi": 4795,
      "Ġ75": 4796,
      "ĠcritÃ©rios": 4797,
      "ĠintervenÃ§Ã£o": 4798,
      "2020": 4799,
      "Ġinscri": 4800,
      "Ġmant": 4801,
      "ĠUniversi": 4802,
      "pend": 4803,
      "Ġteorias": 4804,
      "fas": 4805,
      "Ġmotivos": 4806,
      "tÃ©rias": 4807,
      "ĠÃºltimas": 4808,
      "ĠSecretarias": 4809,
      "34": 4810,
      "dap": 4811,
      "Ãºrg": 4812,
      "Ġprorro": 4813,
      "Ġreceberam": 4814,
      "ĠBÃ¡sica": 4815,
      "tologia": 4816,
      "Ġampla": 4817,
      "esses": 4818,
      "Ġcerve": 4819,
      "ĠESTA": 4820,
      "Ġaparel": 4821,
      "ĠVacinaÃ§Ã£o": 4822,
      "Ġ38": 4823,
      "Ġavaliar": 4824,
      "Ġfabrica": 4825,
      "ĠcidadÃ£o": 4826,
      "Ġengajamento": 4827,
      "Ġvou": 4828,
      "Ġentregues": 4829,
      "Ġmilhares": 4830,
      "essados": 4831,
      "Ġemi": 4832,
      "Ġbolsonar": 4833,
      "entais": 4834,
      "Ġcontemp": 4835,
      "Ġutilizados": 4836,
      "ĠirÃ¡": 4837,
      "Ġjovem": 4838,
      "Ġgeneral": 4839,
      "Ġmentira": 4840,
      "haram": 4841,
      "Ġinfectados": 4842,
      "ĠSuper": 4843,
      "Ġcostu": 4844,
      "Ġassin": 4845,
      "ĠconspiraÃ§Ã£o": 4846,
      "Ġaqueles": 4847,
      "Ãļ": 4848,
      "Ġcli": 4849,
      "Ġsegura": 4850,
      "Ġvariante": 4851,
      "Ġcontempla": 4852,
      "As": 4853,
      "rida": 4854,
      "bert": 4855,
      "ĠVÃŃdeo": 4856,
      "ĠepisÃ³": 4857,
      "ĠSen": 4858,
      "Ġentrada": 4859,
      "ĠPortaria": 4860,
      "Ġmorrido": 4861,
      "Ġolhos": 4862,
      "Ġdestinados": 4863,
      "Ġultra": 4864,
      "ie": 4865,
      "Ġnar": 4866,
      "madas": 4867,
      "Ġcurar": 4868,
      "Ġonda": 4869,
      "ORA": 4870,
      "ĠSociedade": 4871,
      "Ġevita": 4872,
      "pÃ£o": 4873,
      "ĠBel": 4874,
      "Ġportaria": 4875,
      "ÃŃss": 4876,
      "ĠOutra": 4877,
      "Ġusada": 4878,
      "Ġataque": 4879,
      "Ġplataformas": 4880,
      "ĠameaÃ§a": 4881,
      "Ġencer": 4882,
      "ĠEstadual": 4883,
      "quem": 4884,
      "Ã¡ticos": 4885,
      "untos": 4886,
      "ĠOn": 4887,
      "Ġcap": 4888,
      "logo": 4889,
      "Ġconsulta": 4890,
      "Ġmanifes": 4891,
      "ĠlÃ³g": 4892,
      "ĠEnquanto": 4893,
      "Ġauxiliar": 4894,
      "Ġgerou": 4895,
      "ĠcomplicaÃ§Ãµes": 4896,
      "ĠEstratÃ©g": 4897,
      "Ġexpectativa": 4898,
      "ĠPu": 4899,
      "ĠBol": 4900,
      "Ġapar": 4901,
      "Ġterr": 4902,
      "RAN": 4903,
      "ĠMarc": 4904,
      "Ġcomprome": 4905,
      "ĠalcanÃ§": 4906,
      "ban": 4907,
      "tino": 4908,
      "oso": 4909,
      "ĠeconÃ´m": 4910,
      "ĠvÃŃtima": 4911,
      "plica": 4912,
      "ĠEuro": 4913,
      "Ġsustenta": 4914,
      "06": 4915,
      "Ġdaqu": 4916,
      "Ġcadastro": 4917,
      "dura": 4918,
      "ĠapresentaÃ§Ã£o": 4919,
      "Ġcoloca": 4920,
      "Ġunivers": 4921,
      "ĠlÃŃder": 4922,
      "Ġdores": 4923,
      "Ġdireitos": 4924,
      "Ġvoz": 4925,
      "rentes": 4926,
      "Ġpen": 4927,
      "americ": 4928,
      "Ġcomprar": 4929,
      "ĠHPV": 4930,
      "Ġpessoais": 4931,
      "talm": 4932,
      "Ġmortos": 4933,
      "Ġapresentou": 4934,
      "ĠMulher": 4935,
      "ĠaviÃ£o": 4936,
      "Ġensino": 4937,
      "TES": 4938,
      "Ġinv": 4939,
      "Ġtampouco": 4940,
      "Ġrastre": 4941,
      "dicos": 4942,
      "erva": 4943,
      "ĠatrÃ¡s": 4944,
      "Ãªnio": 4945,
      "mentais": 4946,
      "ĠimplementaÃ§Ã£o": 4947,
      "waldo": 4948,
      "Ġluc": 4949,
      "Ġtorna": 4950,
      "Ġcredencia": 4951,
      "Ġtemas": 4952,
      "ĠÃ³bito": 4953,
      "Ġles": 4954,
      "ĠExÃ©rcito": 4955,
      "88": 4956,
      "ĠdÃ©": 4957,
      "istentes": 4958,
      "Ġentra": 4959,
      "Ġrecentes": 4960,
      "ĠusuÃ¡rio": 4961,
      "Ġestabel": 4962,
      "ĠBanco": 4963,
      "CIA": 4964,
      "ĠSocial": 4965,
      "Ġdesenvolver": 4966,
      "ĠProteÃ§Ã£o": 4967,
      "Ġveio": 4968,
      "Ġcompe": 4969,
      "ĠOswaldo": 4970,
      "Ġatualmente": 4971,
      "ĠidentificaÃ§Ã£o": 4972,
      "ĠorientaÃ§Ã£o": 4973,
      "Ġrua": 4974,
      "Ġconseguir": 4975,
      "ĠRegional": 4976,
      "ĠmudanÃ§a": 4977,
      "Ġparticipa": 4978,
      "ĠbenefÃŃcio": 4979,
      "Ġacompanhar": 4980,
      "TOS": 4981,
      "Ġamos": 4982,
      "Ġcho": 4983,
      "Ġcolo": 4984,
      "ĠoperaÃ§Ã£o": 4985,
      "Ġexis": 4986,
      "Ġameric": 4987,
      "ĠGab": 4988,
      "Ġaut": 4989,
      "Ġapoia": 4990,
      "Ġfalava": 4991,
      "Ġolhar": 4992,
      "ĠurgÃªncia": 4993,
      "ĠAT": 4994,
      "ĠOr": 4995,
      "ĠEmbora": 4996,
      "ĠfÃ¡cil": 4997,
      "Ġmelhorar": 4998,
      "ĠsaudÃ¡vel": 4999,
      "ĠOliveira": 5000,
      "can": 5001,
      "ĠPas": 5002,
      "Ãºss": 5003,
      "ĠJu": 5004,
      "pulaÃ§Ã£o": 5005,
      "Ġchec": 5006,
      "ĠciÃªncia": 5007,
      "Ġdocumentos": 5008,
      "Ġterceira": 5009,
      "Ġsimilares": 5010,
      "ĠGestÃ£o": 5011,
      "Ġregras": 5012,
      "Ġpresen": 5013,
      "ĠdivulgaÃ§Ã£o": 5014,
      "Ġcapaz": 5015,
      "Ġcontinuar": 5016,
      "Ġcusto": 5017,
      "bia": 5018,
      "nidade": 5019,
      "stico": 5020,
      "Ġformas": 5021,
      "ĠcontaminaÃ§Ã£o": 5022,
      "Ġcentros": 5023,
      "Ġferramenta": 5024,
      "Ãºssia": 5025,
      "ejo": 5026,
      "onia": 5027,
      "riz": 5028,
      "Ġrepe": 5029,
      "ĠPortanto": 5030,
      "Ġclara": 5031,
      "Ġimportantes": 5032,
      "Ġpoderiam": 5033,
      "Ġataques": 5034,
      "Ãºstria": 5035,
      "Ġboca": 5036,
      "Ġcaiu": 5037,
      "Ġinfra": 5038,
      "Ġcorrespon": 5039,
      "Ġmanu": 5040,
      "Ġcompartilhe": 5041,
      "Ġsuspeita": 5042,
      "ĠterritÃ³rios": 5043,
      "ĠmanifestaÃ§Ãµes": 5044,
      "dontolÃ³g": 5045,
      "07": 5046,
      "ĠBr": 5047,
      "Ġestadual": 5048,
      "toriais": 5049,
      "ĠcardÃŃ": 5050,
      "IDA": 5051,
      "ĠatualizaÃ§Ã£o": 5052,
      "Ġaquele": 5053,
      "ĠauxÃŃlio": 5054,
      "65": 5055,
      "ografia": 5056,
      "Ġmemb": 5057,
      "ĠAN": 5058,
      "irmando": 5059,
      "ĠNu": 5060,
      "Ġpai": 5061,
      "ĠInforma": 5062,
      "Ġpasso": 5063,
      "Ġtiver": 5064,
      "Ġcantora": 5065,
      "Ġciclo": 5066,
      "Ġ500": 5067,
      "ĠClÃŃn": 5068,
      "Ġqueima": 5069,
      "ĠAcre": 5070,
      "rimo": 5071,
      "Ġtinham": 5072,
      "Ġparto": 5073,
      "endÃ¡rio": 5074,
      "Ã£s": 5075,
      "Ġgesta": 5076,
      "idores": 5077,
      "Ġcircularam": 5078,
      "ĠPapa": 5079,
      "Ġgravi": 5080,
      "Ġestejam": 5081,
      "ĠCivil": 5082,
      "Ġderru": 5083,
      "Ġdiagnostica": 5084,
      "%),": 5085,
      "gon": 5086,
      "up": 5087,
      "ume": 5088,
      "Ġdomic": 5089,
      "ĠGil": 5090,
      "Ġaudi": 5091,
      "olÃ³gicos": 5092,
      "ĠacusaÃ§Ã£o": 5093,
      "Ġvulnerabilidade": 5094,
      "\"]": 5095,
      "edo": 5096,
      "Ġinau": 5097,
      "ĠRJ": 5098,
      "itais": 5099,
      "Ġreconh": 5100,
      "ĠrÃ¡pidos": 5101,
      "ĠCentros": 5102,
      "Ġimediatamente": 5103,
      "ĠGates": 5104,
      "ĠAP": 5105,
      "Ġintu": 5106,
      "Ġparar": 5107,
      "Ġga": 5108,
      "ĠâĢ¦": 5109,
      "Ġdesen": 5110,
      "oraima": 5111,
      "Ġregistrado": 5112,
      "Ġoferecer": 5113,
      "Ġprocedimento": 5114,
      "ĠÃ³rgÃ£o": 5115,
      "RG": 5116,
      "ilma": 5117,
      "ulista": 5118,
      "ĠCÃ¢ncer": 5119,
      "Ġhip": 5120,
      "Ġalvo": 5121,
      "Ġantic": 5122,
      "ĠterÃ£o": 5123,
      "ĠHe": 5124,
      "Ġigu": 5125,
      "Ġreno": 5126,
      "ianÃ§a": 5127,
      "Ġprecisamos": 5128,
      "Ġdetalhe": 5129,
      "Ġrepasse": 5130,
      "ĠexperiÃªncias": 5131,
      "ĠmÃ¡ximo": 5132,
      "Ġinaugu": 5133,
      "Fiocruz": 5134,
      "gia": 5135,
      "icol": 5136,
      "Ġler": 5137,
      "Ġconsolida": 5138,
      "Ġpositivo": 5139,
      "ĠcrÃŃticas": 5140,
      "Ġdeputado": 5141,
      "VA": 5142,
      "ï¸": 5143,
      "leo": 5144,
      "posto": 5145,
      "Ġpassos": 5146,
      "Ġusados": 5147,
      "ĠFernando": 5148,
      "CoV": 5149,
      "naÃ§Ã£o": 5150,
      "rendo": 5151,
      "ĠAb": 5152,
      "ĠPron": 5153,
      "Ġdestru": 5154,
      "ĠDig": 5155,
      "tese": 5156,
      "ĠhabilitaÃ§Ã£o": 5157,
      "ï¸ı": 5158,
      "ced": 5159,
      "gam": 5160,
      "Ġabertura": 5161,
      "Ġpior": 5162,
      "anda": 5163,
      "Ġarre": 5164,
      "ĠRoraima": 5165,
      "Ġmorrer": 5166,
      "Ġencontrar": 5167,
      "ualmente": 5168,
      "ĠInfelizmente": 5169,
      "mericana": 5170,
      "Ġcaminhoneiros": 5171,
      "doras": 5172,
      "posa": 5173,
      "ĠForam": 5174,
      "ĠreforÃ§ou": 5175,
      "Ġingl": 5176,
      "Ġchamou": 5177,
      "ĠmÃ£o": 5178,
      "ĠCoca": 5179,
      "Ġantiga": 5180,
      "rupÃ§Ã£o": 5181,
      "Ġsensacional": 5182,
      "TER": 5183,
      "ĠRÃºssia": 5184,
      "Ġaprimo": 5185,
      "Ġseguida": 5186,
      "Ġdesmentidas": 5187,
      "Ġinclui": 5188,
      "Ġmontagem": 5189,
      "75": 5190,
      "lar": 5191,
      "rom": 5192,
      "edveis": 5193,
      "ĠGol": 5194,
      "manha": 5195,
      "pressÃ£o": 5196,
      "Ġatuar": 5197,
      "Ġcivil": 5198,
      "danico": 5199,
      "ĠsecretÃ¡ria": 5200,
      "Ġpoli": 5201,
      "ĠrecomendaÃ§Ãµes": 5202,
      "tÃ¡lia": 5203,
      "ĠcooperaÃ§Ã£o": 5204,
      "Ġtarde": 5205,
      "Ġader": 5206,
      "ĠAqui": 5207,
      "ĠMor": 5208,
      "Ġsuj": 5209,
      "Ġ59": 5210,
      "ĠlimÃ£o": 5211,
      "ĠUnidade": 5212,
      "ĠCuida": 5213,
      "Ġmosquito": 5214,
      "PF": 5215,
      "entou": 5216,
      "ĠsÃ¡bado": 5217,
      "Ġfen": 5218,
      "Ġmelhores": 5219,
      "ĠCentral": 5220,
      "eancias": 5221,
      "lev": 5222,
      "gov": 5223,
      "Ġ300": 5224,
      "Ġcausas": 5225,
      "Ġbomb": 5226,
      "Ġcalor": 5227,
      "ĠavanÃ§o": 5228,
      "cente": 5229,
      "tÃ¡vel": 5230,
      "ĠAC": 5231,
      "uno": 5232,
      "ĠNA": 5233,
      "Ġalar": 5234,
      "ĠprimÃ¡ria": 5235,
      "Ġsabemos": 5236,
      "ĠconfirmaÃ§Ã£o": 5237,
      "Ġsuperior": 5238,
      "Ġaposenta": 5239,
      "ĠintoxicaÃ§Ã£o": 5240,
      "geral": 5241,
      "ww": 5242,
      "Ġema": 5243,
      "Ġfl": 5244,
      "estre": 5245,
      "ĠComissÃ£o": 5246,
      "Ġradio": 5247,
      "ĠCampanha": 5248,
      "ĠexperiÃªncia": 5249,
      "ĠSESAI": 5250,
      "ĠBucal": 5251,
      "ture": 5252,
      "Ġalco": 5253,
      "Ġterem": 5254,
      "tivac": 5255,
      "Ġdefesa": 5256,
      "Ġindicadores": 5257,
      "ĠJapÃ£o": 5258,
      "Ġindividual": 5259,
      "Ġpalavras": 5260,
      "ĠTrabalho": 5261,
      "..": 5262,
      "92": 5263,
      "ĠNovo": 5264,
      "Ġelementos": 5265,
      "Ġcentral": 5266,
      "Ġimunizantes": 5267,
      "ĠNordeste": 5268,
      "SC": 5269,
      "fan": 5270,
      "alvo": 5271,
      "Ġvas": 5272,
      "Ã³di": 5273,
      "Ġpovos": 5274,
      "ĠclÃ¡ss": 5275,
      "Ġchikungunya": 5276,
      "Ġfilha": 5277,
      "Ġcompleto": 5278,
      "Ġconhecida": 5279,
      "Ġadequado": 5280,
      "cent": 5281,
      "Ġaber": 5282,
      "ĠmissÃ£o": 5283,
      "hada": 5284,
      "ĠcirÃºrg": 5285,
      "Ġcarga": 5286,
      "Ġ65": 5287,
      "Ġdiretrizes": 5288,
      "Ġapresentador": 5289,
      "Ġestudan": 5290,
      "ĠinternaÃ§Ãµes": 5291,
      "Ġplanos": 5292,
      "Ġconsiderado": 5293,
      "Ġanteriormente": 5294,
      "Ġsemelhantes": 5295,
      "ĠPlano": 5296,
      "ĠrepercussÃ£o": 5297,
      "ÃŃamos": 5298,
      "Ġcompartilhando": 5299,
      "Ġviralizar": 5300,
      "Ġtroca": 5301,
      "Ġadquiri": 5302,
      "ĠMaranhÃ£o": 5303,
      "63": 5304,
      "ĠagÃªncia": 5305,
      "ĠpÃ¢nico": 5306,
      "Ġestou": 5307,
      "Ġestim": 5308,
      "ĠFal": 5309,
      "Ġentregou": 5310,
      "Ġide": 5311,
      "Ġutilizar": 5312,
      "Ġrecurso": 5313,
      "Ġconseguiu": 5314,
      "Ġprofessor": 5315,
      "dado": 5316,
      "ĠMUN": 5317,
      "ĠDilma": 5318,
      "ĠTerra": 5319,
      "Ġassus": 5320,
      "ĠPaula": 5321,
      "Ġraz": 5322,
      "Ġhabilitados": 5323,
      "ustrial": 5324,
      "Ġemagre": 5325,
      "jus": 5326,
      "mu": 5327,
      "Ġadap": 5328,
      "ĠAc": 5329,
      "ÃŃdio": 5330,
      "ologista": 5331,
      "Ġfuturo": 5332,
      "Ġfrau": 5333,
      "Ġestabelecimentos": 5334,
      "ĠinovaÃ§Ã£o": 5335,
      "Ġjustamente": 5336,
      "taÃ§Ãµes": 5337,
      "ello": 5338,
      "ÃŃnio": 5339,
      "Ġ2013": 5340,
      "ĠProjeto": 5341,
      "Ġqualificar": 5342,
      "ĠGoiÃ¡s": 5343,
      "ĠRecentemente": 5344,
      "famero": 5345,
      "Ġesquema": 5346,
      "ĠBas": 5347,
      "Ġtomou": 5348,
      "ĠLab": 5349,
      "Ġclique": 5350,
      "forme": 5351,
      "Ġministros": 5352,
      "cionados": 5353,
      "ĠCrist": 5354,
      "ĠmanutenÃ§Ã£o": 5355,
      "RNA": 5356,
      "stru": 5357,
      "ang": 5358,
      "ĠEd": 5359,
      "Ġgig": 5360,
      "Ġpropostas": 5361,
      "ĠpossÃŃveis": 5362,
      "Ġespecializado": 5363,
      "Ġresolvemos": 5364,
      "Ġtornou": 5365,
      "Ġtentativa": 5366,
      "ĠTOTAL": 5367,
      "Ġcriminos": 5368,
      "Ġrecebem": 5369,
      "ĠAssociaÃ§Ã£o": 5370,
      "todos": 5371,
      "ĠCÃ¢mara": 5372,
      "Ġdestes": 5373,
      "Ġassum": 5374,
      "ĠacusaÃ§Ãµes": 5375,
      "Ġpedindo": 5376,
      "Ġescreveu": 5377,
      "vÃŃrus": 5378,
      "Ã©dios": 5379,
      "ĠCir": 5380,
      "ĠTik": 5381,
      "Ġpostagens": 5382,
      "ĠpreocupaÃ§Ã£o": 5383,
      "Ġefeito": 5384,
      "ĠSol": 5385,
      "Ġbaix": 5386,
      "goas": 5387,
      "roso": 5388,
      "Ġforne": 5389,
      "Ġencontrado": 5390,
      "ĠclÃŃnica": 5391,
      "Ġboletim": 5392,
      "ĠfuncionÃ¡rios": 5393,
      "Ġenviou": 5394,
      "Se": 5395,
      "Ġcredi": 5396,
      "Ġeconomia": 5397,
      "Ġope": 5398,
      "Ġnacionais": 5399,
      "ecendo": 5400,
      "Ġacele": 5401,
      "Ġtradicion": 5402,
      "ĠconfusÃ£o": 5403,
      "Ġpediu": 5404,
      "ĠCiÃªncia": 5405,
      "ĠVacina": 5406,
      "Ġgolpistas": 5407,
      "Ġcostuma": 5408,
      "100": 5409,
      "78": 5410,
      "Ġfeitos": 5411,
      "Ġrevista": 5412,
      "cie": 5413,
      "ĠTSE": 5414,
      "Ġresid": 5415,
      "Ġbebida": 5416,
      "anaus": 5417,
      "ĠlÃ³gica": 5418,
      "Os": 5419,
      "ĠTi": 5420,
      "Ġrelatos": 5421,
      "Ġdesconf": 5422,
      "Ġpassaram": 5423,
      "ĠSanitÃ¡ria": 5424,
      "ĠTecnologia": 5425,
      "ĠinglÃªs": 5426,
      "eia": 5427,
      "eses": 5428,
      "Ġprefeito": 5429,
      "ĠpressÃ£o": 5430,
      "Ġprinc": 5431,
      "ĠcrÃ´nicas": 5432,
      "Ġvoto": 5433,
      "ICA": 5434,
      "ĠgenÃ©": 5435,
      "pÃ¡": 5436,
      "ze": 5437,
      "ĠApo": 5438,
      "ĠIno": 5439,
      "toria": 5440,
      "Ġvoltar": 5441,
      "Ġadulte": 5442,
      "ĠManaus": 5443,
      "ĠBom": 5444,
      "ĠDF": 5445,
      "cons": 5446,
      "Ġtirar": 5447,
      "Ġatua": 5448,
      "Ġtais": 5449,
      "Ġcontribuir": 5450,
      "ĠcomentÃ¡rios": 5451,
      "Ġros": 5452,
      "Ġpens": 5453,
      "Ġante": 5454,
      "ĠIA": 5455,
      "ĠEspÃŃ": 5456,
      "Ġcardio": 5457,
      "Ġhospitalares": 5458,
      "Ġgarantindo": 5459,
      "Ġcompartilhamentos": 5460,
      "ĠmobilizaÃ§Ã£o": 5461,
      "ĠÃįndia": 5462,
      "Ġcru": 5463,
      "Ġtri": 5464,
      "Ġnovidade": 5465,
      "Ġprop": 5466,
      "Ġmilita": 5467,
      "Ġ36": 5468,
      "Ġmodi": 5469,
      "Ġseguro": 5470,
      "Ġverdadeiro": 5471,
      "Ġpoliciais": 5472,
      "Ġrea": 5473,
      "panhas": 5474,
      "Ġfundo": 5475,
      "Ġpedi": 5476,
      "Ġutilizando": 5477,
      "penho": 5478,
      "ĠDessa": 5479,
      "Ġaplicativos": 5480,
      "Ġruas": 5481,
      "ĠmanifestaÃ§Ã£o": 5482,
      "Ġdrogas": 5483,
      "ĠMarcelo": 5484,
      "ĠfÃ©": 5485,
      "Ġconcre": 5486,
      "ĠCada": 5487,
      "Ġjud": 5488,
      "Ġmoder": 5489,
      "Ġmotor": 5490,
      "essoria": 5491,
      "Ġmostrou": 5492,
      "Ġconfirmado": 5493,
      "Ġindicado": 5494,
      "ĠSupre": 5495,
      "ĠclÃŃnicos": 5496,
      "Ġvulner": 5497,
      "Ġexclusivamente": 5498,
      "etas": 5499,
      "uÃŃ": 5500,
      "Ġato": 5501,
      "Ġestru": 5502,
      "Ġcaix": 5503,
      "Ġantigo": 5504,
      "ĠcientÃŃfico": 5505,
      "ĠintegraÃ§Ã£o": 5506,
      "ĠligaÃ§Ã£o": 5507,
      "ĠCrian": 5508,
      "Ãķ": 5509,
      "Ġfi": 5510,
      "Ġnotic": 5511,
      "ĠNem": 5512,
      "ĠEssas": 5513,
      "ĠSemana": 5514,
      "Ġ48": 5515,
      "Ġexplicar": 5516,
      "Ġdestaque": 5517,
      "Ġcidad": 5518,
      "SR": 5519,
      "Ġsou": 5520,
      "tiza": 5521,
      "Ġachamos": 5522,
      "Ġrestri": 5523,
      "Ġmata": 5524,
      "Ã¡stico": 5525,
      "Ã¢ndia": 5526,
      "Ġapresentado": 5527,
      "ĠNews": 5528,
      "Ġenergia": 5529,
      "jar": 5530,
      "Ġdanos": 5531,
      "Ġmarcas": 5532,
      "Ġlonge": 5533,
      "ĠAla": 5534,
      "Ã¢m": 5535,
      "presa": 5536,
      "ĠforÃ§as": 5537,
      "Ġrenda": 5538,
      "Ġobras": 5539,
      "Ġprivada": 5540,
      "Ġsupostas": 5541,
      "ĠatribuÃŃdo": 5542,
      "Ġeduca": 5543,
      "Ġpermitir": 5544,
      "Ġmembros": 5545,
      "Ġsorte": 5546,
      "Ġmem": 5547,
      "ritos": 5548,
      "Ġrelev": 5549,
      "ĠJan": 5550,
      "Ġdisposi": 5551,
      "Ġutilizam": 5552,
      "Ġcriou": 5553,
      "Ġcientistas": 5554,
      "ĠINSS": 5555,
      "ĠIndÃŃgenas": 5556,
      "ĠremÃ©dios": 5557,
      "ĠPresidente": 5558,
      "ĠprÃªmio": 5559,
      "Ġfronte": 5560,
      "ĠDra": 5561,
      "ĠexposiÃ§Ã£o": 5562,
      "Ġtermin": 5563,
      "Ġperder": 5564,
      "Ġform": 5565,
      "Ġdenuncia": 5566,
      "Ġmelhoria": 5567,
      "Ġcompleta": 5568,
      "Ġapl": 5569,
      "edcio": 5570,
      "dere": 5571,
      "Ġposicion": 5572,
      "tensÃ£o": 5573,
      "Ġsugere": 5574,
      "ĠlanÃ§ou": 5575,
      "09": 5576,
      "800": 5577,
      "ĠAS": 5578,
      "ĠdaÃŃ": 5579,
      "Ġerro": 5580,
      "Ġlevando": 5581,
      "rapÃªu": 5582,
      "Ġetapas": 5583,
      "Ġpneum": 5584,
      "Ġgravidez": 5585,
      "IR": 5586,
      "geiros": 5587,
      "Ġoito": 5588,
      "ĠRena": 5589,
      "Ġaumen": 5590,
      "Ġparticipou": 5591,
      "Ġrelacionada": 5592,
      "ĠcientÃŃficas": 5593,
      "300": 5594,
      "cr": 5595,
      "Ġcultura": 5596,
      "quia": 5597,
      "Ġcontou": 5598,
      "ĠBill": 5599,
      "istente": 5600,
      "Ġlog": 5601,
      "Ġenviar": 5602,
      "Ġentidades": 5603,
      "ĠresidÃªncia": 5604,
      "Ġoferece": 5605,
      "ĠCaso": 5606,
      "ĠDoenÃ§as": 5607,
      "Ġurnas": 5608,
      "ĠviolÃªncia": 5609,
      "zhei": 5610,
      "Ã©rg": 5611,
      "ĠSÃŃ": 5612,
      "istÃ£o": 5613,
      "Ġassegu": 5614,
      "ocar": 5615,
      "Ġadicion": 5616,
      "Ġcampanhas": 5617,
      "Ġchinesa": 5618,
      "Ġprevisto": 5619,
      "ÃķES": 5620,
      "voca": 5621,
      "ini": 5622,
      "ĠnÃŃveis": 5623,
      "cula": 5624,
      "ĠIndi": 5625,
      "Ġespecializados": 5626,
      "Ġcuidar": 5627,
      "ĠtÃ©cnicas": 5628,
      "Ġcolate": 5629,
      "ĠdisseminaÃ§Ã£o": 5630,
      "ĠmÃºsica": 5631,
      "Ġbolsonaristas": 5632,
      "ĠafirmaÃ§Ã£o": 5633,
      "iloto": 5634,
      "laÃ§Ã£o": 5635,
      "tÃŃ": 5636,
      "mada": 5637,
      "ĠvÃ¡": 5638,
      "Ġdom": 5639,
      "ÃŃba": 5640,
      "cipl": 5641,
      "vez": 5642,
      "ĠHabilita": 5643,
      "entado": 5644,
      "Ġespecialista": 5645,
      "Ġeleitoral": 5646,
      "Ġaproximadamente": 5647,
      "Ġexatamente": 5648,
      "gio": 5649,
      "Ġesposa": 5650,
      "iros": 5651,
      "ocan": 5652,
      "ĠinternaÃ§Ã£o": 5653,
      "Ġmostrar": 5654,
      "Ġqualifica": 5655,
      "Ġcandidato": 5656,
      "Qu": 5657,
      "Ġtendo": 5658,
      "Ġmensal": 5659,
      "ĠAli": 5660,
      "ĠavanÃ§a": 5661,
      "Ġexemplos": 5662,
      "Ġtorno": 5663,
      "Ġdetermin": 5664,
      "MP": 5665,
      "nia": 5666,
      "xico": 5667,
      "Ġblog": 5668,
      "ĠDou": 5669,
      "Ġanteriores": 5670,
      "ĠpreÃ§o": 5671,
      "Ġconsegue": 5672,
      "Ġvotos": 5673,
      "Ġpedir": 5674,
      "ĠApoio": 5675,
      "74": 5676,
      "uz": 5677,
      "zul": 5678,
      "ĠmRNA": 5679,
      "ĠDES": 5680,
      "Ġsuple": 5681,
      "Ġatriz": 5682,
      "Ġchanc": 5683,
      "Ġformato": 5684,
      "Ġdesafio": 5685,
      "ĠesforÃ§o": 5686,
      "Ġmoradores": 5687,
      "ĠAVC": 5688,
      "Ġcredibilidade": 5689,
      "ĠEspÃŃrito": 5690,
      "bus": 5691,
      "fec": 5692,
      "tiba": 5693,
      "Ġbaixo": 5694,
      "Ã´men": 5695,
      "Ġafas": 5696,
      "lim": 5697,
      "ÃŃdu": 5698,
      "ĠCosta": 5699,
      "ĠIr": 5700,
      "edses": 5701,
      "Ġtranspar": 5702,
      "Ġcausado": 5703,
      "ĠUniversitÃ¡rio": 5704,
      "Ġigual": 5705,
      "Ġpensa": 5706,
      "ĠTÃ©cn": 5707,
      "lau": 5708,
      "Ġcomputa": 5709,
      "sivo": 5710,
      "patia": 5711,
      "Ġconfirmou": 5712,
      "Ġescola": 5713,
      "ĠTodas": 5714,
      "ganda": 5715,
      "Ġmistura": 5716,
      "ĠepisÃ³dio": 5717,
      "Americana": 5718,
      "No": 5719,
      "bac": 5720,
      "ond": 5721,
      "Ġatende": 5722,
      "Ġlegal": 5723,
      "Ġtranspl": 5724,
      "Ġtransfer": 5725,
      "Ġtivemos": 5726,
      "Ġparcela": 5727,
      "Ġaprovei": 5728,
      "Ġchegamos": 5729,
      "ĠdecorrÃªncia": 5730,
      "Ġson": 5731,
      "Ġlar": 5732,
      "Ġapr": 5733,
      "Ġentidade": 5734,
      "cadas": 5735,
      "Ġinterior": 5736,
      "Ġinteresse": 5737,
      "Ġperto": 5738,
      "Ġassisten": 5739,
      "Ġconstante": 5740,
      "ÃŃnu": 5741,
      "ĠdiferenÃ§a": 5742,
      "ĠCampo": 5743,
      "Ġemocional": 5744,
      "ĠPessoas": 5745,
      "53": 5746,
      "iva": 5747,
      "arda": 5748,
      "ĠPO": 5749,
      "Ġsobrevi": 5750,
      "Ġverm": 5751,
      "ĠPrimeiro": 5752,
      "Ġmetade": 5753,
      "Ġsaiu": 5754,
      "ĠdeficiÃªncia": 5755,
      "rit": 5756,
      "ĠSab": 5757,
      "Ġalimentar": 5758,
      "Ġaprovado": 5759,
      "Ġacabar": 5760,
      "Ġprotocolos": 5761,
      "Ġfogo": 5762,
      "ĠTr": 5763,
      "Ġrespostas": 5764,
      "Ġcoleta": 5765,
      "ĠcondiÃ§Ã£o": 5766,
      "ĠevidÃªncia": 5767,
      "Ġacreditar": 5768,
      "gor": 5769,
      "kdo": 5770,
      "Ġ61": 5771,
      "Ã£es": 5772,
      "Ġescu": 5773,
      "Ġdescri": 5774,
      "entem": 5775,
      "ĠcomeÃ§o": 5776,
      "ĠEquipamentos": 5777,
      "dÃªncia": 5778,
      "rea": 5779,
      "Ġfran": 5780,
      "Ġembora": 5781,
      "ĠMon": 5782,
      "riam": 5783,
      "ĠFranÃ§a": 5784,
      "Ġcompos": 5785,
      "Ġinstal": 5786,
      "ĠindÃºstria": 5787,
      "trÃ³": 5788,
      "Ġluta": 5789,
      "frica": 5790,
      "Ġanalisa": 5791,
      "ĠdeclaraÃ§Ãµes": 5792,
      "Ġtrazer": 5793,
      "Ġdiminuir": 5794,
      "Ġtivesse": 5795,
      "Ġvincul": 5796,
      "ĠincidÃªncia": 5797,
      "ocantins": 5798,
      "ĠCris": 5799,
      "Ġgl": 5800,
      "ĠMal": 5801,
      "ĠBal": 5802,
      "Ġinfluen": 5803,
      "Ġinformar": 5804,
      "Ġassal": 5805,
      "ĠLucia": 5806,
      "ĠAssista": 5807,
      "logista": 5808,
      "Ġincentiv": 5809,
      "Ġfiguras": 5810,
      "Ġarroz": 5811,
      "54": 5812,
      "ĠpÃ©": 5813,
      "tom": 5814,
      "Ġgar": 5815,
      "ĠNÂº": 5816,
      "nea": 5817,
      "ulado": 5818,
      "ĠExiste": 5819,
      "Ġproduzir": 5820,
      "ĠbilhÃ£o": 5821,
      "Ġox": 5822,
      "cife": 5823,
      "ĠmanhÃ£": 5824,
      "Ġpsic": 5825,
      "Ġinfraestrutura": 5826,
      "ĠhipÃ³": 5827,
      "OC": 5828,
      "agens": 5829,
      "ĠaÃ©re": 5830,
      "ĠPia": 5831,
      "Ġconduz": 5832,
      "Ġpers": 5833,
      "Ġessenciais": 5834,
      "ĠCalma": 5835,
      "Ã³digo": 5836,
      "Ġdemo": 5837,
      "Ġacolhimento": 5838,
      "ĠEstÃ¡": 5839,
      "Ġentrou": 5840,
      "Ġvivem": 5841,
      "Ġdiretora": 5842,
      "Ġrelacionado": 5843,
      "ĠCamp": 5844,
      "Ġespeci": 5845,
      "ĠclÃŃnico": 5846,
      "02": 5847,
      "tinho": 5848,
      "Ã©rios": 5849,
      "Ġreto": 5850,
      "Ġportanto": 5851,
      "Ġdescobriu": 5852,
      "ĠForÃ§as": 5853,
      "ĠanÃºncios": 5854,
      "Ġconjun": 5855,
      "Ġindepend": 5856,
      ",\\": 5857,
      "Ġcob": 5858,
      "ĠPÃº": 5859,
      "ĠNenh": 5860,
      "itam": 5861,
      "Ġresta": 5862,
      "Ġadver": 5863,
      "Ġindiv": 5864,
      "Ġanimal": 5865,
      "Ġfrase": 5866,
      "Cola": 5867,
      "Ġcima": 5868,
      "ĠAB": 5869,
      "ĠCH": 5870,
      "Ġgel": 5871,
      "vite": 5872,
      "Ġjusti": 5873,
      "Ġontem": 5874,
      "Ġconsiderada": 5875,
      "ĠrespiratÃ³rias": 5876,
      "ĠFerreira": 5877,
      "Ġemergen": 5878,
      "Ġhepatite": 5879,
      "kdown": 5880,
      "fÃ©": 5881,
      "ĠRN": 5882,
      "ĠUnido": 5883,
      "Ġdefen": 5884,
      "Ġexerc": 5885,
      "Ġapreen": 5886,
      "Ġmec": 5887,
      "ĠconclusÃ£o": 5888,
      "ĠMensa": 5889,
      "Ã¢nsito": 5890,
      "ĠReino": 5891,
      "ĠEstaduais": 5892,
      "Ġsupermer": 5893,
      "Ġtomada": 5894,
      "Ġretirada": 5895,
      "ĠFÃ¡bio": 5896,
      "ĠmÃ³": 5897,
      "teira": 5898,
      "Ġabaste": 5899,
      "Ġcitados": 5900,
      "Ġdestacar": 5901,
      "Ġfins": 5902,
      "Ġgravidade": 5903,
      "Ġagrade": 5904,
      "ĠAlemanha": 5905,
      "Ġdecreto": 5906,
      "ĠIndividual": 5907,
      "IZ": 5908,
      "Para": 5909,
      "Ġesqu": 5910,
      "Ġcong": 5911,
      "ĠMus": 5912,
      "Ġresga": 5913,
      "ĠHora": 5914,
      "Ġchu": 5915,
      "bilizar": 5916,
      "Ġbanco": 5917,
      "Ġhumana": 5918,
      "Ġsaiba": 5919,
      "ĠSalvador": 5920,
      "Ġcoordenadora": 5921,
      "Ġintuito": 5922,
      "Ġradioterapia": 5923,
      "DES": 5924,
      "Ġendere": 5925,
      "Ġmani": 5926,
      "Ġdireto": 5927,
      "elhos": 5928,
      "ĠsoluÃ§Ã£o": 5929,
      "Ġenfrentar": 5930,
      "ĠArmadas": 5931,
      "Ġopin": 5932,
      "ĠesforÃ§os": 5933,
      "De": 5934,
      "ĠFar": 5935,
      "ĠcontÃŃnu": 5936,
      "Ġvoltadas": 5937,
      "Ġerrada": 5938,
      "Ġolho": 5939,
      "ĠInfluenza": 5940,
      "ĠveÃŃculo": 5941,
      "ĠlanÃ§amento": 5942,
      "tureza": 5943,
      "cola": 5944,
      "pto": 5945,
      "inares": 5946,
      "redo": 5947,
      "tegra": 5948,
      "Ġfla": 5949,
      "ile": 5950,
      "ĠThe": 5951,
      "ĠEstamos": 5952,
      "Ġperten": 5953,
      "Ġ42": 5954,
      "Ġdeveria": 5955,
      "ĠAlagoas": 5956,
      "OM": 5957,
      "ĠPra": 5958,
      "Ġpropri": 5959,
      "Ġluz": 5960,
      "ĠbebÃªs": 5961,
      "Ġgravou": 5962,
      "ĠmÃ©todo": 5963,
      "01": 5964,
      "una": 5965,
      "Ġpat": 5966,
      "ĠEspe": 5967,
      "ĠAlgu": 5968,
      "ARS": 5969,
      "ĠMuito": 5970,
      "ĠTocantins": 5971,
      "Ġdivulgada": 5972,
      "ĠestratÃ©gico": 5973,
      "Ġincluem": 5974,
      "Ġtrecho": 5975,
      "Ġarmaz": 5976,
      "Ġchances": 5977,
      "our": 5978,
      "Ġimpactos": 5979,
      "62": 5980,
      "bÃ¡": 5981,
      "Ġx": 5982,
      "ĠContro": 5983,
      "Ġpedidos": 5984,
      "ĠtrÃ¡s": 5985,
      "Ġacontecendo": 5986,
      "rinci": 5987,
      "igual": 5988,
      "ĠLogo": 5989,
      "ĠsoluÃ§Ãµes": 5990,
      "ĠFil": 5991,
      "ĠLabora": 5992,
      "Ġinfar": 5993,
      "Ġmetodo": 5994,
      "doria": 5995,
      "Ġchoc": 5996,
      "Ġaparecem": 5997,
      "Ġescrevemos": 5998,
      "BI": 5999,
      "Ġsac": 6000,
      "Ġfas": 6001,
      "timos": 6002,
      "Ġnatureza": 6003,
      "ĠLocal": 6004,
      "ĠPaz": 6005,
      "Ġhaja": 6006,
      "Em": 6007,
      "NÃ£o": 6008,
      "ki": 6009,
      "Ġgos": 6010,
      "ĠBase": 6011,
      "Ġprol": 6012,
      "Ġprefeitura": 6013,
      "ĠInÃ¡cio": 6014,
      "Ġassuntos": 6015,
      "Ġ55": 6016,
      "Ġfilme": 6017,
      "ĠvisÃ£o": 6018,
      "Ġdivulgar": 6019,
      "Ġcausando": 6020,
      "DI": 6021,
      "Ġdicas": 6022,
      "Ġdescre": 6023,
      "Ġenvio": 6024,
      "Ġtermo": 6025,
      "ĠHar": 6026,
      "Ġprimeiras": 6027,
      "Ġchegada": 6028,
      "Ġsitua": 6029,
      "ĠetÃ¡ria": 6030,
      "ĠpopulaÃ§Ãµes": 6031,
      "ĠHabilitado": 6032,
      "yp": 6033,
      "Ġnove": 6034,
      "ĠMi": 6035,
      "Ġ32": 6036,
      "Ġcontatos": 6037,
      "Ġ44": 6038,
      "ĠEnfer": 6039,
      "Ġdizendo": 6040,
      "ĠOutros": 6041,
      "Ġprioridade": 6042,
      "Ġ2745": 6043,
      "Ġoftalm": 6044,
      "Ġliberdade": 6045,
      "Ã©dito": 6046,
      "GO": 6047,
      "NT": 6048,
      "UF": 6049,
      "inel": 6050,
      "Ġdoa": 6051,
      "rige": 6052,
      "social": 6053,
      "izonte": 6054,
      "tur": 6055,
      "ĠDis": 6056,
      "Ġaper": 6057,
      "Ġjur": 6058,
      "Ġcasas": 6059,
      "Ġcertifica": 6060,
      "ĠrelatÃ³rio": 6061,
      "ĠrecÃ©m": 6062,
      "ĠMundo": 6063,
      "Ġganha": 6064,
      "ĠFortale": 6065,
      "Ġdesempenho": 6066,
      "teiro": 6067,
      "ĠAedes": 6068,
      "Ġclima": 6069,
      "ĠRecife": 6070,
      "Ġlevou": 6071,
      "ĠdecisÃµes": 6072,
      "Ġapostas": 6073,
      "ĠPedro": 6074,
      "Ġvig": 6075,
      "ĠAf": 6076,
      "Ġexec": 6077,
      "Ġpreen": 6078,
      "natal": 6079,
      "ĠchÃ¡": 6080,
      "Ġlockdown": 6081,
      "Ġsupostos": 6082,
      "Ġtreina": 6083,
      "ĠfenÃ´men": 6084,
      "ĠcidadÃ£os": 6085,
      "Ġopen": 6086,
      "arou": 6087,
      "ĠBelo": 6088,
      "Ġdipl": 6089,
      "Ġenven": 6090,
      "Ġamor": 6091,
      "enhor": 6092,
      "Ġ72": 6093,
      "Ġlotes": 6094,
      "Ġdigitais": 6095,
      "ĠdÃºvida": 6096,
      "Ġcombust": 6097,
      "ĠDaniel": 6098,
      "ĠSupremo": 6099,
      "Fec": 6100,
      "gios": 6101,
      "Ġinva": 6102,
      "ĠNicol": 6103,
      "Ġsofr": 6104,
      "Ġtab": 6105,
      "Ġsuspeitas": 6106,
      "ĠintenÃ§Ã£o": 6107,
      "Ġabsol": 6108,
      "ĠespÃ©": 6109,
      "Ġimaginar": 6110,
      "Ġmovimentos": 6111,
      "460": 6112,
      "DSEI": 6113,
      "Ġacha": 6114,
      "edpios": 6115,
      "Ġmenino": 6116,
      "pidemia": 6117,
      "ĠMinistro": 6118,
      "ĠMadu": 6119,
      "Ġclassifica": 6120,
      "600": 6121,
      "GE": 6122,
      "Ġvista": 6123,
      "Ġbran": 6124,
      "Ġalinha": 6125,
      "Ġorto": 6126,
      "ĠaprovaÃ§Ã£o": 6127,
      "Ġescolh": 6128,
      "Ġcrimes": 6129,
      "Ġrecorrente": 6130,
      "Ġestudantes": 6131,
      "era": 6132,
      "Ġquente": 6133,
      "ĠEpidem": 6134,
      "ĠUNA": 6135,
      "avar": 6136,
      "essores": 6137,
      "Ġdireta": 6138,
      "brica": 6139,
      "chos": 6140,
      "Ġbeber": 6141,
      "ĠCoronavÃŃrus": 6142,
      "Ġadequada": 6143,
      "Ġlevantamento": 6144,
      "Ġenganar": 6145,
      "Ġrecebido": 6146,
      "Ġdesapare": 6147,
      "FA": 6148,
      "ones": 6149,
      "ĠSerg": 6150,
      "eios": 6151,
      "Ġapu": 6152,
      "ĠFA": 6153,
      "ĠVigil": 6154,
      "Ġdivulgou": 6155,
      "ĠgrÃ¡tis": 6156,
      "RS": 6157,
      "ema": 6158,
      "ork": 6159,
      "Ġnum": 6160,
      "Ġfarm": 6161,
      "Ġconcor": 6162,
      "Ã³polis": 6163,
      "ĠBoa": 6164,
      "Ġmomentos": 6165,
      "fablico": 6166,
      "Ġtenho": 6167,
      "Ġviralizando": 6168,
      "Ġlegis": 6169,
      "Ġamplamente": 6170,
      "Ġfuma": 6171,
      "Ġvelho": 6172,
      "emin": 6173,
      "Ġdesl": 6174,
      "ĠDNA": 6175,
      "Ġsoma": 6176,
      "Ġescri": 6177,
      "Ġavis": 6178,
      "Ġcaminho": 6179,
      "Ġapresentados": 6180,
      "Ġconfirmar": 6181,
      "Ġprovavelmente": 6182,
      "Ġlimita": 6183,
      "ĠBruno": 6184,
      "96": 6185,
      "PN": 6186,
      "ĠquÃŃm": 6187,
      "Ġvice": 6188,
      "ritiba": 6189,
      "ĠSMS": 6190,
      "Ãºne": 6191,
      "Ġportal": 6192,
      "Ġantivac": 6193,
      "ĠItÃ¡lia": 6194,
      "Ġmodal": 6195,
      "Ġorientar": 6196,
      "Ġafirmar": 6197,
      "Ġcontinuidade": 6198,
      "Ġadministra": 6199,
      "Ġprotocolo": 6200,
      "Ġshow": 6201,
      "BO": 6202,
      "Por": 6203,
      "Pro": 6204,
      "UBS": 6205,
      "Ġaids": 6206,
      "Ġdepara": 6207,
      "ĠEPI": 6208,
      "Ġhemo": 6209,
      "ĠFel": 6210,
      "Ġench": 6211,
      "2013": 6212,
      "Ġampliando": 6213,
      "cidentes": 6214,
      "Ġdescobrir": 6215,
      "Ġmilitares": 6216,
      "Ġcolaterais": 6217,
      "73": 6218,
      "irem": 6219,
      "enos": 6220,
      "asse": 6221,
      "Ġhem": 6222,
      "hora": 6223,
      "item": 6224,
      "ĠCampos": 6225,
      "tizaÃ§Ã£o": 6226,
      "Ġdificuldades": 6227,
      "ĠÃŃnd": 6228,
      "Ġprejud": 6229,
      "Ġconversa": 6230,
      "VO": 6231,
      "\\\",": 6232,
      "nomia": 6233,
      "Ġsor": 6234,
      "ÃŃram": 6235,
      "Ġcompre": 6236,
      "Ġvive": 6237,
      "Ġequipa": 6238,
      "ĠatribuÃŃda": 6239,
      "Ġautonomia": 6240,
      "ĠlaboratÃ³rios": 6241,
      "Ġgeralmente": 6242,
      "ĠseleÃ§Ã£o": 6243,
      "discipl": 6244,
      "Fechar": 6245,
      "ento": 6246,
      "ĠâĢĿ": 6247,
      "Ġassis": 6248,
      "Ġcargo": 6249,
      "Ġgratuitamente": 6250,
      "Ġboas": 6251,
      "Ġarquivo": 6252,
      "Ġtemperatura": 6253,
      "rincipal": 6254,
      "Ġdeba": 6255,
      "Ġpadre": 6256,
      "Ġcampo": 6257,
      "Ġincr": 6258,
      "ĠchinÃªs": 6259,
      "Ġtantos": 6260,
      "Ġrepassados": 6261,
      "Ġestiver": 6262,
      "Ã©rgio": 6263,
      "zer": 6264,
      "tein": 6265,
      "ripe": 6266,
      "ĠSou": 6267,
      "ĠON": 6268,
      "ĠVa": 6269,
      "Ġ57": 6270,
      "ĠmÃ©dicas": 6271,
      "Ġafirmando": 6272,
      "Ġexplo": 6273,
      "ĠResol": 6274,
      "miss": 6275,
      "Ġespalha": 6276,
      "Ġcapitais": 6277,
      "Ġroubar": 6278,
      "Ġbancos": 6279,
      "440": 6280,
      "tista": 6281,
      "estar": 6282,
      "reia": 6283,
      "Ġembal": 6284,
      "olas": 6285,
      "Ġterapia": 6286,
      "Ġdesigual": 6287,
      "Ġcomprovada": 6288,
      "ĠbactÃ©ria": 6289,
      "ental": 6290,
      "andes": 6291,
      "ĠSÃ©rgio": 6292,
      "olha": 6293,
      "ĠVol": 6294,
      "Ġregistra": 6295,
      "ĠnecessÃ¡rios": 6296,
      "Ġdescoberta": 6297,
      "triz": 6298,
      "Ġjogos": 6299,
      "Ġarrow": 6300,
      "dim": 6301,
      "Ġhabil": 6302,
      "Ġgo": 6303,
      "Ġexterior": 6304,
      "Ġcurios": 6305,
      "Ġmanip": 6306,
      "Ġ95": 6307,
      "ĠocorrÃªncia": 6308,
      "Ġviagem": 6309,
      "Ġlugares": 6310,
      "ĠPessoa": 6311,
      "ĠHorizonte": 6312,
      "dente": 6313,
      "xas": 6314,
      "Ġmudar": 6315,
      "Ġdiariamente": 6316,
      "Ġmorto": 6317,
      "ĠgravaÃ§Ã£o": 6318,
      "Ãªnero": 6319,
      "Ġluvas": 6320,
      "Ã¡lises": 6321,
      "Ġindicam": 6322,
      "Ġsurtos": 6323,
      "ĠPrefeitura": 6324,
      "ĠInfec": 6325,
      "ĠCuritiba": 6326,
      "Ġpermanece": 6327,
      "Ġterceiro": 6328,
      "Ġtestagem": 6329,
      "Ġespanh": 6330,
      "Ġconscienti": 6331,
      "ĠodontolÃ³g": 6332,
      "ical": 6333,
      "ĠGru": 6334,
      "icossocial": 6335,
      "Ġvirais": 6336,
      "Ġcontinuam": 6337,
      "valente": 6338,
      "egyp": 6339,
      "ĠinscriÃ§Ãµes": 6340,
      "egypti": 6341,
      "ITA": 6342,
      "ĠinclusÃ£o": 6343,
      "Ġsede": 6344,
      "ĠMich": 6345,
      "Ġbl": 6346,
      "ĠDom": 6347,
      "cura": 6348,
      "ĠPorque": 6349,
      "Ġamigo": 6350,
      "Ġtrabalhando": 6351,
      "ĠnecessÃ¡ria": 6352,
      "missÃ£o": 6353,
      "Ġaplicadas": 6354,
      "ĠMuitas": 6355,
      "ĠMilitar": 6356,
      "ĠPiauÃŃ": 6357,
      "DC": 6358,
      "EPI": 6359,
      "Ġgin": 6360,
      "Ġenorme": 6361,
      "Ġfalam": 6362,
      "culares": 6363,
      "Ġmutir": 6364,
      "Ġequivoca": 6365,
      "ĠForÃ§a": 6366,
      "ecutivo": 6367,
      "Ġanteci": 6368,
      "ef": 6369,
      "gico": 6370,
      "Ġevent": 6371,
      "ĠCAS": 6372,
      "Ġparalis": 6373,
      "ĠMag": 6374,
      "saude": 6375,
      "tana": 6376,
      "ogle": 6377,
      "ĠAndr": 6378,
      "Ġmaterno": 6379,
      "profission": 6380,
      "Ġdeclarou": 6381,
      "Ġhigiene": 6382,
      "PC": 6383,
      "nar": 6384,
      "Ġpena": 6385,
      "gueira": 6386,
      "Ġpodendo": 6387,
      "ĠGar": 6388,
      "Ġmanda": 6389,
      "Ġutilizadas": 6390,
      "ĠEST": 6391,
      "ĠMater": 6392,
      "olÃ³gicas": 6393,
      "Ġresolveu": 6394,
      "Ġnormalmente": 6395,
      "Ġcandidatos": 6396,
      "ĠDigital": 6397,
      "ĠexecuÃ§Ã£o": 6398,
      "Tok": 6399,
      "sidade": 6400,
      "ĠpÃ³s": 6401,
      "ĠTemos": 6402,
      "Ġdificuldade": 6403,
      "med": 6404,
      "tendo": 6405,
      "eco": 6406,
      "ĠmenÃ§Ã£o": 6407,
      "ĠJunto": 6408,
      "ĠHel": 6409,
      "ĠministÃ©rio": 6410,
      "Ġrespondendo": 6411,
      "anoma": 6412,
      "ĠCoronav": 6413,
      "Ġestoque": 6414,
      "ĠemergÃªncias": 6415,
      "ĠTikTok": 6416,
      "Ġcra": 6417,
      "Ġepidemia": 6418,
      "Ġinje": 6419,
      "ĠTim": 6420,
      "ĠJornal": 6421,
      "Ġministra": 6422,
      "Ġimunidade": 6423,
      "ÃĩA": 6424,
      "Ġgestor": 6425,
      "Ġrespei": 6426,
      "Ġprocessa": 6427,
      "ĠCNN": 6428,
      "Ġpropaganda": 6429,
      "Ġbloque": 6430,
      "ĠMaduro": 6431,
      "hing": 6432,
      "lla": 6433,
      "Ã¡lia": 6434,
      "Ġespi": 6435,
      "Ġconven": 6436,
      "ĠBer": 6437,
      "tugal": 6438,
      "ĠanÃ¡lises": 6439,
      "ĠImp": 6440,
      "ĠGen": 6441,
      "Ġalimento": 6442,
      "ĠLuÃŃs": 6443,
      "ĠAssistÃªncia": 6444,
      "Ġdesconhe": 6445,
      "Ġculpa": 6446,
      "ĠAlegre": 6447,
      "ĠexpansÃ£o": 6448,
      "ĠimplantaÃ§Ã£o": 6449,
      "Ġcomportamento": 6450,
      "GA": 6451,
      "zinho": 6452,
      "Ġaegypti": 6453,
      "Ġfrio": 6454,
      "Ã¡logo": 6455,
      "Ġtum": 6456,
      "ĠLima": 6457,
      "Ġcausadas": 6458,
      "cionada": 6459,
      "Ġinteiro": 6460,
      "Ġcomunit": 6461,
      "Ġrecupera": 6462,
      "ĠprÃ³prios": 6463,
      "Ġpolicial": 6464,
      "teriormente": 6465,
      "Ġacredita": 6466,
      "ielite": 6467,
      "Ġmilagros": 6468,
      "ĠpediÃ¡": 6469,
      "tÃŃcia": 6470,
      "dad": 6471,
      "ĠNi": 6472,
      "Ġexcesso": 6473,
      "Ġpreten": 6474,
      "ĠtrÃ¡": 6475,
      "Ġchegando": 6476,
      "Ġinvestiga": 6477,
      "Ġpreval": 6478,
      "ĠKa": 6479,
      "micron": 6480,
      "ĠsuspensÃ£o": 6481,
      "Ġdono": 6482,
      "ĠreÃºne": 6483,
      "Ġcontin": 6484,
      "ĠfunÃ§Ã£o": 6485,
      "Ġimuno": 6486,
      "Ġaprovada": 6487,
      "Ġaplicada": 6488,
      "Ġpoucos": 6489,
      "Ġrefle": 6490,
      "Ġdestinado": 6491,
      "ĠÃģfrica": 6492,
      "Ġocorreram": 6493,
      "Ġmelhora": 6494,
      "Ġambul": 6495,
      "ĠLiv": 6496,
      "Ġigre": 6497,
      "Ġirreg": 6498,
      "Ġjogador": 6499,
      "Ġnegacionistas": 6500,
      "ĠPutin": 6501,
      "rica": 6502,
      "Ġconspira": 6503,
      "ĠParaÃŃba": 6504,
      "ĠReal": 6505,
      "Ġgovernos": 6506,
      "Ġfechar": 6507,
      "ĠGoogle": 6508,
      "Ġperceb": 6509,
      "ĠlanÃ§ado": 6510,
      "ĠepidemiolÃ³gica": 6511,
      "ĠBelÃ©m": 6512,
      "cA": 6513,
      "cher": 6514,
      "vou": 6515,
      "oses": 6516,
      "deram": 6517,
      "Ġdou": 6518,
      "ĠnotificaÃ§Ã£o": 6519,
      "Ġgela": 6520,
      "Ġbio": 6521,
      "Ġeng": 6522,
      "Ġton": 6523,
      "Ġfale": 6524,
      "Ġinterrom": 6525,
      "Ġargu": 6526,
      "Ġassass": 6527,
      "ĠCoor": 6528,
      "Ġ46": 6529,
      "Ġformal": 6530,
      "Ġpegar": 6531,
      "Ġfilan": 6532,
      "ĠnotificaÃ§Ãµes": 6533,
      "ĠfarmacÃªutica": 6534,
      "%).": 6535,
      "79": 6536,
      "tulos": 6537,
      "ucas": 6538,
      "ĠMÃ©": 6539,
      "ĠMoro": 6540,
      "ĠBon": 6541,
      "diÃ§Ã£o": 6542,
      "graf": 6543,
      "Ġpresiden": 6544,
      "ĠhÃ¡bitos": 6545,
      "Ġcripto": 6546,
      "Ġlote": 6547,
      "ĠCristo": 6548,
      "cd": 6549,
      "gica": 6550,
      "ois": 6551,
      "Ġnor": 6552,
      "ĠSRAG": 6553,
      "ĠDesta": 6554,
      "Ġalterna": 6555,
      "omielite": 6556,
      "ĠTar": 6557,
      "Ġcorrente": 6558,
      "Ġescala": 6559,
      "Ġgarantia": 6560,
      "Ġdetalha": 6561,
      "abilitaÃ§Ã£o": 6562,
      "Ġcoordenador": 6563,
      "**": 6564,
      "GU": 6565,
      "tebol": 6566,
      "ĠSER": 6567,
      "Ġbra": 6568,
      "Ġbreve": 6569,
      "Ġlic": 6570,
      "ĠUBS": 6571,
      "avam": 6572,
      "Ġcarros": 6573,
      "Ġagres": 6574,
      "ĠLatina": 6575,
      "Ġdemandas": 6576,
      "ĠcomparaÃ§Ã£o": 6577,
      "Ġamostras": 6578,
      "ĠfenÃ´meno": 6579,
      "bola": 6580,
      "Ġmus": 6581,
      "Ã¡r": 6582,
      "ĠBl": 6583,
      "ĠporÃ©m": 6584,
      "ĠTele": 6585,
      "Ġgerado": 6586,
      "Ġprocura": 6587,
      "Ġexplicamos": 6588,
      "eropor": 6589,
      "Ġsolicitar": 6590,
      "Ġimediata": 6591,
      "ĠeletrÃ´nico": 6592,
      "Ġinfluencia": 6593,
      "rincipalmente": 6594,
      "Ġmis": 6595,
      "Ġemisso": 6596,
      "ĠbiolÃ³g": 6597,
      "tuais": 6598,
      "Ãµe": 6599,
      "ĠÃĵ": 6600,
      "Ġexpres": 6601,
      "Ġentregas": 6602,
      "Ġ49": 6603,
      "Ġcerim": 6604,
      "Ġprotege": 6605,
      "ministro": 6606,
      "Ġtrechos": 6607,
      "ĠÃŃntegra": 6608,
      "Ġreforma": 6609,
      "ĠEr": 6610,
      "ĠEconÃ´m": 6611,
      "ĠBR": 6612,
      "guai": 6613,
      "ĠGM": 6614,
      "ĠPortugal": 6615,
      "Ġabando": 6616,
      "ĠAnt": 6617,
      "Ġcereb": 6618,
      "Ġacompanhado": 6619,
      "Ġquerem": 6620,
      "filia": 6621,
      "ĠreforÃ§ando": 6622,
      "ĠdeverÃ£o": 6623,
      "ĠsubstÃ¢ncias": 6624,
      "Ġequidade": 6625,
      "ĠRodrigo": 6626,
      "ĠControle": 6627,
      "32": 6628,
      "36": 6629,
      "Ġ!": 6630,
      "Ġaberto": 6631,
      "ĠsÃŃndrome": 6632,
      "Ġcomem": 6633,
      "timo": 6634,
      "ĠAgu": 6635,
      "ÃŃpios": 6636,
      "ĠSÃŃndrome": 6637,
      "Ġrequis": 6638,
      "ĠFac": 6639,
      "orge": 6640,
      "ficando": 6641,
      "Ġleves": 6642,
      "ĠcitaÃ§Ã£o": 6643,
      "Ġapresentaram": 6644,
      "ĠautorizaÃ§Ã£o": 6645,
      "Ġconsiderando": 6646,
      "Ġenfermeira": 6647,
      "ĠfrequÃªncia": 6648,
      "Ġdepende": 6649,
      "Ġquil": 6650,
      "Ġfos": 6651,
      "Ġparla": 6652,
      "ĠpeÃ§a": 6653,
      "ĠÃ³culos": 6654,
      "Ġencontrada": 6655,
      "Ġ150": 6656,
      "IST": 6657,
      "Ġfinanceira": 6658,
      "Ġgovernadores": 6659,
      "Ġocupa": 6660,
      "ĠSor": 6661,
      "ĠSARS": 6662,
      "Ġconden": 6663,
      "ĠBran": 6664,
      "ĠDiante": 6665,
      "Ġenf": 6666,
      "ĠPortal": 6667,
      "Ġficamos": 6668,
      "ĠArti": 6669,
      "Ġfabric": 6670,
      "Ġabertas": 6671,
      "ĠindivÃŃdu": 6672,
      "Ġnuma": 6673,
      "Ġserve": 6674,
      "Ġtrag": 6675,
      "ĠConstitu": 6676,
      "turais": 6677,
      "Ġdireita": 6678,
      "Ġcanc": 6679,
      "ĠRespira": 6680,
      "Ġgratuito": 6681,
      "Ã³rm": 6682,
      "Ġcolabora": 6683,
      "Ġcelebri": 6684,
      "ĠFortaleza": 6685,
      "DAS": 6686,
      "\\\"": 6687,
      "edas": 6688,
      "Ġacidentes": 6689,
      "Ġpun": 6690,
      "ers": 6691,
      "ĠsÃ©rio": 6692,
      "quÃ©": 6693,
      "Ġcomida": 6694,
      "ĠTanto": 6695,
      "Ġfalado": 6696,
      "Ġviu": 6697,
      "Ġ400": 6698,
      "Ġsofreu": 6699,
      "ĠavanÃ§os": 6700,
      "zheimer": 6701,
      "Ġemergencial": 6702,
      "LO": 6703,
      "atÃ©": 6704,
      "lome": 6705,
      "ĠRosa": 6706,
      "sibilidade": 6707,
      "Ġ53": 6708,
      "Ġobra": 6709,
      "ford": 6710,
      "ĠutilizaÃ§Ã£o": 6711,
      "ENÃĩÃĥO": 6712,
      "Ġroteiro": 6713,
      "Ġfact": 6714,
      "Ġtantas": 6715,
      "Ġanticor": 6716,
      "ĠtransparÃªncia": 6717,
      "72": 6718,
      "LA": 6719,
      "ph": 6720,
      "Ġpio": 6721,
      "Ġreaf": 6722,
      "teses": 6723,
      "pias": 6724,
      "Ġ600": 6725,
      "Ġpesquisador": 6726,
      "ĠcalendÃ¡rio": 6727,
      "Ġenviado": 6728,
      "Ġprotesto": 6729,
      "Ġsujeito": 6730,
      "Ġrus": 6731,
      "Ġconter": 6732,
      "ĠCR": 6733,
      "ĠJul": 6734,
      "metros": 6735,
      "Ġinser": 6736,
      "ĠtransferÃªncia": 6737,
      "Ġadvo": 6738,
      "Ġanunciado": 6739,
      "Ġencontrou": 6740,
      "Ġoncologia": 6741,
      "ĠMUNIC": 6742,
      "ĠAcesse": 6743,
      "Ġcomputador": 6744,
      "ĠPÃºblico": 6745,
      "ĠUNACON": 6746,
      "Ġfesta": 6747,
      "tuaÃ§Ã£o": 6748,
      "ĠRela": 6749,
      "essora": 6750,
      "Ġmortal": 6751,
      "Ġestrat": 6752,
      "Ġreceita": 6753,
      "Ġprevistas": 6754,
      "Ġdemoc": 6755,
      "ĠpolÃªmica": 6756,
      "Ġinfarto": 6757,
      "bos": 6758,
      "zar": 6759,
      "Ġmel": 6760,
      "ĠPen": 6761,
      "Ġproib": 6762,
      "ecking": 6763,
      "Ġacei": 6764,
      "ĠLÃ¡": 6765,
      "Ġvolume": 6766,
      "Ġerrado": 6767,
      "Ġaparecer": 6768,
      "EMB": 6769,
      "ĠYork": 6770,
      "Ġbair": 6771,
      "Ġestranho": 6772,
      "ĠFrei": 6773,
      "Ġcerveja": 6774,
      "85": 6775,
      "Ġemb": 6776,
      "ĠCPF": 6777,
      "olina": 6778,
      "Ã©dia": 6779,
      "Ġtriste": 6780,
      "lexo": 6781,
      "ĠSerÃ¡": 6782,
      "Ġrefrige": 6783,
      "Ã©lio": 6784,
      "Ġprovoca": 6785,
      "Ġcardiovas": 6786,
      "Ġinfer": 6787,
      "Ġperdeu": 6788,
      "Ġfortes": 6789,
      "Ġvoltado": 6790,
      "Ġfila": 6791,
      "Ġdesenvolvido": 6792,
      "Ġsuspeito": 6793,
      "bÃ©ns": 6794,
      "Ġrestau": 6795,
      "ĠCoronavac": 6796,
      "Ġfilantr": 6797,
      "vamos": 6798,
      "ord": 6799,
      "ĠPB": 6800,
      "ĠDen": 6801,
      "ĠAlguns": 6802,
      "ĠOutras": 6803,
      "boraÃ§Ã£o": 6804,
      "ĠalegaÃ§Ãµes": 6805,
      "Ġrespirat": 6806,
      "Ġurb": 6807,
      "Ã©rebro": 6808,
      "Ġfruto": 6809,
      "Ġconferir": 6810,
      "ĠAÃŃ": 6811,
      "Ġnaqu": 6812,
      "Ġsuic": 6813,
      "ioterapia": 6814,
      "Ġprem": 6815,
      "ĠprÃ³ximas": 6816,
      "ĠAmapÃ¡": 6817,
      "Ġfigura": 6818,
      "ĠCanad": 6819,
      "ĠRodrigues": 6820,
      "Ġchecar": 6821,
      "ismos": 6822,
      "ÃŃpio": 6823,
      "Ġinves": 6824,
      "ĠPos": 6825,
      "omem": 6826,
      "Ġpago": 6827,
      "Ġfator": 6828,
      "Ġseguran": 6829,
      "Ġ800": 6830,
      "ĠcomeÃ§am": 6831,
      "ĠSudeste": 6832,
      "Ġabrir": 6833,
      "Ãºncias": 6834,
      "ĠSergipe": 6835,
      "Ġ+": 6836,
      "ĠAca": 6837,
      "Ġacres": 6838,
      "ĠVas": 6839,
      "Ġpartes": 6840,
      "Ġcausam": 6841,
      "Ġsubme": 6842,
      "Ġtornar": 6843,
      "Ġsimplesmente": 6844,
      "ĠAmazÃ´nia": 6845,
      "Ġfrequentemente": 6846,
      "Ġturno": 6847,
      "Ġaparelho": 6848,
      "ĠSenado": 6849,
      "ĠEuropa": 6850,
      "Di": 6851,
      "HO": 6852,
      "IP": 6853,
      "Ã§u": 6854,
      "Ġfemin": 6855,
      "Ġcomemo": 6856,
      "Ġinvas": 6857,
      "Ġdeses": 6858,
      "omas": 6859,
      "gocia": 6860,
      "edlia": 6861,
      "ĠInformaÃ§Ã£o": 6862,
      "ĠWu": 6863,
      "ĠAlzheimer": 6864,
      "Ġdizem": 6865,
      "Ġalertou": 6866,
      "Ġesteve": 6867,
      "Ġcontrola": 6868,
      "Ġzika": 6869,
      "Ġlivro": 6870,
      "ĠespecÃŃfico": 6871,
      "ĠsaudÃ¡veis": 6872,
      "Ġbloqu": 6873,
      "edodo": 6874,
      "uzio": 6875,
      "pr": 6876,
      "rata": 6877,
      "teu": 6878,
      "ĠAus": 6879,
      "ĠgÃªnero": 6880,
      "ĠRond": 6881,
      "ĠFab": 6882,
      "Ġpauta": 6883,
      "Ġterra": 6884,
      "ĠInclusive": 6885,
      "troc": 6886,
      "ĠsalÃ¡rio": 6887,
      "Ġbasta": 6888,
      "Ġhaviam": 6889,
      "ĠreceberÃ£o": 6890,
      "Ġpermanente": 6891,
      "ĠOlha": 6892,
      "ĠendereÃ§o": 6893,
      "ĠcÃ©rebro": 6894,
      "rota": 6895,
      "Ġdoentes": 6896,
      "ĠreaÃ§Ã£o": 6897,
      "ĠÃĶ": 6898,
      "Ġcair": 6899,
      "Ġregional": 6900,
      "eza": 6901,
      "nima": 6902,
      "Ġafirmam": 6903,
      "Ġusam": 6904,
      "ĠNey": 6905,
      "ĠclÃŃnicas": 6906,
      "Ġchineses": 6907,
      "Ġambientes": 6908,
      "aa": 6909,
      "ep": 6910,
      "hem": 6911,
      "anta": 6912,
      "ĠAt": 6913,
      "Ġher": 6914,
      "usto": 6915,
      "Ġapelo": 6916,
      "gamento": 6917,
      "ĠrazÃ£o": 6918,
      "LE": 6919,
      "Ġ@": 6920,
      "oss": 6921,
      "ĠSch": 6922,
      "ĠCAM": 6923,
      "checking": 6924,
      "Ã©rcio": 6925,
      "Ġescolha": 6926,
      "Ġintensa": 6927,
      "ĠINCR": 6928,
      "Ġatrair": 6929,
      "Ġdefini": 6930,
      "Ġverifica": 6931,
      "ĠeliminaÃ§Ã£o": 6932,
      "Ġfrutas": 6933,
      "ĠFundo": 6934,
      "ĠmanipulaÃ§Ã£o": 6935,
      "enÃ§o": 6936,
      "Ġconvida": 6937,
      "ĠNÃ³s": 6938,
      "vaÃ§Ãµes": 6939,
      "Ġtempor": 6940,
      "ĠHu": 6941,
      "2019": 6942,
      "ĠPaÃŃs": 6943,
      "Ġaglome": 6944,
      "ionais": 6945,
      "Ġrecomendado": 6946,
      "Ġaumentou": 6947,
      "ĠCuba": 6948,
      "Ġalcance": 6949,
      "Ġestoques": 6950,
      "ĠMichel": 6951,
      "bb": 6952,
      "vistas": 6953,
      "osp": 6954,
      "Ġsena": 6955,
      "inÃ¡rio": 6956,
      "Ġgor": 6957,
      "ĠdiÃ¡logo": 6958,
      "ĠVare": 6959,
      "derne": 6960,
      "ficamente": 6961,
      "ĠdiscussÃ£o": 6962,
      "Ġmetas": 6963,
      "ĠinvestigaÃ§Ãµes": 6964,
      "itec": 6965,
      "Ġchamadas": 6966,
      "Ġisto": 6967,
      "Ġcontrolar": 6968,
      "ĠData": 6969,
      "Ġcategoria": 6970,
      "Ġinventa": 6971,
      "Ġcompet": 6972,
      "ĠInovaÃ§Ã£o": 6973,
      "pÃ³": 6974,
      "mado": 6975,
      "Ġvelo": 6976,
      "Ġdoar": 6977,
      "itando": 6978,
      "ĠFla": 6979,
      "ĠHa": 6980,
      "Ġtratava": 6981,
      "Ġdivulgados": 6982,
      "Ġcustos": 6983,
      "Ġtranqu": 6984,
      "Ġdecidiu": 6985,
      "NO": 6986,
      "Ġ:": 6987,
      "ĠðŁ": 6988,
      "Ġecon": 6989,
      "Ġgreve": 6990,
      "tuÃ¡rio": 6991,
      "omes": 6992,
      "Ġmeninas": 6993,
      "rum": 6994,
      "ĠAlbert": 6995,
      "Ġ41": 6996,
      "pular": 6997,
      "ĠorÃ§a": 6998,
      "Ġsangu": 6999,
      "Ġsecretaria": 7000,
      "Ġprivadas": 7001,
      "Ġgera": 7002,
      "Ġsurpre": 7003,
      "Ġcursos": 7004,
      "Ġinger": 7005,
      "Ġpequena": 7006,
      "ULA": 7007,
      "Ġemprego": 7008,
      "Ġassinatura": 7009,
      "Ġfraudes": 7010,
      "39": 7011,
      "AP": 7012,
      "BGE": 7013,
      "caro": 7014,
      "xi": 7015,
      "Ã§Ãº": 7016,
      "pping": 7017,
      "Ġabran": 7018,
      "TARIA": 7019,
      "Ġbaseada": 7020,
      "ĠdefiniÃ§Ã£o": 7021,
      "ĠplÃ¡stico": 7022,
      "Ġrastreamento": 7023,
      "ty": 7024,
      "Ã¨": 7025,
      "Ġsul": 7026,
      "dam": 7027,
      "ons": 7028,
      "ĠTal": 7029,
      "Ġcontrato": 7030,
      "Ġenvolvidos": 7031,
      "andro": 7032,
      "Ġfortalece": 7033,
      "EMENTO": 7034,
      "Ġficam": 7035,
      "Ġartista": 7036,
      "Ġhumor": 7037,
      "Ġpoliomielite": 7038,
      "Ġpneumonia": 7039,
      "Ġginec": 7040,
      "ĠINCREMENTO": 7041,
      "entos": 7042,
      "tata": 7043,
      "isco": 7044,
      "onta": 7045,
      "ĠSin": 7046,
      "Ġinver": 7047,
      "ĠCab": 7048,
      "ĠBem": 7049,
      "Ġbor": 7050,
      "Ġexter": 7051,
      "cionou": 7052,
      "duras": 7053,
      "ticar": 7054,
      "Ġrealizando": 7055,
      "Ġelabora": 7056,
      "Ġapresentada": 7057,
      "addad": 7058,
      "COM": 7059,
      "ĠsanitÃ¡ria": 7060,
      "Ġficaram": 7061,
      "ĠconsequÃªncias": 7062,
      "ĠInteligÃªncia": 7063,
      "Ġrosto": 7064,
      "ĠLuciano": 7065,
      "ĠespÃ©cie": 7066,
      "Ġviz": 7067,
      "ĠMT": 7068,
      "ĠlÃŃn": 7069,
      "Ġtera": 7070,
      "ĠterapÃªu": 7071,
      "ime": 7072,
      "ĠTor": 7073,
      "ĠIgre": 7074,
      "Ġcaixa": 7075,
      "Ġpercent": 7076,
      "cont": 7077,
      "Ġligado": 7078,
      "Ġraras": 7079,
      "Ġapareceu": 7080,
      "ĠCompartil": 7081,
      "ĠServiÃ§os": 7082,
      "Ġevolu": 7083,
      "Ġcancela": 7084,
      "Ã§Ãºcar": 7085,
      "BC": 7086,
      "VE": 7087,
      "ys": 7088,
      "Ìģ": 7089,
      "Ġembar": 7090,
      "irme": 7091,
      "ĠjustiÃ§a": 7092,
      "Ġtoucas": 7093,
      "Ġprefer": 7094,
      "ĠHaddad": 7095,
      "Ġclicar": 7096,
      "Ġdirecionado": 7097,
      "Ġmarido": 7098,
      "ĠCarnaval": 7099,
      "Estamos": 7100,
      "ĠfabricaÃ§Ã£o": 7101,
      "ĠPresidÃªncia": 7102,
      "ĠMST": 7103,
      "Ġsemelhante": 7104,
      "ĠgestaÃ§Ã£o": 7105,
      "Ġmetodologia": 7106,
      "ej": 7107,
      "ĠfÃ£s": 7108,
      "rimento": 7109,
      "Ġina": 7110,
      "Ġvirou": 7111,
      "Ġabra": 7112,
      "pero": 7113,
      "enamento": 7114,
      "Ġprecisar": 7115,
      "prova": 7116,
      "Ġalarmistas": 7117,
      "iban": 7118,
      "Ġcontribui": 7119,
      "ĠdeverÃ¡": 7120,
      "ĠMunicipais": 7121,
      "Ġlembra": 7122,
      "ĠFernanda": 7123,
      "ĠLivre": 7124,
      "400": 7125,
      "tÃ¢": 7126,
      "Ġates": 7127,
      "Ġsei": 7128,
      "ĠEX": 7129,
      "Ġsepara": 7130,
      "ĠDentre": 7131,
      "dire": 7132,
      "Ġacum": 7133,
      "ĠGer": 7134,
      "ĠHosp": 7135,
      "capa": 7136,
      "ÃŃstico": 7137,
      "fabl": 7138,
      "ĠtrÃ¢nsito": 7139,
      "Ġtentando": 7140,
      "ĠestratÃ©gicas": 7141,
      "Ġgerando": 7142,
      "Ġconseguimos": 7143,
      "Ġfinanceiros": 7144,
      "Ġrigor": 7145,
      "Ġexige": 7146,
      "Ġimposs": 7147,
      "Ġfluxo": 7148,
      "Ġpercebemos": 7149,
      "700": 7150,
      "Ġdita": 7151,
      "Ġtosse": 7152,
      "ĠRos": 7153,
      "Ġfomos": 7154,
      "Ġacer": 7155,
      "Ġpaulista": 7156,
      "Ġnegocia": 7157,
      "ĠEmer": 7158,
      "ĠrecuperaÃ§Ã£o": 7159,
      "Ġiniciar": 7160,
      "Ġanalis": 7161,
      "Ġressalta": 7162,
      "ĠOrganiza": 7163,
      "Ġartistas": 7164,
      "Ġprotestos": 7165,
      "ĠincorporaÃ§Ã£o": 7166,
      "ĠhipertensÃ£o": 7167,
      "Ġenchentes": 7168,
      "crito": 7169,
      "Ġativo": 7170,
      "Ġmando": 7171,
      "ĠRT": 7172,
      "Ġexpor": 7173,
      "ĠcontrataÃ§Ã£o": 7174,
      "trico": 7175,
      "Ġconfirmada": 7176,
      "Ġfamiliar": 7177,
      "Ġ09": 7178,
      "EIRO": 7179,
      "Ġbomba": 7180,
      "Ġeliminar": 7181,
      "ĠdetecÃ§Ã£o": 7182,
      "ĠMercado": 7183,
      "ĠSeguranÃ§a": 7184,
      "ĠONU": 7185,
      "Ġaman": 7186,
      "deiras": 7187,
      "ĠMOR": 7188,
      "ĠDOS": 7189,
      "ĠRO": 7190,
      "ĠcafÃ©": 7191,
      "ĠpreÃ§os": 7192,
      "culas": 7193,
      "Ġassessoria": 7194,
      "Ġatendidos": 7195,
      "ulaÃ§Ãµes": 7196,
      "Ġdisp": 7197,
      "Ġregistradas": 7198,
      "Ġalertas": 7199,
      "Ġvender": 7200,
      "Ġinstitui": 7201,
      "ĠFakes": 7202,
      "Ġsala": 7203,
      "Ġoportunidades": 7204,
      "Ġexclusivo": 7205,
      "ĠfiscalizaÃ§Ã£o": 7206,
      "Ġvelocidade": 7207,
      "ĠIgreja": 7208,
      "principalmente": 7209,
      "Ġestes": 7210,
      "Ġrever": 7211,
      "itamina": 7212,
      "plice": 7213,
      "Ġpresos": 7214,
      "ĠelÃ©": 7215,
      "ĠdistÃ¢ncia": 7216,
      "Ġparcerias": 7217,
      "Ġfutebol": 7218,
      "ĠCOMP": 7219,
      "ĠocupaÃ§Ã£o": 7220,
      "Ġterror": 7221,
      "76": 7222,
      "ee": 7223,
      "uello": 7224,
      "Ġner": 7225,
      "ĠPi": 7226,
      "Ã³x": 7227,
      "Ġlan": 7228,
      "ĠexistÃªncia": 7229,
      "Ġinflama": 7230,
      "Ġ78": 7231,
      "Ġdefinir": 7232,
      "Ġenviadas": 7233,
      "Ġatingir": 7234,
      "ĠSÃŃrio": 7235,
      "Ġoxig": 7236,
      "ĠfilantrÃ³p": 7237,
      "Ġacresc": 7238,
      "VEL": 7239,
      "eda": 7240,
      "ind": 7241,
      "Ġcober": 7242,
      "tologista": 7243,
      "Ġcondu": 7244,
      "ĠNik": 7245,
      "ĠDel": 7246,
      "Ġfaciais": 7247,
      "Ġrespec": 7248,
      "ĠgraÃ§as": 7249,
      "ĠQU": 7250,
      "Ġaventais": 7251,
      "tricion": 7252,
      "ianos": 7253,
      "Ġsabem": 7254,
      "ÃĩÃķES": 7255,
      "ĠPreto": 7256,
      "AMU": 7257,
      "ĠMulti": 7258,
      "ĠcapacitaÃ§Ã£o": 7259,
      "ĠClÃŃnicas": 7260,
      "ĠvulnerÃ¡veis": 7261,
      "ĠAndrÃ©": 7262,
      "ME": 7263,
      "MO": 7264,
      "Â°": 7265,
      "ĠsÃŃ": 7266,
      "Ġnesses": 7267,
      "Ġlou": 7268,
      "Ġdesper": 7269,
      "perar": 7270,
      "ĠVic": 7271,
      "Ġcompan": 7272,
      "ĠJun": 7273,
      "nios": 7274,
      "lise": 7275,
      "Ġregistrada": 7276,
      "Ġ74": 7277,
      "Ġagil": 7278,
      "ĠMaia": 7279,
      "IAL": 7280,
      "ĠdenÃºncias": 7281,
      "Ġdescoberto": 7282,
      "ĠFaz": 7283,
      "Ġparticiparam": 7284,
      "ĠreceberÃ¡": 7285,
      "Ġvaria": 7286,
      "Ġrevela": 7287,
      "Ġmamografia": 7288,
      "ĠGabri": 7289,
      "crÃ¢nia": 7290,
      "Ġcelebridades": 7291,
      "ĠVarella": 7292,
      "rece": 7293,
      "Ġembas": 7294,
      "Ġcompon": 7295,
      "ĠcartÃ£o": 7296,
      "ĠavanÃ§": 7297,
      "NAL": 7298,
      "Ġacompanhada": 7299,
      "Ġconhecidos": 7300,
      "Ġconsiderados": 7301,
      "ĠPAB": 7302,
      "Ġresolu": 7303,
      "ĠmantÃ©m": 7304,
      "ĠLabois": 7305,
      "ĠhipÃ³tese": 7306,
      "ĠPazuello": 7307,
      "Ġanticorpos": 7308,
      "ĠLaboissi": 7309,
      "Eu": 7310,
      "gni": 7311,
      "osas": 7312,
      "ĠAzul": 7313,
      "Ġbur": 7314,
      "ĠFu": 7315,
      "inada": 7316,
      "Ġenten": 7317,
      "quido": 7318,
      "ĠUcrÃ¢nia": 7319,
      "Ġcardi": 7320,
      "Ġmulta": 7321,
      "Ġbandeira": 7322,
      "ĠZika": 7323,
      "Ġquanti": 7324,
      "Ġfuncionar": 7325,
      "Ġbrinca": 7326,
      "Ġconhecer": 7327,
      "Ġcredenciamento": 7328,
      "Ġcriminosos": 7329,
      "ĠCampinas": 7330,
      "ĠcerimÃ´nia": 7331,
      "ĠAustr": 7332,
      "TRA": 7333,
      "Ġmim": 7334,
      "Ã©tica": 7335,
      "ĠAG": 7336,
      "Ġgarra": 7337,
      "itaÃ§Ã£o": 7338,
      "ranÃ§as": 7339,
      "Ġdirig": 7340,
      "Ġ3580": 7341,
      "Ġcontem": 7342,
      "ĠpeÃ§as": 7343,
      "Ġvalida": 7344,
      "Ġbuscam": 7345,
      "ĠEspecializada": 7346,
      "Ġenfren": 7347,
      "Ġdiscutir": 7348,
      "Ġrevelou": 7349,
      "ĠevoluÃ§Ã£o": 7350,
      "ĠjurÃŃ": 7351,
      "ĠNeymar": 7352,
      "mb": 7353,
      "od": 7354,
      "tio": 7355,
      "unos": 7356,
      "Ġmening": 7357,
      "umin": 7358,
      "Ġtranstor": 7359,
      "itindo": 7360,
      "ĠPORTARIA": 7361,
      "ĠDEZ": 7362,
      "Ġsofre": 7363,
      "Ġpequeno": 7364,
      "Ġconcentra": 7365,
      "ÃŃssimo": 7366,
      "RGENTE": 7367,
      "ĠAntÃ´nio": 7368,
      "EMBRO": 7369,
      "APS": 7370,
      "NS": 7371,
      "PCR": 7372,
      "crim": 7373,
      "gi": 7374,
      "ifica": 7375,
      "ler": 7376,
      "Ã§oa": 7377,
      "ĠOx": 7378,
      "ĠproteÃŃna": 7379,
      "ĠdiagnÃ³sticos": 7380,
      "Ġpequenas": 7381,
      "Ġjapon": 7382,
      "Ġflagra": 7383,
      "Ġdebates": 7384,
      "Ġirregular": 7385,
      "Ġemissora": 7386,
      "derneta": 7387,
      "ibanÃªs": 7388,
      "Ag": 7389,
      "dicas": 7390,
      "Ġsens": 7391,
      "reas": 7392,
      "ici": 7393,
      "ĠSho": 7394,
      "Ġconce": 7395,
      "eir": 7396,
      "ĠGomes": 7397,
      "ĠWal": 7398,
      "ĠindÃŃcio": 7399,
      "Ġ99": 7400,
      "Ġcrist": 7401,
      "Ġdefende": 7402,
      "ĠToda": 7403,
      "Ġparecer": 7404,
      "Ġajudam": 7405,
      "Ġesperar": 7406,
      "Ġlevanta": 7407,
      "Ġpronuncia": 7408,
      "Ġsimilar": 7409,
      "Ġmosquitos": 7410,
      "Ġpalavra": 7411,
      "ĠopiniÃ£o": 7412,
      "anomami": 7413,
      "ĠÃĶmicron": 7414,
      "PO": 7415,
      "TU": 7416,
      "caram": 7417,
      "ģ£": 7418,
      "inhar": 7419,
      "ĠfÃ³rm": 7420,
      "Ġqueb": 7421,
      "Ġrein": 7422,
      "Ġtrou": 7423,
      "ĠBio": 7424,
      "sado": 7425,
      "Ġdestin": 7426,
      "Ġaltamente": 7427,
      "ĠGus": 7428,
      "ĠWol": 7429,
      "ulada": 7430,
      "Ġ54": 7431,
      "ĠParabÃ©ns": 7432,
      "Ġobter": 7433,
      "Ġsapa": 7434,
      "Ġmostraria": 7435,
      "Ġmostrando": 7436,
      "Ġcitam": 7437,
      "ĠUnidas": 7438,
      "Ġrelembre": 7439,
      "Ġsusten": 7440,
      "Ġpraia": 7441,
      "Ġdeixando": 7442,
      "Ġinstitucional": 7443,
      "ĠPode": 7444,
      "eamento": 7445,
      "Ġreuniu": 7446,
      "Ġdorm": 7447,
      "ĠliberaÃ§Ã£o": 7448,
      "Ġpositivos": 7449,
      "ĠBÃ¡sicas": 7450,
      "Ġequipamento": 7451,
      "ĠWuhan": 7452,
      "tagon": 7453,
      "tiÃ§Ã£o": 7454,
      "ĠVAC": 7455,
      "Ġinfunda": 7456,
      "ĠposiÃ§Ã£o": 7457,
      "ĠAlves": 7458,
      "Ġconstitu": 7459,
      "ĠEnten": 7460,
      "Ġpromovendo": 7461,
      "filis": 7462,
      "ĠBarroso": 7463,
      "Ġcorreta": 7464,
      "hn": 7465,
      "Ġestil": 7466,
      "âĢľ": 7467,
      "Ġgaro": 7468,
      "ĠVSR": 7469,
      "Ġafeta": 7470,
      "ĠAng": 7471,
      "ĠTotal": 7472,
      "ĠincÃªn": 7473,
      "Ġolha": 7474,
      "Ġbandidos": 7475,
      "Ġbater": 7476,
      "Ġidentificado": 7477,
      "Ġenviados": 7478,
      "ĠMusk": 7479,
      "ĠArtificial": 7480,
      "Ã¨re": 7481,
      "Fo": 7482,
      "gria": 7483,
      "Ġdent": 7484,
      "Ã§ar": 7485,
      "ĠME": 7486,
      "Ġporqu": 7487,
      "Ġmudou": 7488,
      "itÃª": 7489,
      "Ġchefe": 7490,
      "Ġprivados": 7491,
      "viamente": 7492,
      "Ġassociados": 7493,
      "ĠtÃŃp": 7494,
      "Ġfornecimento": 7495,
      "ĠLaboissiÃ¨re": 7496,
      "Ġpac": 7497,
      "Ġdoente": 7498,
      "ĠPix": 7499,
      "ĠPRE": 7500,
      "ĠMou": 7501,
      "Ġlida": 7502,
      "venÃ§Ãµes": 7503,
      "Ġintelig": 7504,
      "Ġveja": 7505,
      "Ġautoridade": 7506,
      "DOU": 7507,
      "Ġrespiradores": 7508,
      "Ġaborto": 7509,
      "ĠinterpretaÃ§Ã£o": 7510,
      "Ġassinou": 7511,
      "ĠAlgumas": 7512,
      "ĠDEZEMBRO": 7513,
      "ST": 7514,
      "SESAI": 7515,
      "heiro": 7516,
      "racia": 7517,
      "mag": 7518,
      "ĠMic": 7519,
      "Ġpatroc": 7520,
      "Ġrespi": 7521,
      "Ġprelim": 7522,
      "ĠUPA": 7523,
      "Ġ47": 7524,
      "Ġlevam": 7525,
      "ĠfÃ¡brica": 7526,
      "ĠespaÃ§os": 7527,
      "Bolsonaro": 7528,
      "RIO": 7529,
      "To": 7530,
      "iologia": 7531,
      "Ġdram": 7532,
      "essÃ£o": 7533,
      "tera": 7534,
      "ĠvitÃ³ria": 7535,
      "Ġprint": 7536,
      "Ġlonga": 7537,
      "ĠespecÃŃficos": 7538,
      "ĠlÃŃderes": 7539,
      "ĠJanja": 7540,
      "ĠCanadÃ¡": 7541,
      "ĠoxigÃªnio": 7542,
      "86": 7543,
      "ĠdÃ³l": 7544,
      "Ġdepo": 7545,
      "Ġtria": 7546,
      "Ãºc": 7547,
      "istia": 7548,
      "Ġlit": 7549,
      "Ġani": 7550,
      "inados": 7551,
      "Ġprecon": 7552,
      "ĠHuma": 7553,
      "idor": 7554,
      "Ġmodo": 7555,
      "Ġviver": 7556,
      "Ġparticular": 7557,
      "OSPI": 7558,
      "Ġpromove": 7559,
      "versÃ¡rio": 7560,
      "Ġrepresentante": 7561,
      "Ġconsumidores": 7562,
      "Ġnotificados": 7563,
      "ĠhaverÃ¡": 7564,
      "Ġultrapas": 7565,
      "ĠAustrÃ¡lia": 7566,
      "tti": 7567,
      "Ġdedica": 7568,
      "Ã³i": 7569,
      "ĠFede": 7570,
      "Ġenfa": 7571,
      "Ġperigo": 7572,
      "Ġvalidade": 7573,
      "Ġidentidade": 7574,
      "eau": 7575,
      "Ġpublic": 7576,
      "Ġrepresentam": 7577,
      "Ġobservar": 7578,
      "ĠbÃ¡sica": 7579,
      "Ġandamento": 7580,
      "Ġuniversal": 7581,
      "ĠCuidado": 7582,
      "ĠEspeciais": 7583,
      "Ġfases": 7584,
      "ĠincrÃŃvel": 7585,
      "ĠtragÃ©dia": 7586,
      "ĠimpossÃŃvel": 7587,
      "bele": 7588,
      "db": 7589,
      "eros": 7590,
      "Ġdatas": 7591,
      "Ġretra": 7592,
      "tua": 7593,
      "Ġdesab": 7594,
      "ĠDias": 7595,
      "Ġ39": 7596,
      "istancia": 7597,
      "Ġindustrial": 7598,
      "Ġcheio": 7599,
      "proc": 7600,
      "ĠApenas": 7601,
      "Ġcrescente": 7602,
      "ĠMAIS": 7603,
      "ĠprÃªmios": 7604,
      "Ġgigantes": 7605,
      "BT": 7606,
      "Ġaer": 7607,
      "estas": 7608,
      "Ġvindo": 7609,
      "ĠElas": 7610,
      "ĠBene": 7611,
      "Ġalunos": 7612,
      "Ġenx": 7613,
      "Ġsobretudo": 7614,
      "Ġdiscus": 7615,
      "Ġcarnaval": 7616,
      "Ġpublicadas": 7617,
      "Ġcancer": 7618,
      "ĠsaÃŃda": 7619,
      "ĠRafa": 7620,
      "Ġlojas": 7621,
      "ĠNossa": 7622,
      "ĠarticulaÃ§Ã£o": 7623,
      "ĠcirÃºrgicas": 7624,
      "Ġcriptomo": 7625,
      "Ġquantita": 7626,
      "RU": 7627,
      "VER": 7628,
      "gicos": 7629,
      "pelo": 7630,
      "zinha": 7631,
      "iss": 7632,
      "Ġovos": 7633,
      "dom": 7634,
      "anas": 7635,
      "uldade": 7636,
      "ĠCac": 7637,
      "Ġnaturais": 7638,
      "vamento": 7639,
      "edgen": 7640,
      "Ġ2010": 7641,
      "bovir": 7642,
      "Ġiniciou": 7643,
      "Ġveic": 7644,
      "embrou": 7645,
      "ĠMuita": 7646,
      "Ġpronto": 7647,
      "ĠeletrÃ´nicas": 7648,
      "Ġaplicar": 7649,
      "ĠGrupo": 7650,
      "Ġpei": 7651,
      "ĠSO": 7652,
      "ĠEv": 7653,
      "Ġportarias": 7654,
      "ĠFarm": 7655,
      "Ġsobe": 7656,
      "conte": 7657,
      "metro": 7658,
      "Ġvivendo": 7659,
      "Ġvacinado": 7660,
      "Ġpopulares": 7661,
      "Ġvoltados": 7662,
      "triÃ§Ã£o": 7663,
      "Ġhouver": 7664,
      "Ġassociado": 7665,
      "Ġquadros": 7666,
      "ĠespecÃŃficas": 7667,
      "assim": 7668,
      "Ġaprovou": 7669,
      "ĠbÃ¡sicas": 7670,
      "instein": 7671,
      "Ġabordagem": 7672,
      "ĠclimÃ¡ticas": 7673,
      "ĠMensagens": 7674,
      "Ġmodalidade": 7675,
      "Ġinvestir": 7676,
      "Brasil": 7677,
      "bes": 7678,
      "eu": 7679,
      "ka": 7680,
      "pir": 7681,
      "ĠcÃ³digo": 7682,
      "inf": 7683,
      "ĠvÃª": 7684,
      "ciosa": 7685,
      "ĠfaÃ§a": 7686,
      "ĠHOSPI": 7687,
      "ĠWill": 7688,
      "Ġcerta": 7689,
      "Ġsimul": 7690,
      "Ġpesquisadora": 7691,
      "Ġaquela": 7692,
      "Ġuniversi": 7693,
      "Ġassociada": 7694,
      "Ġambos": 7695,
      "Ġimposto": 7696,
      "Ġtransformar": 7697,
      "Ġtradicional": 7698,
      "ĠtrÃ¡fico": 7699,
      "df": 7700,
      "Ġpiloto": 7701,
      "riga": 7702,
      "eij": 7703,
      "ĠÃ´": 7704,
      "ormal": 7705,
      "Ġenvel": 7706,
      "Ġenredo": 7707,
      "Ġcompras": 7708,
      "ĠUM": 7709,
      "Ġmuda": 7710,
      "Ġfalsamente": 7711,
      "Ġusadas": 7712,
      "ĠArn": 7713,
      "Ġproduzido": 7714,
      "Ġconstruir": 7715,
      "ĠReceita": 7716,
      "Ġhomenagem": 7717,
      "Ġselecionados": 7718,
      "ĠvisualizaÃ§Ãµes": 7719,
      "Ġmecan": 7720,
      "ĠlÃŃngua": 7721,
      "Ġlitros": 7722,
      "istanciamento": 7723,
      "CU": 7724,
      "inclusive": 7725,
      "Ġfique": 7726,
      "ĠPF": 7727,
      "eiÃ§Ã£o": 7728,
      "ĠMara": 7729,
      "acos": 7730,
      "ĠEscola": 7731,
      "ĠHam": 7732,
      "ĠindÃŃcios": 7733,
      "ĠSantana": 7734,
      "Ġencontrados": 7735,
      "Ġvisitas": 7736,
      "Ġsinc": 7737,
      "Ġerradas": 7738,
      "Ġirres": 7739,
      "Ġorganizado": 7740,
      "ĠYp": 7741,
      "ĠDistritos": 7742,
      "Ġlaboratorial": 7743,
      "ĠGoi": 7744,
      "Ġprofessores": 7745,
      "OLSO": 7746,
      "Ġambula": 7747,
      "Ġaperfei": 7748,
      "ĠAfinal": 7749,
      "Ġespanhol": 7750,
      "Ġaberta": 7751,
      "Ġaeropor": 7752,
      "Ġpros": 7753,
      "enizaÃ§Ã£o": 7754,
      "Ġcena": 7755,
      "ĠSU": 7756,
      "ĠtÃ¡tica": 7757,
      "emÃ£o": 7758,
      "Ġensa": 7759,
      "nada": 7760,
      "demias": 7761,
      "Ã¢nda": 7762,
      "ixas": 7763,
      "Ġprotetores": 7764,
      "Ġtaxas": 7765,
      "Ġdistribui": 7766,
      "ĠAgentes": 7767,
      "Ġautoma": 7768,
      "Ġbolsa": 7769,
      "ĠfÃŃsicas": 7770,
      "ricultura": 7771,
      "Ġabsurdo": 7772,
      "Ġresidentes": 7773,
      "ĠmemÃ³ria": 7774,
      "ĠMÃ©xico": 7775,
      "!âĢĿ.": 7776,
      "Geral": 7777,
      "uki": 7778,
      "âģ£": 7779,
      "Ã©is": 7780,
      "ĠSam": 7781,
      "ĠEinstein": 7782,
      "ĠOS": 7783,
      "Ġaspec": 7784,
      "ĠEspanha": 7785,
      "tilhas": 7786,
      "ĠEmerg": 7787,
      "Ġapontando": 7788,
      "Ã¡gio": 7789,
      "pectiva": 7790,
      "ĠExempl": 7791,
      "Ġsexo": 7792,
      "onatal": 7793,
      "Ġintegrada": 7794,
      "Ġcentrais": 7795,
      "ĠmÃ£es": 7796,
      "ĠbactÃ©rias": 7797,
      "Ġimpedir": 7798,
      "Ġnutricion": 7799,
      "Ġfamosos": 7800,
      "Ġfechamento": 7801,
      "Ġcorresponde": 7802,
      "ĠlogÃŃstica": 7803,
      "Ġincentivar": 7804,
      "ĠRondÃ´nia": 7805,
      "OPAS": 7806,
      "at": 7807,
      "Ġlixo": 7808,
      "ĠFora": 7809,
      "ĠÃĢ": 7810,
      "Ġprema": 7811,
      "cedoras": 7812,
      "Ġsatis": 7813,
      "Ġcausados": 7814,
      "TAS": 7815,
      "Ġinvestido": 7816,
      "ĠestratÃ©gicos": 7817,
      "Ġacabam": 7818,
      "onato": 7819,
      "Ġcolocou": 7820,
      "ĠElon": 7821,
      "Ġimpression": 7822,
      "Ġdroga": 7823,
      "Ġuniversidades": 7824,
      "ĠclÃ¡ssico": 7825,
      "ĠFelipe": 7826,
      "quÃ©rito": 7827,
      "ĠsanguÃŃ": 7828,
      "Al": 7829,
      "ĠdÃŃ": 7830,
      "ĠoraÃ§Ã£o": 7831,
      "Ġfan": 7832,
      "Ġdobro": 7833,
      "ÃŃase": 7834,
      "Ġincom": 7835,
      "Ġbara": 7836,
      "Ġlavar": 7837,
      "ĠdescriÃ§Ã£o": 7838,
      "Ġconfl": 7839,
      "ĠDepu": 7840,
      "Ġsemestre": 7841,
      "Ġapontavam": 7842,
      "ĠLucas": 7843,
      "logos": 7844,
      "ĠestarÃ¡": 7845,
      "Ġ2009": 7846,
      "Ġcentenas": 7847,
      "ĠMuitos": 7848,
      "Ġfinanceiras": 7849,
      "Ġzero": 7850,
      "Ġpequenos": 7851,
      "ezuel": 7852,
      "Ġfamoso": 7853,
      "ĠBraga": 7854,
      "Ġapoiadores": 7855,
      "content": 7856,
      "OLSONA": 7857,
      "grÃ¡": 7858,
      "Ġatitu": 7859,
      "Ġcach": 7860,
      "quinha": 7861,
      "ĠcomÃ©rcio": 7862,
      "Ġenc": 7863,
      "ĠVan": 7864,
      "Ġentregar": 7865,
      "ĠcontÃ©m": 7866,
      "Ġpegou": 7867,
      "Ġcanetas": 7868,
      "ĠProdu": 7869,
      "Ġapresentadas": 7870,
      "Ġinfectadas": 7871,
      "Ġirm": 7872,
      "!!!!": 7873,
      "Ġcompletou": 7874,
      "Ġsegundos": 7875,
      "Ġbenefici": 7876,
      "Ġpergunta": 7877,
      "Ġfizemos": 7878,
      "ĠMeu": 7879,
      "ĠCEO": 7880,
      "ĠpediÃ¡trica": 7881,
      "Ġcerebral": 7882,
      "Ġintes": 7883,
      "ĠFra": 7884,
      "ecular": 7885,
      "ĠcomoÃ§Ã£o": 7886,
      "Ãªncio": 7887,
      "ĠLeÃ£o": 7888,
      "Ġadmi": 7889,
      "Ġinvestigar": 7890,
      "chas": 7891,
      "Ġnessas": 7892,
      "ĠesperanÃ§a": 7893,
      "Ġfundamentais": 7894,
      "Ġnarrativas": 7895,
      "ĠBarb": 7896,
      "Ġcarreira": 7897,
      "ĠPetro": 7898,
      "ĠepidemiolÃ³gico": 7899,
      "Ġconhece": 7900,
      "Ġjuiz": 7901,
      "Ġtemperaturas": 7902,
      "Ġestabelece": 7903,
      "aps": 7904,
      "zi": 7905,
      "Ġsoc": 7906,
      "ĠChe": 7907,
      "ouve": 7908,
      "ĠTur": 7909,
      "Ġcontratos": 7910,
      "Ġtaman": 7911,
      "ĠestratÃ©gica": 7912,
      "Ġlocalidades": 7913,
      "ARTI": 7914,
      "ĠTodo": 7915,
      "ĠConsul": 7916,
      "Ġclasse": 7917,
      "Ġeficazes": 7918,
      "Ġchegaram": 7919,
      "Ġcontaminadas": 7920,
      "ĠlesÃµes": 7921,
      "muito": 7922,
      "ap": 7923,
      "lio": 7924,
      "sando": 7925,
      "ĠAta": 7926,
      "ĠCU": 7927,
      "Ġdesn": 7928,
      "Ġpainel": 7929,
      "Ġcab": 7930,
      "Ġcomprou": 7931,
      "ĠcorrupÃ§Ã£o": 7932,
      "nibus": 7933,
      "Ġcarteira": 7934,
      "Ġinsul": 7935,
      "bur": 7936,
      "Ġ85": 7937,
      "Ġoferecendo": 7938,
      "Ġsentir": 7939,
      "ĠquestionÃ¡rio": 7940,
      "Ġreconhecimento": 7941,
      "Ġcliques": 7942,
      "Ġdesigualdades": 7943,
      "łï¸ı": 7944,
      "ridade": 7945,
      "guas": 7946,
      "Ġexcel": 7947,
      "Ġpaz": 7948,
      "igar": 7949,
      "Ġregionais": 7950,
      "Ġconser": 7951,
      "Ġcitadas": 7952,
      "Ġdesenvolvida": 7953,
      "ĠirÃ£o": 7954,
      "Ġprovoc": 7955,
      "Ġurgente": 7956,
      "Ġhepatites": 7957,
      "Ġconvoc": 7958,
      "Ġpensar": 7959,
      "Ġnervos": 7960,
      "IT": 7961,
      "cc": 7962,
      "ites": 7963,
      "ificaÃ§Ã£o": 7964,
      "ĠaÃ§Ãºcar": 7965,
      "icia": 7966,
      "ĠAconte": 7967,
      "ĠreaÃ§Ãµes": 7968,
      "Ã³rum": 7969,
      "Ġbron": 7970,
      "Ġlac": 7971,
      "Ġprom": 7972,
      "Ġcadeia": 7973,
      "Ġpastor": 7974,
      "Ġlevado": 7975,
      "ĠHospitalar": 7976,
      "Ã´nicos": 7977,
      "Ġespalhando": 7978,
      "Ġescolar": 7979,
      "Ġlimite": 7980,
      "Ġcolocado": 7981,
      "ĠSerÃ£o": 7982,
      "ĠTrabalha": 7983,
      "ĠFreitas": 7984,
      "ĠIntegra": 7985,
      "Ġsofrer": 7986,
      "ĠVatic": 7987,
      "ĠOxford": 7988,
      "gil": 7989,
      "ļłï¸ı": 7990,
      "Ġdel": 7991,
      "orb": 7992,
      "ÃŃa": 7993,
      "ĠSAMU": 7994,
      "Ġredor": 7995,
      "Ġinduz": 7996,
      "Ġprotagon": 7997,
      "leta": 7998,
      "ĠIl": 7999,
      "cefal": 8000,
      "Ġpassagem": 8001,
      "ĠtelevisÃ£o": 8002,
      "ĠcrÃ©dito": 8003,
      "Ġbaseia": 8004,
      "Ġretirado": 8005,
      "ĠPalÃ¡cio": 8006,
      "Ġpromete": 8007,
      "ĠGolpe": 8008,
      "ĠImprensa": 8009,
      "mem": 8010,
      "pra": 8011,
      "ices": 8012,
      "Ã©u": 8013,
      "ĠIsa": 8014,
      "Ġimpul": 8015,
      "Ġnascimento": 8016,
      "Ġ43": 8017,
      "Ġchip": 8018,
      "ĠhorÃ¡ria": 8019,
      "Ġbolsas": 8020,
      "peamento": 8021,
      "Ġfacilitar": 8022,
      "ĠalcanÃ§ar": 8023,
      "Ġflores": 8024,
      "Ġrequisitos": 8025,
      "71": 8026,
      "II": 8027,
      "iedade": 8028,
      "tÃ¡veis": 8029,
      "Ġdistanciamento": 8030,
      "Ġceb": 8031,
      "Ġdemi": 8032,
      "erta": 8033,
      "tei": 8034,
      "Ġgal": 8035,
      "ĠTÃ¡": 8036,
      "Ġposteriormente": 8037,
      "Ġ64": 8038,
      "Ġcompartilhadas": 8039,
      "Ġatualizar": 8040,
      "Ġconsidera": 8041,
      "Ġsurpresa": 8042,
      "AMENTO": 8043,
      "ĠMÃ©dico": 8044,
      "ĠalteraÃ§Ãµes": 8045,
      "ĠComplexo": 8046,
      "ĠESTADO": 8047,
      "Ġideal": 8048,
      "ĠExistem": 8049,
      "boviroses": 8050,
      "OLSONARO": 8051,
      "NCIA": 8052,
      "Oeste": 8053,
      "garam": 8054,
      "van": 8055,
      "vando": 8056,
      "Ġdica": 8057,
      "Ġconec": 8058,
      "Ġendos": 8059,
      "Ġenter": 8060,
      "Ġpost": 8061,
      "Ġmesmos": 8062,
      "cionadas": 8063,
      "ĠnecessÃ¡rias": 8064,
      "Ġvendido": 8065,
      "Ġprevista": 8066,
      "Ġpulm": 8067,
      "Ġidoso": 8068,
      "Ġtomado": 8069,
      "IDADE": 8070,
      "cedores": 8071,
      "ĠBasta": 8072,
      "Ġcomemora": 8073,
      "Ġcriptomoedas": 8074,
      "ĠBarbosa": 8075,
      "RN": 8076,
      "SB": 8077,
      "Ġital": 8078,
      "osos": 8079,
      "ĠBen": 8080,
      "Ġdesas": 8081,
      "Ġ2030": 8082,
      "Ġassist": 8083,
      "Ġobs": 8084,
      "Ġocorr": 8085,
      "ĠÃ³b": 8086,
      "Ġchamar": 8087,
      "ĠÃ¡udios": 8088,
      "ficientes": 8089,
      "Ġcelulares": 8090,
      "ĠPadre": 8091,
      "Ġcontribuindo": 8092,
      "ĠclassificaÃ§Ã£o": 8093,
      "Ġtransmitido": 8094,
      "ĠHorÃ¡rio": 8095,
      "Ġfronteira": 8096,
      "Ġpretende": 8097,
      "ĠConstituiÃ§Ã£o": 8098,
      "ĠNikolas": 8099,
      "amente": 8100,
      "Ġabre": 8101,
      "ĠAdo": 8102,
      "Ġestiv": 8103,
      "entÃ¡vel": 8104,
      "âĢĿ)": 8105,
      "ĠEstu": 8106,
      "ĠcaÃ§a": 8107,
      "ĠUN": 8108,
      "aba": 8109,
      "pido": 8110,
      "Ġarmas": 8111,
      "Ġ52": 8112,
      "Ġ68": 8113,
      "RAL": 8114,
      "Ġagente": 8115,
      "Ġaquelas": 8116,
      "Ġvotar": 8117,
      "Ġmonitorar": 8118,
      "Ġzona": 8119,
      "Ġcumprimento": 8120,
      "Ġconcluiu": 8121,
      "ĠRibeiro": 8122,
      "Ġjudicial": 8123,
      "Ġprolon": 8124,
      "FOR": 8125,
      "ivo": 8126,
      "ota": 8127,
      "ĠPC": 8128,
      "Ġbizar": 8129,
      "terial": 8130,
      "gador": 8131,
      "sima": 8132,
      "Ġmesa": 8133,
      "Ã¢nica": 8134,
      "Ãºmeros": 8135,
      "Ġfilmagem": 8136,
      "Ġdevemos": 8137,
      "ĠeleiÃ§Ã£o": 8138,
      "Ġlaboratoriais": 8139,
      "ĠLeite": 8140,
      "Ġinicialmente": 8141,
      "ĠsilÃªncio": 8142,
      "Ġbloqueio": 8143,
      "Ġpercentual": 8144,
      "Ġcontempl": 8145,
      "Ġestilo": 8146,
      "ĠArnaldo": 8147,
      "orr": 8148,
      "ĠMelo": 8149,
      "ize": 8150,
      "ĠRel": 8151,
      "Ġjeito": 8152,
      "ĠHouve": 8153,
      "derson": 8154,
      "Ġcancel": 8155,
      "ĠPsicossocial": 8156,
      "Ġdeixam": 8157,
      "Ġvenezuel": 8158,
      "Ġparecida": 8159,
      "ĠPoder": 8160,
      "Ġqueria": 8161,
      "Ġsofrimento": 8162,
      "Ġcolap": 8163,
      "Ġprofessora": 8164,
      "ĠTransmiss": 8165,
      "ĠsolicitaÃ§Ã£o": 8166,
      "Ġigno": 8167,
      "ĠDrauzio": 8168,
      "ĠRenato": 8169,
      "ĠinstalaÃ§Ã£o": 8170,
      "ĠEpidemiolÃ³g": 8171,
      "Ġy": 8172,
      "estes": 8173,
      "Ġebola": 8174,
      "Ġfol": 8175,
      "Ġvigil": 8176,
      "tite": 8177,
      "ÃŃgado": 8178,
      "Ġincidente": 8179,
      "ĠvÃŃn": 8180,
      "bag": 8181,
      "Ġmeia": 8182,
      "Ġleve": 8183,
      "Ġmanejo": 8184,
      "Ġpega": 8185,
      "Ġmostrado": 8186,
      "Ġcrono": 8187,
      "Ġrob": 8188,
      "ĠadoÃ§Ã£o": 8189,
      "Ġadotar": 8190,
      "ĠcontribuiÃ§Ãµes": 8191,
      "Ġaparelhos": 8192,
      "ĠEstratÃ©gia": 8193,
      "Ġterapias": 8194,
      "ĠaniversÃ¡rio": 8195,
      "ĠHOSPITAL": 8196,
      "900": 8197,
      "fi": 8198,
      "iol": 8199,
      "tador": 8200,
      "ore": 8201,
      "orias": 8202,
      "ick": 8203,
      "ĠAÃ§Ã£o": 8204,
      "ĠChar": 8205,
      "Ġmascul": 8206,
      "Ġvendendo": 8207,
      "Ġfortalecendo": 8208,
      "Ġreduzindo": 8209,
      "Ġâļłï¸ı": 8210,
      "Ġmelhorias": 8211,
      "ĠcientÃŃficos": 8212,
      "ĠRegiÃ£o": 8213,
      "Ġrepassado": 8214,
      "Ġmultiprofission": 8215,
      "Ġemagrecedoras": 8216,
      "ĠVaticano": 8217,
      "Ġcronograma": 8218,
      "lias": 8219,
      "Ġcigar": 8220,
      "und": 8221,
      "ĠONG": 8222,
      "Ġfome": 8223,
      "veja": 8224,
      "idra": 8225,
      "Ġposto": 8226,
      "ĠEncon": 8227,
      "RAM": 8228,
      "Ġlingu": 8229,
      "ĠSua": 8230,
      "vidamente": 8231,
      "âĢĻ.": 8232,
      "Ġespeciais": 8233,
      "Ġproduzida": 8234,
      "Ġconceito": 8235,
      "ĠGrave": 8236,
      "ĠvoluntÃ¡rios": 8237,
      "Ġretorno": 8238,
      "ĠexercÃŃcio": 8239,
      "Ġsupermercados": 8240,
      "Ġtreinamento": 8241,
      "ĠCoorden": 8242,
      "FM": 8243,
      "ibilidade": 8244,
      "tadores": 8245,
      "Ġvendo": 8246,
      "mengo": 8247,
      "mentado": 8248,
      "Ã³cio": 8249,
      "ĠFOR": 8250,
      "Ġexibi": 8251,
      "cionando": 8252,
      "ĠNaÃ§Ãµes": 8253,
      "ĠAliÃ¡s": 8254,
      "ĠCombate": 8255,
      "ĠÃºtero": 8256,
      "Ġvoltada": 8257,
      "ĠimunolÃ³gico": 8258,
      "Ġrom": 8259,
      "Ġquero": 8260,
      "168": 8261,
      "Ġabriu": 8262,
      "ĠYanomami": 8263,
      "Ġfug": 8264,
      "Ġautom": 8265,
      "ĠSanitÃ¡rio": 8266,
      "ĠopÃ§Ã£o": 8267,
      "ðŁĩ": 8268,
      "americano": 8269,
      "ĠFarmacÃªu": 8270,
      "ĠEconÃ´mico": 8271,
      "Ġtamanho": 8272,
      "VS": 8273,
      "camos": 8274,
      "xÃŃlio": 8275,
      "iadas": 8276,
      "ĠfÃŃgado": 8277,
      "Ġvitamina": 8278,
      "ĠreabilitaÃ§Ã£o": 8279,
      "ĠCel": 8280,
      "Ãºr": 8281,
      "ĠBOLSONARO": 8282,
      "Ġfakes": 8283,
      "Ġfalsi": 8284,
      "curso": 8285,
      "Ġpuder": 8286,
      "Ġleito": 8287,
      "corre": 8288,
      "Ġindis": 8289,
      "ĠduraÃ§Ã£o": 8290,
      "ĠcontÃ¡gio": 8291,
      "Ġ2011": 8292,
      "Ġusou": 8293,
      "Ġmarco": 8294,
      "ĠCarval": 8295,
      "Ġconsideradas": 8296,
      "Ġaltera": 8297,
      "Ã³licas": 8298,
      "Ġjogar": 8299,
      "ĠlegÃŃ": 8300,
      "ĠPronto": 8301,
      "Ġtransplante": 8302,
      "Ġeconom": 8303,
      "Ġquantitativo": 8304,
      "49": 8305,
      "DOR": 8306,
      "tres": 8307,
      "trito": 8308,
      "Ġsono": 8309,
      "domin": 8310,
      "ÃŃbl": 8311,
      "Ġinoc": 8312,
      "Ġbarra": 8313,
      "Ġlembrou": 8314,
      "usel": 8315,
      "irceu": 8316,
      "ĠRen": 8317,
      "Ġcomposto": 8318,
      "Ġtraje": 8319,
      "Ġcub": 8320,
      "ĠMarcos": 8321,
      "Ġsurgiram": 8322,
      "ĠatribuÃŃdas": 8323,
      "Ġtornando": 8324,
      "Ġabsor": 8325,
      "Ġaguda": 8326,
      "Ġpersonal": 8327,
      "ĠGarcia": 8328,
      "carousel": 8329,
      "69": 8330,
      "IG": 8331,
      "Ġpedia": 8332,
      "Ġdevol": 8333,
      "tavo": 8334,
      "quad": 8335,
      "teis": 8336,
      "ĠvÃªm": 8337,
      "ems": 8338,
      "Ġgene": 8339,
      "Ġnavio": 8340,
      "Ġportas": 8341,
      "Ġpobre": 8342,
      "Ġassinado": 8343,
      "Ġnegou": 8344,
      "Ġmeus": 8345,
      "ĠmaÃ§": 8346,
      "Ġcompartilhou": 8347,
      "ĠQuer": 8348,
      "TAM": 8349,
      "Ġdesconto": 8350,
      "EIRA": 8351,
      "Ġconseguem": 8352,
      "Ã´mbia": 8353,
      "ĠLava": 8354,
      "Ġhumanidade": 8355,
      "ĠtransmissÃŃveis": 8356,
      "ĠServiÃ§o": 8357,
      "ĠIII": 8358,
      "Ġdesloca": 8359,
      "Ġaviso": 8360,
      "Ġtriagem": 8361,
      "CIO": 8362,
      "EG": 8363,
      "PT": 8364,
      "ĠdepressÃ£o": 8365,
      "Ã©ticos": 8366,
      "Ġespor": 8367,
      "ĠDAS": 8368,
      "ĠDirceu": 8369,
      "ĠRoc": 8370,
      "Ġaldeia": 8371,
      "peza": 8372,
      "ĠVin": 8373,
      "ĠindicaÃ§Ã£o": 8374,
      "Ġdura": 8375,
      "Ã¡stica": 8376,
      "Ġresponde": 8377,
      "âĢ¦.": 8378,
      "Ġcomprovar": 8379,
      "Ġrodo": 8380,
      "Ġescolher": 8381,
      "ĠGuia": 8382,
      "Ġatacar": 8383,
      "Ġsemanais": 8384,
      "Ġrenal": 8385,
      "ÃļDE": 8386,
      "Ġterminar": 8387,
      "Ġdiplom": 8388,
      "ĠambulÃ¢ncias": 8389,
      "Ġreafirma": 8390,
      "ĠFlamengo": 8391,
      "Ġmandou": 8392,
      "SRAG": 8393,
      "gÃ£o": 8394,
      "ane": 8395,
      "ĠSendo": 8396,
      "ĠOri": 8397,
      "guem": 8398,
      "ĠHospitais": 8399,
      "ĠAlberto": 8400,
      "Ġmapeamento": 8401,
      "Ġ69": 8402,
      "ĠUSP": 8403,
      "Ġrefu": 8404,
      "Ġestrangeiros": 8405,
      "Ġdispositivos": 8406,
      "ĠlegislaÃ§Ã£o": 8407,
      "ĠResolvemos": 8408,
      "ĠGustavo": 8409,
      "ĠdiscussÃµes": 8410,
      "fu": 8411,
      "fÃŃcio": 8412,
      "feno": 8413,
      "Ġquim": 8414,
      "ĠMos": 8415,
      "Ġprovar": 8416,
      "Ġexce": 8417,
      "ĠIgua": 8418,
      "ĠAlto": 8419,
      "psia": 8420,
      "Ġproteg": 8421,
      "Ġresultou": 8422,
      "Ġplaneta": 8423,
      "Ġbalan": 8424,
      "Ġeditor": 8425,
      "Ġjuntos": 8426,
      "Ġesclarece": 8427,
      "ĠtÃŃtulos": 8428,
      "Ġcarrega": 8429,
      "cÃ£o": 8430,
      "op": 8431,
      "dada": 8432,
      "Ġves": 8433,
      "ĠAqu": 8434,
      "Ġincapa": 8435,
      "Ġsetores": 8436,
      "ĠMonte": 8437,
      "Ġlau": 8438,
      "izem": 8439,
      "Ġsomos": 8440,
      "Ġansi": 8441,
      "edpio": 8442,
      "Ġnasceu": 8443,
      "Ġletalidade": 8444,
      "ĠChile": 8445,
      "Ġtrabalhos": 8446,
      "Ġagir": 8447,
      "Ġinfectado": 8448,
      "Ġrecomendada": 8449,
      "nascidos": 8450,
      "Ġvirtual": 8451,
      "ĠameaÃ§as": 8452,
      "ĠFlÃ¡": 8453,
      "Ġambiental": 8454,
      "Ġcumprir": 8455,
      "ĠSAÃļDE": 8456,
      "ĠcÃ¡l": 8457,
      "ĠprorrogaÃ§Ã£o": 8458,
      "Ġestruturas": 8459,
      "ĠDourados": 8460,
      "Ġassistencial": 8461,
      "ĠAguda": 8462,
      "Ġsapatilhas": 8463,
      ")\\": 8464,
      "Conas": 8465,
      "ROS": 8466,
      "bais": 8467,
      "fun": 8468,
      "its": 8469,
      "Ġq": 8470,
      "Ġrei": 8471,
      "Ġbrit": 8472,
      "Ġlas": 8473,
      "Ġdescrito": 8474,
      "ĠRou": 8475,
      "ĠTEM": 8476,
      "tilha": 8477,
      "Ġconfor": 8478,
      "Ġacontecido": 8479,
      "Ġviralizaram": 8480,
      "valo": 8481,
      "Ġcoletivo": 8482,
      "Ġgovern": 8483,
      "ĠPrevenÃ§Ã£o": 8484,
      "Essa": 8485,
      "acheco": 8486,
      "Ġcontaminados": 8487,
      "Ġperigoso": 8488,
      "ĠdÃ©cadas": 8489,
      "Ġamericano": 8490,
      "Ġdeterminou": 8491,
      "Ġbairro": 8492,
      "CN": 8493,
      "bres": 8494,
      "bras": 8495,
      "mil": 8496,
      "Ġorg": 8497,
      "Ġdecid": 8498,
      "tiram": 8499,
      "ÃŃplice": 8500,
      "ĠPacheco": 8501,
      "doso": 8502,
      "ame": 8503,
      "Ġapa": 8504,
      "âĢĿ).": 8505,
      "Ġouro": 8506,
      "tano": 8507,
      "nador": 8508,
      "Ġentrevistas": 8509,
      "Ġinteressados": 8510,
      "ĠConforme": 8511,
      "Ġleia": 8512,
      "Ġorden": 8513,
      "Ġutilizou": 8514,
      "Ġobjetivos": 8515,
      "Ġretirar": 8516,
      "Ġroupas": 8517,
      "ĠSanitÃ¡rios": 8518,
      "Ġinovado": 8519,
      "ĠColÃ´mbia": 8520,
      "Ġinstalada": 8521,
      "Ġaposentadoria": 8522,
      "ĠEdgar": 8523,
      "Ġabsolu": 8524,
      "ĠMichelle": 8525,
      "ĠAcontece": 8526,
      "QUE": 8527,
      "bis": 8528,
      "dd": 8529,
      "alto": 8530,
      "Ġdesma": 8531,
      "viu": 8532,
      "Ġpartido": 8533,
      "cur": 8534,
      "Ġindicar": 8535,
      "Ġ79": 8536,
      "Ġ700": 8537,
      "Ġ2012": 8538,
      "TAN": 8539,
      "Ġsabia": 8540,
      "ĠDesse": 8541,
      "margo": 8542,
      "ĠrespiratÃ³ria": 8543,
      "Ġacessando": 8544,
      "Ġacreditam": 8545,
      "ĠXIV": 8546,
      "Ġpermitindo": 8547,
      "Ġacompanham": 8548,
      "Ġrecebendo": 8549,
      "ĠTranscriÃ§Ã£o": 8550,
      "ĠTÃ©cnica": 8551,
      "Ġparalisia": 8552,
      "Ġcoberturas": 8553,
      "Ġpromessa": 8554,
      "LH": 8555,
      "dinha": 8556,
      "pria": 8557,
      "rativos": 8558,
      "algo": 8559,
      "eirÃ£o": 8560,
      "ĠgÃ¡s": 8561,
      "ĠBiden": 8562,
      "Ġcata": 8563,
      "Ġatendidas": 8564,
      "Ġregra": 8565,
      "ĠNota": 8566,
      "Ġpublicados": 8567,
      "ĠOutubro": 8568,
      "Ġatualizadas": 8569,
      "Ġafirmado": 8570,
      "ganta": 8571,
      "Ġfechado": 8572,
      "executivo": 8573,
      "Ġfrequentes": 8574,
      "Ġrecorrentes": 8575,
      "ĠcrÃŃtica": 8576,
      "Ġproibido": 8577,
      "ĠproibiÃ§Ã£o": 8578,
      "ĠFlor": 8579,
      "Ġexpandir": 8580,
      "Ġpersonagem": 8581,
      "ĠInformaÃ§Ãµes": 8582,
      "Ġadversos": 8583,
      "Ġproprie": 8584,
      "Ġfossem": 8585,
      "ĠMUNICI": 8586,
      "ĠCompartilhe": 8587,
      "ky": 8588,
      "Ġfoc": 8589,
      "Ã¡u": 8590,
      "Ġdada": 8591,
      "Ġdivi": 8592,
      "Ġpagos": 8593,
      "Ġinflu": 8594,
      "ĠUrg": 8595,
      "ĠconfianÃ§a": 8596,
      "ĠContudo": 8597,
      "Ġinsiste": 8598,
      "Ġfuncional": 8599,
      "ĠProfission": 8600,
      "Ġapresentadora": 8601,
      "Ġenvolvem": 8602,
      "Ġcritica": 8603,
      "ĠRobert": 8604,
      "Ġcolocando": 8605,
      "ĠespecÃŃfica": 8606,
      "ĠsanitÃ¡rias": 8607,
      "Ġestimular": 8608,
      "ĠÃŃndice": 8609,
      "Ġmanipula": 8610,
      "ĠindivÃŃduos": 8611,
      "ĠEmergÃªncia": 8612,
      "ĠcancerÃŃgen": 8613,
      "En": 8614,
      "Ver": 8615,
      "mei": 8616,
      "Ġsoro": 8617,
      "ĠAO": 8618,
      "Ġben": 8619,
      "tran": 8620,
      "Ġouvir": 8621,
      "Ġtomando": 8622,
      "ĠVai": 8623,
      "ĠURGENTE": 8624,
      "Ġprestar": 8625,
      "essem": 8626,
      "ket": 8627,
      "itÃ¡rios": 8628,
      "Ġregistraram": 8629,
      "ĠrepÃ³rter": 8630,
      "Ġincluir": 8631,
      "cidades": 8632,
      "Ġeleitores": 8633,
      "ĠINTER": 8634,
      "ĠUSB": 8635,
      "ĠpulmÃ£o": 8636,
      "ĠEquipe": 8637,
      "Ġimediato": 8638,
      "Ġultras": 8639,
      "Ġabsurda": 8640,
      "ĠprioritÃ¡rios": 8641,
      "Ġconjunta": 8642,
      "ĠTransmissÃŃveis": 8643,
      "DS": 8644,
      "DIC": 8645,
      "imentos": 8646,
      "zos": 8647,
      "Ġativos": 8648,
      "Ġajus": 8649,
      "ĠmÃ©dio": 8650,
      "Ġconvers": 8651,
      "hecimento": 8652,
      "itÃ¡ria": 8653,
      "Ġespecialidades": 8654,
      "ĠescÃ¢nda": 8655,
      "TAR": 8656,
      "ĠresoluÃ§Ã£o": 8657,
      "Ġpublicar": 8658,
      "ĠCuia": 8659,
      "Ġimplementa": 8660,
      "Ġrecebimento": 8661,
      "Ġdeputados": 8662,
      "Ġevitando": 8663,
      "Ġpreench": 8664,
      "Ġimpulsion": 8665,
      "fc": 8666,
      "gicas": 8667,
      "tw": 8668,
      "inais": 8669,
      "ĠAni": 8670,
      "ĠSAN": 8671,
      "Ġconqu": 8672,
      "ĠCara": 8673,
      "Ġhack": 8674,
      "ĠMIL": 8675,
      "ĠTen": 8676,
      "Ġfaleceu": 8677,
      "Ġcai": 8678,
      "postos": 8679,
      "neo": 8680,
      "Ġvacinou": 8681,
      "Ġleitor": 8682,
      "ĠmatÃ©rias": 8683,
      "bilizaÃ§Ã£o": 8684,
      "Ġ993": 8685,
      "Ġenvolvimento": 8686,
      "Ġquarto": 8687,
      "ĠGuar": 8688,
      "ĠGlobal": 8689,
      "Ġpermanecer": 8690,
      "ĠdiminuiÃ§Ã£o": 8691,
      "Ġgastos": 8692,
      "ĠadministraÃ§Ã£o": 8693,
      "ĠATENÃĩÃĥO": 8694,
      "Ġdomiciliar": 8695,
      "ĠcomposiÃ§Ã£o": 8696,
      "Ġequivocada": 8697,
      "Ġespiri": 8698,
      "Ġgordura": 8699,
      "uminense": 8700,
      "Ġcolapso": 8701,
      "Na": 8702,
      "Ġ?": 8703,
      "Ġpico": 8704,
      "Ġpsi": 8705,
      "encial": 8706,
      "mago": 8707,
      "aros": 8708,
      "Ġestas": 8709,
      "ĠSÃĥO": 8710,
      "ĠVira": 8711,
      "ĠprÃ©dio": 8712,
      "Ġatento": 8713,
      "mann": 8714,
      "Ġvacinais": 8715,
      "Ġ58": 8716,
      "eladas": 8717,
      "arando": 8718,
      "Ġagre": 8719,
      "ĠdistribuÃŃdas": 8720,
      "Ġ180": 8721,
      "ANDO": 8722,
      "Ġdeveriam": 8723,
      "Ġpopulacional": 8724,
      "Ġconsumir": 8725,
      "ĠconcentraÃ§Ã£o": 8726,
      "Ġestimativa": 8727,
      "Ġjogadores": 8728,
      "Ġnariz": 8729,
      "Ġgarganta": 8730,
      "ĠSouza": 8731,
      "ĠVascon": 8732,
      "Ġsincicial": 8733,
      "Ġlinguagem": 8734,
      "ĠEdgard": 8735,
      "Pa": 8736,
      "cica": 8737,
      "xim": 8738,
      "Ġsenhor": 8739,
      "inga": 8740,
      "ĠSino": 8741,
      "Ġhos": 8742,
      "âĢĿ?": 8743,
      "Ġanual": 8744,
      "Ġprep": 8745,
      "Ġimig": 8746,
      "bados": 8747,
      "ixos": 8748,
      "Ġpassada": 8749,
      "iseric": 8750,
      "Ġrara": 8751,
      "Ġvisam": 8752,
      "lide": 8753,
      "ĠgeraÃ§Ã£o": 8754,
      "Ġ08": 8755,
      "ĠvotaÃ§Ã£o": 8756,
      "Ġdesinforma": 8757,
      "Ġintegrar": 8758,
      "Ġidosa": 8759,
      "Ġpublicidade": 8760,
      "Ġdisponibilizados": 8761,
      "ĠpadrÃµes": 8762,
      "ĠbÃ¡sico": 8763,
      "Ġdescartados": 8764,
      "ĠCircula": 8765,
      "ĠcontÃŃnuo": 8766,
      "ĠFilho": 8767,
      "ĠfÃ³rmula": 8768,
      "ĠVasconcel": 8769,
      "EP": 8770,
      "Minist": 8771,
      "Ġatos": 8772,
      "teve": 8773,
      "icios": 8774,
      "Ġcomentar": 8775,
      "emble": 8776,
      "ĠCOR": 8777,
      "ĠClau": 8778,
      "Ġbril": 8779,
      "Ġdescul": 8780,
      "ĠRES": 8781,
      "Ġ120": 8782,
      "gover": 8783,
      "ĠGover": 8784,
      "Ġposse": 8785,
      "Ġarterial": 8786,
      "loga": 8787,
      "Ġleis": 8788,
      "Ġpassageiros": 8789,
      "ĠagÃªncias": 8790,
      "ĠprogramaÃ§Ã£o": 8791,
      "ĠMats": 8792,
      "ĠValor": 8793,
      "ĠPereira": 8794,
      "ĠrespiratÃ³rios": 8795,
      "Ġatingiu": 8796,
      "Ġbeneficiar": 8797,
      "Ġshopping": 8798,
      "ĠChagas": 8799,
      "ĠBoletim": 8800,
      "Ġsensacionalista": 8801,
      "Ġsensacionalistas": 8802,
      "Ġaprimoramento": 8803,
      "Ġigreja": 8804,
      "jÃ¡": 8805,
      "kk": 8806,
      "Ġ)": 8807,
      "quim": 8808,
      "ĠAcesso": 8809,
      "Ã³rio": 8810,
      "ĠMel": 8811,
      "Ġprogres": 8812,
      "Ġdeseja": 8813,
      "ĠFBI": 8814,
      "Ġexces": 8815,
      "Ġrespal": 8816,
      "Ġcomprado": 8817,
      "Ġtratam": 8818,
      "Ġmatou": 8819,
      "Ġimporta": 8820,
      "Ġligados": 8821,
      "ĠQuanto": 8822,
      "ĠtendÃªncia": 8823,
      "Ġgarantem": 8824,
      "Ġveneno": 8825,
      "ĠirmÃ£o": 8826,
      "Ġ02": 8827,
      "ĠmalÃ¡ria": 8828,
      "ÃĩO": 8829,
      "ĠNeg": 8830,
      "ĠingestÃ£o": 8831,
      "Ġingredi": 8832,
      "ĠPartic": 8833,
      "Ġanunciar": 8834,
      "Ġgesto": 8835,
      "Ġimpostos": 8836,
      "ĠoperaÃ§Ãµes": 8837,
      "Ġcontemplados": 8838,
      "Ġbrincadeira": 8839,
      "embleia": 8840,
      "bai": 8841,
      "slide": 8842,
      "Ġpis": 8843,
      "Ġcoman": 8844,
      "Ã¡cias": 8845,
      "ĠinvenÃ§Ã£o": 8846,
      "ĠinÃºmeros": 8847,
      "Ġcond": 8848,
      "Ġ1000": 8849,
      "Ġfaixas": 8850,
      "blo": 8851,
      "Ġsiga": 8852,
      "Ġvira": 8853,
      "ĠPaulista": 8854,
      "Ġimuniza": 8855,
      "Ġ01": 8856,
      "Ġviaj": 8857,
      "ĠCasos": 8858,
      "Esse": 8859,
      "Ġlava": 8860,
      "ĠPolos": 8861,
      "ĠmÃ©todos": 8862,
      "ĠprejuÃŃ": 8863,
      "Ġgigante": 8864,
      "Ġtradicionais": 8865,
      "Ġcostumam": 8866,
      "Ġdispositivo": 8867,
      "OCÃĬ": 8868,
      "ĠNenhuma": 8869,
      "ĠGabriel": 8870,
      "ĠCuiabÃ¡": 8871,
      "41": 8872,
      "EZ": 8873,
      "TRO": 8874,
      "egal": 8875,
      "prim": 8876,
      "zaro": 8877,
      "Ã©tico": 8878,
      "ĠAids": 8879,
      "ĠSerra": 8880,
      "Ġsocio": 8881,
      "viral": 8882,
      "Ġtox": 8883,
      "ĠGal": 8884,
      "Ġreserva": 8885,
      "ĠHU": 8886,
      "sias": 8887,
      "ĠprÃ³s": 8888,
      "Ġconfun": 8889,
      "Ġvide": 8890,
      "Ġviram": 8891,
      "Ġ51": 8892,
      "Ġinscre": 8893,
      "Ġ98": 8894,
      "ĠAnton": 8895,
      "Ġconhecidas": 8896,
      "Ġoficialmente": 8897,
      "ĠPopular": 8898,
      "Ġpoucas": 8899,
      "Ġlimpeza": 8900,
      "Ġglobais": 8901,
      "Ġelimina": 8902,
      "Ġmistu": 8903,
      "ĠprioritÃ¡rias": 8904,
      "ĠImunizaÃ§Ãµes": 8905,
      "ĠNenhum": 8906,
      "ĠBlack": 8907,
      "Ġparlamentares": 8908,
      "ĠDeputados": 8909,
      "Ġaulas": 8910,
      "Ġcoin": 8911,
      "ters": 8912,
      "Ġexage": 8913,
      "Ġenquad": 8914,
      "edcia": 8915,
      "Ġcasal": 8916,
      "ĠSeu": 8917,
      "Ġvencer": 8918,
      "Ġtalvez": 8919,
      "Ġadotadas": 8920,
      "Ġparecido": 8921,
      "Ġdezenas": 8922,
      "messas": 8923,
      "Ġincentiva": 8924,
      "Ġanunciada": 8925,
      "Ġatinge": 8926,
      "ĠFranco": 8927,
      "Ġpulmonar": 8928,
      "ĠcomentÃ¡rio": 8929,
      "Ġultraproc": 8930,
      "ĠHepati": 8931,
      "bachia": 8932,
      "Ġassistenciais": 8933,
      "ĠMatsuki": 8934,
      "bc": 8935,
      "feitos": 8936,
      "sino": 8937,
      "Ġabu": 8938,
      "into": 8939,
      "Ġfeliz": 8940,
      "Ġvan": 8941,
      "ĠCAR": 8942,
      "ĠUru": 8943,
      "plas": 8944,
      "grafo": 8945,
      "Ġvivos": 8946,
      "Ġsugerem": 8947,
      "Ġatuais": 8948,
      "Ġdefender": 8949,
      "Ġacabaram": 8950,
      "Ġantibi": 8951,
      "ICS": 8952,
      "Ġjornalistas": 8953,
      "Ġbilion": 8954,
      "ĠMÃ©dica": 8955,
      "Ġtransi": 8956,
      "ĠEurope": 8957,
      "Ġexistir": 8958,
      "ĠCrianÃ§a": 8959,
      "disciplinares": 8960,
      "Ġtrouxe": 8961,
      "Ġaspectos": 8962,
      "57": 8963,
      "59": 8964,
      "ĠeficiÃªncia": 8965,
      "orre": 8966,
      "ony": 8967,
      "Ġinex": 8968,
      "ĠCidade": 8969,
      "ĠEdi": 8970,
      "ĠRed": 8971,
      "itado": 8972,
      "tral": 8973,
      "Ġperi": 8974,
      "Ġcriados": 8975,
      "Ġatuando": 8976,
      "tricos": 8977,
      "ĠCOP": 8978,
      "ĠAssembleia": 8979,
      "ĠCamargo": 8980,
      "Ġorganiza": 8981,
      "ĠKar": 8982,
      "ĠperÃŃodos": 8983,
      "ĠEstabele": 8984,
      "ĠAgricultura": 8985,
      "Ġsuperf": 8986,
      "Ġgerente": 8987,
      "Ġtanta": 8988,
      "Ġmentiras": 8989,
      "Ġmilagre": 8990,
      "ĠeconÃ´mica": 8991,
      "Ġjustifica": 8992,
      "Ġpertence": 8993,
      "ontade": 8994,
      "Ġpronunciamento": 8995,
      "JA": 8996,
      "bom": 8997,
      "sÃ³": 8998,
      "yl": 8999,
      "Ġmi": 9000,
      "Ġfalas": 9001,
      "ĠVOCÃĬ": 9002,
      "eddo": 9003,
      "ĠNada": 9004,
      "Ġatendem": 9005,
      "Ġdiar": 9006,
      "ĠPatr": 9007,
      "Ġocorrem": 9008,
      "Ġtentam": 9009,
      "Ġconfirmadas": 9010,
      "ĠSecretÃ¡rio": 9011,
      "Ġrol": 9012,
      "ĠrÃ¡dio": 9013,
      "Ġidentificados": 9014,
      "Ġkit": 9015,
      "Ġkits": 9016,
      "ĠAmÃ©ricas": 9017,
      "Ġmotoc": 9018,
      "ĠBolsa": 9019,
      "Ġblogs": 9020,
      "Ġespecificamente": 9021,
      "ĠEnferm": 9022,
      "grafias": 9023,
      "ĠVACINA": 9024,
      "ĠRafael": 9025,
      "ibe": 9026,
      "tto": 9027,
      "esp": 9028,
      "Ġrequer": 9029,
      "Ġanualmente": 9030,
      "edticas": 9031,
      "ĠJorge": 9032,
      "Ġcorte": 9033,
      "Ġseguido": 9034,
      "ĠgraÃ§a": 9035,
      "Ġduvidos": 9036,
      "Ġelog": 9037,
      "ĠtrÃŃplice": 9038,
      "Ãªmio": 9039,
      "Ġvege": 9040,
      "Ġatualiza": 9041,
      "Ġsalas": 9042,
      "Ġreferente": 9043,
      "Ġcensu": 9044,
      "ĠaquisiÃ§Ãµes": 9045,
      "enciamento": 9046,
      "ĠTecnologias": 9047,
      "cepcional": 9048,
      "Ġmanifestantes": 9049,
      "www": 9050,
      "ĠalcoÃ³licas": 9051,
      "Ġsuplementos": 9052,
      "dimir": 9053,
      "Ġsenador": 9054,
      "ĠExemplo": 9055,
      "Is": 9056,
      "Re": 9057,
      "fac": 9058,
      "his": 9059,
      "pus": 9060,
      "Ġpic": 9061,
      "ĠcÃ¢": 9062,
      "isse": 9063,
      "Ã¡gua": 9064,
      "ÃŃrem": 9065,
      "Ġindo": 9066,
      "Ġtribu": 9067,
      "ĠPL": 9068,
      "ĠVila": 9069,
      "ĠLÃŃ": 9070,
[...]
